the 304422
, 204705
to 156112
of 149737
and 106907
in 95500
is 95101
a 79595
that 76010
I 59537
this 50559
for 49331
be 48376
we 42393
on 42177
are 40101
The 37443
have 37234
not 35500
it 31423
will 27717
with 27326
as 26022
which 24884
has 24758
We 22116
European 21956
Mr 21232
by 21184
Commission 18913
must 18076
would 17459
also 17108
at 16680
should 16644
It 16400
an 16234
' 15293
This 14747
all 14687
been 14217
our 14198
President 14141
from 13174
was 12469
can 12005
you 11454
In 11433
Parliament 11227
but 11172
do 10955
report 10930
there 10709
these 10678
like 10638
more 10512
Union 9878
very 9524
Council 9504
its 9205
? 8879
or 8683
about 8658
States 8492
Member 8436
their 8336
they 8163
need 8130
what 8110
s 8063
one 8026
Europe 7908
my 7883
no 7780
's 7777
us 7727
important 7557
countries 7404
now 7181
therefore 7171
only 7021
other 7003
am 6808
time 6783
take 6630
people 6602
policy 6575
That 6350
up 6321
so 6262
make 6188
- 6186
if 6139
support 6081
EU 5967
new 5895
out 5712
work 5679
into 5557
who 5540
any 5469
way 5400
There 5320
debate 5312
were 5266
made 5261
some 5254
issue 5178
being 5089
proposal 4991
point 4948
such 4945
between 4936
than 4862
believe 4846
Commissioner 4776
political 4769
cannot 4718
because 4698
first 4691
them 4639
many 4450
As 4432
does 4423
want 4348
just 4329
those 4319
too 4295
when 4290
say 4257
question 4241
against 4221
think 4175
here 4161
two 4096
fact 4084
vote 3987
already 3981
right 3940
still 3925
However 3913
me 3884
Mrs 3826
rights 3816
could 3801
had 3792
years 3769
said 3735
situation 3719
same 3706
know 3640
course 3636
good 3612
possible 3596
future 3591
why 3526
year 3517
within 3516
hope 3497
directive 3485
taken 3465
measures 3426
today 3420
however 3418
amendments 3413
public 3412
place 3406
clear 3389
your 3384
how 3344
most 3344
social 3338
problem 3336
well 3331
see 3316
much 3295
But 3293
market 3293
part 3288
even 3269
economic 3238
development 3216
his 3188
process 3178
If 3175
view 3173
case 3153
human 3140
then 3119
national 3113
order 3111
country 3077
matter 3039
number 3034
able 3022
Community 3021
own 3013
Committee 2997
common 2985
great 2966
What 2964
information 2942
area 2941
action 2939
use 2939
both 2907
rapporteur 2896
where 2892
over 2888
cooperation 2884
last 2863
put 2854
under 2850
A 2830
means 2816
issues 2804
citizens 2802
before 2801
may 2785
problems 2783
give 2780
system 2769
position 2753
far 2748
proposals 2681
example 2677
agreement 2667
These 2623
world 2597
They 2587
level 2585
thank 2581
No 2518
he 2503
financial 2498
present 2461
end 2457
House 2448
budget 2434
again 2432
shall 2428
without 2426
particular 2423
international 2417
further 2412
given 2403
programme 2387
ensure 2370
legislation 2368
done 2365
% 2333
aid 2333
legal 2332
For 2311
set 2307
necessary 2301
areas 2272
different 2272
something 2271
respect 2220
opinion 2216
regard 2214
concerned 2212
come 2212
few 2200
Madam 2190
enlargement 2179
gentlemen 2166
principle 2165
group 2157
wish 2147
particularly 2145
progress 2137
through 2124
welcome 2122
proposed 2121
basis 2118
Members 2100
law 2098
ask 2091
certain 2065
agree 2059
resolution 2054
adopted 2053
quite 2052
whether 2051
United 2049
long 2036
second 2033
rules 2024
safety 2001
role 2000
three 1986
better 1973
continue 1972
approach 1960
go 1957
points 1951
next 1935
going 1899
forward 1888
women 1888
decision 1882
clearly 1871
institutions 1860
terms 1859
framework 1846
needs 1845
whole 1836
health 1833
So 1833
subject 1829
protection 1819
deal 1816
committee 1813
favour 1812
working 1807
really 1798
Amendment 1793
And 1792
used 1782
industry 1773
did 1770
since 1764
responsibility 1754
On 1752
ladies 1749
importance 1745
security 1744
accept 1740
help 1732
result 1729
million 1728
At 1727
environmental 1726
become 1711
towards 1703
another 1696
every 1688
change 1683
specific 1682
after 1681
always 1680
itself 1678
sector 1673
amendment 1661
regulation 1653
State 1647
You 1644
reason 1638
down 1637
Presidency 1627
major 1615
reform 1610
money 1606
services 1600
concerns 1597
food 1594
Treaty 1592
procedure 1587
EUR 1581
opportunity 1567
difficult 1565
rather 1564
certainly 1561
current 1557
government 1554
products 1554
serious 1549
things 1547
find 1538
general 1532
questions 1532
state 1531
extremely 1524
involved 1523
increase 1518
step 1507
closed 1506
positive 1505
concern 1501
achieve 1495
get 1492
employment 1490
together 1479
provide 1473
making 1472
words 1467
control 1464
Let 1463
look 1459
Group 1455
account 1454
greater 1452
fully 1452
trade 1447
real 1443
yet 1441
conditions 1440
resources 1439
once 1435
attention 1432
society 1425
transport 1423
essential 1422
decisions 1419
voted 1414
research 1413
during 1406
each 1404
often 1400
competition 1400
small 1399
simply 1393
less 1392
1 1386
call 1384
taking 1379
fundamental 1377
mentioned 1376
back 1373
consider 1367
authorities 1364
negotiations 1362
Our 1361
especially 1359
aware 1353
`` 1353
peace 1346
democracy 1346
various 1343
her 1342
least 1333
initiative 1333
tomorrow 1331
energy 1331
companies 1325
large 1318
Finally 1313
feel 1306
available 1302
My 1297
democratic 1295
internal 1287
understand 1285
access 1273
start 1273
form 1272
risk 1269
best 1268
open 1265
high 1265
majority 1262
full 1261
efforts 1257
objective 1248
third 1247
based 1246
allow 1245
solution 1244
Secondly 1242
reports 1240
upon 1235
implementation 1234
environment 1233
effective 1229
agenda 1221
objectives 1221
excellent 1220
reasons 1220
To 1218
matters 1216
actually 1214
strategy 1214
text 1209
Convention 1209
policies 1207
interests 1207
nothing 1203
programmes 1200
meeting 1194
regions 1189
dialogue 1189
ago 1188
congratulate 1186
enough 1178
All 1176
interest 1172
'' 1171
economy 1170
Article 1159
including 1150
main 1143
line 1143
key 1141
little 1140
groups 1138
might 1137
recent 1123
improve 1121
candidate 1118
moment 1116
concerning 1112
having 1110
agricultural 1109
mean 1109
discussion 1108
doing 1108
responsible 1108
currently 1108
terrorism 1106
longer 1104
field 1102
standards 1099
management 1096
themselves 1095
cases 1094
answer 1093
others 1090
children 1090
kind 1089
fight 1089
bring 1078
quality 1074
create 1072
Turkey 1072
tabled 1071
behalf 1070
power 1069
achieved 1066
indeed 1065
2000 1061
production 1059
final 1057
5 1052
parties 1052
months 1051
funds 1049
One 1048
hand 1048
past 1047
With 1047
life 1046
needed 1041
freedom 1041
appropriate 1032
sure 1032
region 1031
Nice 1031
force 1030
results 1029
priority 1028
day 1027
thing 1025
single 1019
lead 1017
context 1017
comes 1016
makes 1016
developing 1015
apply 1014
act 1012
12 1010
11 1007
consumers 1001
Court 1000
crisis 999
Charter 999
crucial 993
free 990
idea 988
Government 987
let 985
compromise 979
Summit 979
addition 978
effect 977
true 976
communication 975
draft 975
asked 973
costs 972
task 971
never 970
commitment 969
aspects 967
ourselves 958
Affairs 956
seen 955
local 953
relations 953
systems 952
projects 948
agreements 948
practice 944
agreed 941
Therefore 939
speak 939
period 937
2 936
technical 930
special 928
play 928
3 924
several 924
consumer 923
voting 922
share 922
transparency 922
statement 921
everyone 920
due 919
Nos 919
regional 917
required 916
adopt 915
regarding 913
growth 912
governments 911
President-in-Office 908
lack 904
organisations 904
individual 903
members 900
success 900
stage 899
perhaps 896
contribution 890
pleased 889
i 888
states 887
remain 886
include 886
prevent 884
He 883
existing 881
aim 880
conflict 880
him 878
seems 876
euro 875
waste 872
plan 871
education 871
move 871
impact 870
raised 869
sense 869
note 867
Furthermore 865
following 860
2001 860
Of 858
sustainable 858
until 858
When 857
military 855
activities 855
principles 855
response 853
joint 851
everything 851
off 849
procedures 848
soon 847
included 842
global 842
provisions 839
legislative 838
French 836
keep 835
funding 832
guarantee 828
Amendments 825
provided 823
changes 822
carried 819
completely 819
colleagues 819
war 818
request 813
sitting 813
mind 813
relation 813
prepared 812
regulations 811
workers 809
Conference 808
project 807
though 804
mention 803
held 802
presented 801
pay 801
expressed 800
doubt 799
received 796
address 796
week 796
10 793
animal 793
either 791
Firstly 790
service 788
direction 786
basic 784
budgetary 783
markets 783
tax 782
discussed 782
list 781
quickly 778
farmers 778
balance 777
saying 775
business 774
First 774
benefit 773
focus 770
significant 770
civil 770
short 766
connection 766
talk 766
talking 765
fisheries 764
cause 763
4 760
water 758
comment 757
criteria 757
Rights 756
while 753
crime 753
comments 751
nature 751
actions 748
young 746
took 745
established 744
express 742
draw 741
decided 741
document 740
around 740
reached 738
strong 738
reading 736
coordination 736
initiatives 735
How 735
effort 734
discuss 733
show 733
job 732
presidency 731
called 730
integration 730
previous 729
requirements 729
throughout 729
Is 728
population 727
times 727
September 725
accession 724
data 724
jobs 723
Minister 722
behind 722
close 720
promote 719
across 719
6 717
unacceptable 717
practical 717
implemented 717
animals 717
increased 714
values 712
she 711
turn 711
although 710
brought 708
value 708
ban 708
try 708
honourable 708
found 707
stability 706
absolutely 706
scope 706
develop 706
asylum 702
considerable 700
term 698
foreign 693
applies 693
Now 692
confidence 692
poverty 692
amount 689
increasing 689
recently 688
rule 688
1999 685
Some 685
violence 684
priorities 683
content 682
Lisbon 682
takes 681
anything 681
regards 681
requires 680
community 678
four 677
applied 676
experience 675
meet 674
documents 672
road 670
heard 670
000 668
Ireland 668
nuclear 667
reality 665
15 661
Unfortunately 661
conclusions 661
expect 661
implement 660
date 659
motion 659
additional 658
events 658
add 657
East 656
reduce 654
discussions 654
demand 654
immigration 654
cost 653
training 651
wanted 651
equal 651
huge 650
instrument 649
victims 649
days 648
tell 648
among 648
assessment 648
protect 648
live 647
five 647
using 647
lot 645
application 645
external 644
extent 643
monitoring 643
method 643
light 642
Moreover 642
establish 642
remains 641
solidarity 641
Swedish 641
propose 640
conclusion 640
considered 640
almost 640
authority 640
2002 639
air 637
consequences 637
France 637
left 636
review 635
precisely 634
pressure 634
ever 633
levels 633
fishing 633
seriously 630
stand 629
reach 628
alone 626
consideration 626
powers 624
justice 624
yesterday 623
cultural 623
UN 623
circumstances 622
assistance 622
acceptable 622
accepted 622
elections 621
instruments 619
Russia 618
opportunities 616
goes 616
item 615
effects 615
referred 615
After 614
criminal 614
coming 611
views 610
outside 610
reforms 607
myself 607
total 606
Brussels 605
stated 604
vital 604
reference 603
plans 602
approved 602
Paper 599
begin 599
nor 599
relevant 597
overall 596
private 595
price 595
investment 595
sound 594
challenge 592
measure 592
refer 591
urge 590
along 589
above 589
stop 589
aspect 589
type 589
discrimination 589
purpose 588
urgent 586
old 586
away 586
labour 585
offer 585
guidelines 585
direct 583
police 582
thus 581
face 581
parliamentary 581
administrative 580
Why 579
risks 579
7 579
avoid 579
Indeed 578
American 578
carry 578
message 578
sufficient 577
ten 577
speaking 577
giving 577
rightly 577
summit 576
sort 575
reply 575
follow 574
scientific 574
namely 573
side 573
developments 573
supported 572
happen 572
product 571
Many 571
capacity 570
thanks 569
demands 567
fair 567
allowed 566
earlier 566
directives 566
receive 566
Today 564
rate 564
speech 563
20 563
hard 563
require 562
discussing 561
successful 560
committed 559
fellow 559
wrong 558
word 558
trying 557
potential 557
dealing 557
model 556
effectively 556
limit 555
Since 554
British 550
technology 550
relating 550
defence 550
per 549
Spanish 549
limited 548
complete 546
proper 546
billion 546
later 545
agriculture 545
combat 544
possibility 544
developed 544
difficulties 544
poor 543
shown 542
representatives 542
December 539
Internet 539
ought 539
liberalisation 539
closely 536
wants 535
party 535
Party 534
sectors 534
borders 534
regime 534
Africa 534
MEPs 533
morning 533
May 533
commitments 533
8 532
Only 532
WTO 532
beginning 529
creation 528
floor 528
ways 527
created 527
affected 526
steps 525
independent 525
tobacco 525
intended 524
hear 523
forms 523
unfortunately 523
death 521
outcome 520
decide 520
provision 520
exist 518
expenditure 518
stress 518
early 517
setting 517
encourage 515
World 515
definition 515
personal 514
thinking 513
finally 513
exactly 513
Middle 513
solutions 512
concept 511
addressed 510
specifically 510
partners 510
men 509
provides 508
sometimes 508
illegal 508
similar 508
probably 507
participation 507
obviously 506
Irish 506
happened 506
movement 506
capital 505
minimum 505
produce 505
raise 504
event 504
leave 504
return 504
directly 504
age 504
recognise 504
staff 504
US 504
totally 502
beyond 502
mainly 501
Israel 501
improved 500
Germany 500
six 500
forces 499
broad 499
discharge 499
Prodi 498
creating 497
traffic 497
Palestinian 497
structural 496
Nevertheless 496
else 495
prevention 495
highly 495
30 494
whose 494
treatment 494
( 493
Thirdly 493
businesses 493
organisation 493
produced 492
home 492
9 492
half 492
analysis 491
Rules 491
entire 489
reject 488
language 488
properly 487
submitted 487
status 487
sanctions 486
noon 486
administration 485
substances 484
Greece 483
thought 483
looking 483
weeks 481
speakers 480
oil 480
active 480
introduced 479
institutional 479
Sweden 479
according 478
refugees 477
seem 477
strengthen 476
increasingly 476
manner 475
organised 475
regret 474
dealt 474
humanitarian 474
package 473
gives 473
useful 472
implementing 472
shows 472
join 472
met 471
prices 470
living 469
calls 469
informed 468
Regulation 468
critical 466
-@@ 466
un@@ 466
becoming 465
reduction 465
emphasise 465
known 463
flexibility 463
pointed 463
family 463
remind 462
Even 462
consultation 462
Ministers 462
contains 462
led 461
improvement 460
convinced 460
knowledge 460
disease 459
says 458
climate 458
America 458
fall 457
UK 457
history 457
dangerous 456
correct 455
Afghanistan 455
study 454
annual 453
press 453
culture 453
hold 453
partnership 452
higher 452
spirit 451
subsidiarity 451
An 451
long-term 451
ground 451
maintain 450
2003 450
responsibilities 449
contribute 449
colleague 449
genuine 449
China 449
balanced 447
supports 447
happy 447
emissions 447
read 447
natural 446
delegation 446
represent 445
By 445
ahead 445
paid 445
Kosovo 445
parliaments 445
bear 444
enormous 443
instead 443
damage 443
concrete 442
Yet 441
care 441
noise 441
unable 440
intention 439
Mediterranean 439
actual 438
BSE 438
debates 438
attitude 437
fish 437
enable 436
grateful 436
rapporteurs 436
intend 435
ambitious 435
company 434
decision-making 434
Directive 434
respond 433
criticism 433
easy 433
efficient 432
accordance 432
Lastly 432
carefully 431
figures 431
alternative 431
People 430
consensus 430
entirely 430
sensitive 430
media 430
Bank 430
interesting 429
cross-border 429
benefits 428
Agreement 427
choice 427
remember 426
chance 426
impossible 426
intervention 426
opposed 426
Procedure 425
asking 425
rise 424
differences 423
duty 423
conference 422
extend 422
statements 421
caused 421
bodies 421
meetings 421
drawn 419
conclude 419
providing 419
elements 419
briefly 418
lives 418
Spain 418
Nations 417
body 417
cover 417
safe 417
relationship 417
tasks 417
naturally 416
50 415
activity 415
ideas 415
comprehensive 415
evidence 414
de 414
International 414
networks 414
central 413
improving 413
payments 413
added 413
closer 413
Although 412
exercise 411
complex 411
13 411
appears 411
Central 410
subsidies 410
fraud 410
achieving 410
immediately 409
merely 409
related 409
unemployment 408
changed 408
Ladies 407
resolutions 407
covered 407
contrary 407
strongly 406
detail 405
board 405
supporting 405
Such 405
building 404
represents 404
equality 404
introduce 403
perspective 403
proposes 403
Treaties 403
Those 402
came 402
recognised 402
goods 401
trust 401
constructive 400
methods 400
recognition 400
threat 399
January 398
Barcelona 398
; 397
involve 396
fund 396
involving 396
table 396
re@@ 396
rest 396
worked 395
network 395
name 395
send 394
Republic 394
lines 394
introduction 394
Social 393
supply 393
simple 393
substantial 393
Iraq 393
fear 392
targets 392
Then 391
Patten 391
positions 390
According 390
June 390
aims 390
calling 390
so-called 390
Austria 390
despite 389
25 389
repeat 389
appear 388
reasonable 388
Another 387
attempt 387
getting 387
degree 386
Environment 386
bad 386
Human 386
border 386
arms 386
Fund 385
White 385
told 385
forget 385
leaders 385
Development 384
pollution 384
appropriations 384
rural 383
delighted 383
parts 382
run 382
controls 382
terrorist 382
14 382
wishes 381
growing 381
cohesion 381
Balkans 381
Policy 381
obvious 380
resolve 380
disaster 380
structure 380
establishing 379
managed 379
industrial 378
binding 378
original 378
votes 377
recommendations 377
institution 377
Perhaps 376
declaration 376
p 375
competitive 375
Do 375
detailed 374
combating 374
efficiency 374
conciliation 374
export 373
highlight 372
transparent 371
Public 371
affairs 371
Justice 371
exchange 371
laid 370
dimension 370
brief 370
followed 370
producers 370
financing 369
expected 369
justified 369
March 369
From 368
November 368
delay 368
October 367
Danish 367
feed 367
Fundamental 367
Chamber 367
granted 366
person 366
weapons 366
influence 366
ready 365
harmonisation 365
starting 365
challenges 365
rejected 365
Structural 364
lost 364
neither 364
child 364
failed 363
proposing 363
rapid 362
judicial 362
big 362
Turkish 362
paragraph 361
desire 361
limits 360
office 360
Here 360
1998 359
negative 359
understanding 358
low 358
Kyoto 357
pension 357
started 357
danger 357
Does 356
Kingdom 355
South 355
laws 354
seek 354
practices 354
works 354
proceed 353
reduced 353
build 353
adequate 353
resolved 353
commercial 353
adoption 353
structures 352
acts 352
Funds 351
interested 351
plenary 351
facing 350
putting 350
happening 350
reducing 349
Nor 349
Strasbourg 348
initial 348
factor 347
endorse 346
goal 346
anyone 346
Belgian 346
explain 345
signed 345
opposition 345
attacks 345
element 344
greatest 344
evaluation 343
sea 343
obligations 343
globalisation 343
strategic 342
appeal 342
July 341
spent 341
includes 341
integrated 340
mutual 340
late 339
defined 339
German 339
worth 339
examples 339
labelling 339
grounds 338
causes 338
infrastructure 338
relates 338
solve 338
currency 338
maximum 337
failure 337
land 337
arrangements 337
requirement 336
serve 336
continuing 335
electronic 335
Portuguese 335
ones 334
participate 334
Programme 334
Not 333
seeking 333
separate 333
2004 333
elected 332
employees 332
Economic 332
whom 332
sides 332
material 331
contributions 331
round 331
Intergovernmental 330
evening 330
tried 330
Despite 330
promoting 329
lies 329
difference 329
tackle 329
cut 328
link 328
standard 328
secure 328
conflicts 328
involvement 327
trafficking 327
competence 326
Europeans 326
designed 325
suspended 325
Cyprus 325
clarify 324
Amsterdam 324
NATO 324
Russian 324
former 322
Instead 322
mandate 322
Laeken 322
member 321
generally 321
fail 321
ensuring 320
knows 320
happens 319
enterprises 319
gave 319
official 318
heart 318
welcomed 318
committees 318
Because 318
campaign 318
comply 317
enter 317
occasions 317
forthcoming 317
month 317
Prime 317
constitution 317
series 316
session 316
realise 315
non-@@ 315
16 315
target 314
improvements 313
firstly 313
politics 313
More 313
operation 312
modern 312
sent 312
monitor 311
situations 311
medium-sized 311
suggest 311
finance 311
nonetheless 310
moving 310
extended 310
opening 310
bringing 309
obtain 309
treated 309
guarantees 308
range 308
citizen 308
involves 307
personally 307
sources 307
truly 307
continues 307
Protocol 307
consumption 307
constitutional 306
letter 306
credibility 306
NGOs 306
flexible 305
competitiveness 305
Both 305
Netherlands 305
option 305
insurance 305
argument 305
leading 305
factors 305
pass 304
wonder 304
planning 304
Pact 304
suffering 303
New 303
aimed 302
adopting 302
convention 302
guaranteed 302
Security 302
historic 302
Health 301
obligation 301
forced 301
perfectly 301
approval 301
facts 300
consistent 300
speed 300
worse 300
spoke 300
mechanisms 300
source 300
Green 300
stocks 300
reflect 300
beings 300
somewhat 299
establishment 299
18 299
thousands 299
voluntary 299
exclusion 298
learn 298
40 298
advantage 298
politicians 298
affect 297
exists 297
pensions 297
penalty 296
Once 296
fighting 296
burden 296
origin 296
emphasis 295
diversity 295
compensation 295
Question 295
drugs 295
tourism 295
crimes 294
Food 294
Agriculture 293
officials 293
implications 293
timetable 293
talks 293
rail 292
immediate 292
communities 292
scheme 292
membership 292
meat 292
impose 291
recommendation 291
linked 291
income 291
attack 290
conduct 290
written 290
continued 288
April 288
lose 288
noted 288
Will 288
room 287
instance 287
accidents 286
Italy 286
assure 286
ability 286
opinions 286
expression 286
precautionary 286
Authority 286
assume 286
got 286
requested 285
details 285
satisfied 285
Can 285
Auditors 285
sensible 285
figure 285
taxation 284
respected 284
farming 284
lower 284
temporary 284
ships 283
court 283
signal 283
emergency 283
sign 283
regulatory 282
equally 282
confirm 282
spoken 282
Thursday 281
kept 281
demonstrate 281
families 281
Stability 280
wait 279
codecision 279
likely 279
Denmark 279
examine 278
S@@ 278
welfare 278
hands 278
Italian 278
faced 278
immigrants 278
entitled 278
in@@ 277
approve 277
inadequate 277
Where 277
willing 277
arguments 276
agencies 276
largely 276
remarks 276
languages 276
gain 276
Research 276
Minutes 275
suggested 275
inform 275
Rule 274
easier 274
paper 274
agency 274
Europol 274
passed 274
precise 274
representative 274
placed 273
demonstrated 273
please 273
election 273
etc 273
sport 273
urgency 272
Ombudsman 272
17 272
brings 272
operations 272
visit 271
deserves 271
proof 271
purposes 270
satisfactory 270
100 270
presence 270
planned 269
intends 269
man 269
otherwise 269
fishermen 269
television 269
supplementary 269
Copenhagen 269
types 268
contained 268
revision 268
beef 268
heading 268
innovation 268
strengthening 267
impression 267
afternoon 267
Israeli 267
careful 267
Finland 267
persons 266
openness 266
spending 266
preparing 266
surely 266
individuals 266
Budgets 266
manage 266
appreciate 265
base 265
category 265
Last 265
strict 265
ports 265
concludes 265
contain 265
stands 265
learning 265
prepare 264
latter 264
minutes 264
debt 264
Legal 264
Agency 264
test 263
concentrate 263
opposite 263
encouraging 263
amongst 263
restrictions 263
liability 263
dis@@ 263
operate 263
played 263
shared 263
prove 263
0 263
distribution 263
dignity 263
pursue 262
operators 262
numerous 262
monetary 262
announced 262
occasion 262
Clearly 261
fine 261
Foreign 261
Chechnya 261
Johannesburg 261
proved 260
existence 260
function 260
believes 260
extensive 260
renewable 260
advice 259
legitimate 259
via 259
reaction 259
payment 259
substance 259
alcohol 259
operational 259
mechanism 259
oral 258
truth 258
gone 258
scale 258
considerations 258
undertaken 258
negotiating 258
Budget 258
ministers 258
continent 258
Are 257
protecting 257
top 257
latest 256
amounts 256
realistic 256
concluded 256
waiting 256
Greek 256
ACP 256
qualified 255
answers 255
Trade 255
leads 255
Morocco 255
Zimbabwe 255
universal 254
equipment 254
promotion 254
described 254
offers 254
technologies 254
actively 253
association 253
defend 253
experts 251
tragic 251
peaceful 251
imposed 251
topic 251
Without 251
exports 251
average 250
valuable 250
independence 250
nations 250
expectations 250
minority 250
compared 250
unless 249
normal 249
travel 249
condemn 249
purely 248
firm 248
permanent 248
published 248
Britain 248
proceedings 248
protected 248
vehicles 248
Otherwise 248
communications 248
Macedonia 248
considerably 247
changing 247
referring 247
urgently 247
acquis 247
courage 247
racism 247
domestic 247
firmly 246
goals 246
territory 246
primary 246
abuse 246
trading 245
highest 245
traditional 245
peoples 245
mobility 245
processes 245
pillar 244
applicant 244
significance 244
news 244
She 244
considering 243
record 243
decisive 243
mistake 243
succeed 243
resumed 243
religious 243
confirmed 242
unnecessary 242
taxes 242
version 242
obstacles 242
code 241
fulfil 241
define 241
represented 241
glad 241
centre 241
allocated 241
primarily 241
Consequently 240
ing 240
greatly 240
Serbia 240
sorry 240
background 239
politically 239
Gothenburg 239
hardly 238
er 238
century 238
core 238
explanation 237
union 237
Allow 237
relatively 237
grant 237
statistics 237
subjects 237
Stockholm 237
texts 236
extension 236
coherent 236
General 236
absolute 235
24 235
sets 235
applying 235
hours 235
Socialist 234
overcome 234
nevertheless 234
constantly 234
governance 234
maintained 234
requests 233
1997 233
highlighted 233
studies 233
delays 233
formal 233
North 233
Nonetheless 232
affects 232
A@@ 232
Any 232
electricity 232
safeguard 231
whatever 231
Berlin 231
GMOs 231
legally 230
Its 230
thanking 230
modified 230
running 230
behaviour 230
emphasised 230
wide 230
compliance 230
African 230
medicines 230
seven 229
Helsinki 229
stake 229
constitute 229
vision 229
quotas 229
night 229
February 228
compulsory 228
understood 228
Portugal 227
port 227
strategies 227
transfer 227
Thank 227
meant 227
wording 227
considers 226
sufficiently 226
easily 226
refers 226
van 226
destruction 226
Time 226
determined 226
patent 226
aircraft 226
uniform 225
drawing 225
Asia 225
observations 225
promised 225
went 225
Belgium 225
effectiveness 224
submit 224
Framework 224
exception 224
cooperate 224
mission 224
identified 224
Obviously 224
contact 224
Having 223
incorporated 223
Liberal 223
built 223
space 223
amended 223
completed 223
USA 223
introducing 223
IGC 222
awareness 222
During 222
ed 222
23 222
suffer 222
launched 222
Commissioners 222
phase 222
piece 222
21 222
d@@ 221
partly 221
2006 221
manufacturers 221
t 221
professional 221
remove 221
yes 221
saw 221
Solana 221
difficulty 220
elsewhere 220
investments 220
indicated 220
preparation 219
claim 219
19 219
ultimately 219
hopes 219
sexual 219
postal 219
imports 218
reservations 218
ethnic 218
choose 217
disposal 217
associated 217
friends 217
terrorists 217
rates 217
economies 216
allows 216
22 216
maritime 216
Organisation 216
minorities 216
felt 216
referendum 216
Dutch 215
Well 215
schemes 215
condition 215
deserve 215
Luxembourg 215
rapidly 215
couple 215
proportion 215
fuel 215
Your 214
holding 214
path 214
Under 214
advance 214
determination 214
credit 214
listen 214
preparations 214
voice 214
plants 214
users 214
accident 213
playing 213
OLAF 213
charges 213
complicated 213
aviation 213
seeing 212
tragedy 212
Presidents 211
becomes 211
near 211
front 211
waters 211
debating 211
daily 211
bilateral 211
materials 211
Questions 211
rich 211
deals 211
diseases 211
depend 210
declare 210
functioning 210
competences 210
28 210
ethical 210
facilitate 209
supervision 209
undoubtedly 209
oppose 209
recommend 209
summer 209
depends 209
stance 209
pleasure 209
insist 209
Women 209
excessive 208
Financial 208
spend 208
Their 208
places 208
keeping 207
Most 207
Yugoslavia 207
writing 207
acknowledge 207
Western 207
advertising 207
Monetary 206
follow-up 206
fifteen 206
poorest 206
regular 206
ers 206
falls 206
reconstruction 206
smoking 206
massive 205
strengthened 205
speaker 205
identify 205
creates 205
societies 205
B@@ 205
assess 205
producing 205
familiar 204
1996 204
basically 204
fewer 204
shortcomings 204
Like 204
count 204
Employment 204
contracts 204
Given 204
maintaining 204
preventing 203
evident 203
60 203
apart 203
possibly 203
outstanding 203
stressed 203
SMEs 202
ating 202
intentions 202
governing 202
chain 202
unanimously 202
finding 202
partner 202
Assembly 202
deficit 202
foremost 202
budgets 202
allowing 201
EC 201
Just 201
remaining 201
Schengen 201
solely 201
clause 201
innovative 201
harmful 201
blood 201
Safety 200
options 200
definitely 200
drafting 200
transitional 200
whatsoever 200
welcomes 200
forum 199
justify 199
freedoms 199
Every 199
bit 199
recovery 199
examined 198
marketing 198
wider 198
seeks 198
carrying 198
testing 198
issued 198
extra 198
addressing 198
genuinely 198
prisoners 198
employers 197
fleet 197
investigation 197
deeply 197
eye 197
re-@@ 196
gap 196
distributed 196
27 196
loss 196
thorough 196
collective 196
drafted 196
whilst 196
airports 196
indicators 196
observation 195
car 195
necessarily 195
widely 195
industries 195
Consumer 195
head 195
II 195
technological 195
healthy 195
ECB 195
correctly 194
Eastern 194
banks 194
tool 194
warmly 194
significantly 194
suggestion 194
fields 193
afraid 193
g@@ 193
restricted 193
offered 193
school 193
arise 193
Naturally 193
parliament 193
tests 193
previously 193
penalties 193
clarity 192
powerful 192
ated 192
Control 192
identity 192
heavy 192
31 192
inclusion 192
error 192
coherence 192
digital 192
smaller 191
strike 191
ratified 191
cars 191
reflected 191
Van 191
deliver 191
honour 191
ratification 191
part-session 190
Yes 190
red 190
construction 190
80 190
moral 190
stock 190
Americans 190
himself 190
possibilities 190
dependent 190
Latin 190
topical 189
capable 189
largest 189
removed 189
double 189
Could 189
trend 189
engage 189
millions 189
Heads 189
speeches 189
CAP 189
debated 188
southern 188
treaty 188
restore 188
helping 188
excluded 188
Would 188
numbers 188
entry 188
clarification 187
ate 187
Fischler 187
reiterate 187
negotiation 187
interpretation 187
killed 187
successfully 187
entered 186
While 186
extending 186
prior 186
warning 186
withdraw 186
feeling 186
PPE-DE 186
talked 186
gender 186
respects 186
de@@ 186
worldwide 186
Christian 186
constitutes 186
telecommunications 186
worst 185
barriers 185
Market 185
worrying 185
imagine 185
congratulating 185
ecological 185
High 185
o 185
minute 185
nation 185
accordingly 185
prefer 185
milk 185
applications 184
Everyone 184
slightly 184
Tampere 184
operating 184
break 184
P@@ 184
utmost 184
acting 184
check 184
picture 184
Palestinians 184
mark 184
convergence 184
chosen 184
Other 184
passengers 184
foot-and-mouth 184
disasters 183
helped 183
supposed 183
dynamic 183
moreover 183
Bureau 183
competent 182
Please 182
obliged 182
ts 182
bound 182
focused 182
absence 182
ambition 182
zone 182
prosperity 182
gas 182
surprised 181
migration 181
C@@ 181
opened 181
ting 181
eight 181
fairly 181
Budgetary 180
species 180
arrest 180
processing 180
Korea 180
Over 179
Office 179
English 179
roads 179
attempts 179
dispute 179
condemned 178
Surely 178
37 178
restructuring 178
size 178
Industry 178
coordinated 178
leadership 178
ates 178
protocol 178
Agenda 178
categories 177
vulnerable 177
aside 177
demanding 176
inspection 176
K@@ 176
harmonised 176
hearing 176
e@@ 176
spread 176
intervene 176
declared 175
mass 175
schools 175
certainty 175
exceptions 175
corruption 175
none 175
T@@ 175
players 175
driving 175
covers 175
repeatedly 175
recycling 175
paying 174
unfortunate 174
slow 174
Geneva 174
legitimacy 174
phenomenon 174
insufficient 174
ongoing 174
Austrian 174
delegations 174
regulated 174
solved 174
unanimity 174
violations 174
article 173
united 173
ation 173
experienced 173
interinstitutional 173
citizenship 173
Romania 173
advantages 173
weak 173
2@@ 172
National 172
e 172
proud 172
confusion 172
Fisheries 172
doubts 172
encouraged 172
prospects 172
secret 172
revised 172
Brok 172
sustainability 172
clearer 172
lacking 171
vessels 171
destroyed 171
lay 171
motions 171
crises 171
granting 171
laundering 171
exploitation 171
surrounding 171
inflation 171
unfair 171
banned 171
Association 171
admit 170
moved 170
agrees 170
Who 170
refuse 170
Internal 170
shares 170
Democrats 170
complaints 170
raises 169
Friday 169
stable 169
transition 169
nationals 169
accounts 169
Enlargement 169
periods 169
refugee 169
afford 169
Poettering 169
Criminal 169
Action 169
Iran 169
shortly 168
links 168
Erika 168
y 168
replace 168
friend 168
sum 168
meal 168
door 167
nearly 167
science 167
uncertainty 167
logical 167
Neither 167
disappointed 167
expensive 167
courts 166
Hence 166
looked 166
suitable 166
West 166
division 166
historical 166
organise 166
bureaucratic 165
section 165
unanimous 165
wholeheartedly 165
thereby 165
obtained 165
skills 165
consulted 165
essentially 165
release 165
nobody 165
became 165
relate 165
extreme 165
threshold 165
liberal 165
Bush 165
D@@ 164
financed 164
o@@ 164
suffered 164
F@@ 164
es 164
desirable 164
hundred 164
reserve 164
Socialists 163
undermine 163
deadline 163
Two 163
terrible 163
determine 163
ECHO 163
alternatives 163
achievement 163
en@@ 163
railway 163
emission 163
Should 162
profits 162
ceiling 162
turned 162
buy 162
puts 162
R@@ 162
railways 162
religion 162
promise 161
stronger 161
Vice-President 161
assist 161
neighbouring 161
increases 161
launch 161
Regarding 160
suggests 160
radical 160
fiscal 160
turning 160
adapt 160
constant 160
500 160
Declaration 160
fast 160
intergovernmental 160
Feira 160
explained 159
contributed 159
restrict 159
demonstrates 159
fresh 159
enhance 159
Paragraph 159
distinction 159
funded 158
plant 158
died 158
meaning 158
touch 158
ignore 158
treaties 158
begun 158
diplomatic 158
genetically 158
belong 157
conducted 157
outlined 157
Palacio 157
ship 157
profit 157
reflects 157
looks 157
sovereignty 157
presenting 157
chairman 157
sake 157
charge 157
26 156
tonnes 156
Above 156
regrettable 156
congratulations 156
items 156
sugar 156
sphere 155
blame 155
arrived 155
L@@ 155
over@@ 155
retain 155
medical 155
missing 155
duties 155
trial 155
kinds 154
Mexico 154
sympathy 154
Similarly 154
s@@ 154
candidates 154
crops 154
cloning 154
enforcement 153
far-reaching 153
self-@@ 153
applicable 153
Within 153
monitored 153
Sea 153
armed 153
usual 153
length 153
Pakistan 153
controlled 153
strength 153
enjoy 153
larger 153
bank 152
save 152
cent 152
property 152
allocation 152
India 152
battle 152
fruit 152
army 151
shift 151
jointly 151
Chinese 151
notes 151
outset 151
recall 151
willingness 151
/@@ 151
facilities 151
harmonise 151
Seville 151
bureaucracy 150
weight 150
follows 150
minister 150
borne 150
f@@ 150
tools 150
suggestions 150
Greens 150
combined 150
Joint 150
someone 149
approximately 149
signs 149
expense 149
prevented 149
incorporate 149
keen 149
representation 149
posts 149
neighbours 149
receiving 149
biotechnology 149
answered 148
succeeded 148
apparent 148
widespread 148
offices 148
faith 148
preliminary 148
Northern 148
compatible 148
MEDA 148
underlying 147
hundreds 147
Fourthly 147
gradually 147
undertake 147
showing 147
valid 147
checks 147
divided 147
undertaking 147
drivers 147
Transport 147
elderly 147
200 147
thousand 147
k@@ 146
wealth 146
commend 146
deep 146
commit 146
abstained 146
Vitorino 146
generation 146
promises 146
unique 146
M@@ 146
listened 146
parallel 146
below 146
Great 146
a@@ 146
stay 146
Common 146
Doha 146
occurred 145
track 145
desired 145
shape 145
advocate 145
1995 145
handling 145
vast 145
intensive 145
struggle 145
Parliamentary 145
importantly 145
Cooperation 145
airlines 145
Monday 144
invest 144
permitted 144
everybody 144
inspections 144
heritage 144
contacts 144
E@@ 144
70 144
reaching 144
declarations 144
mere 144
released 144
Bolkestein 144
satisfaction 144
Euro-Mediterranean 144
Poland 144
judgment 144
explanations 143
amend 143
grow 143
enlarged 143
resistance 143
sight 143
refused 143
sought 143
strictly 143
sales 143
b@@ 143
Algeria 143
stages 143
label 143
treat 143
visited 143
register 142
G@@ 142
regulate 142
enhanced 142
violation 142
disputes 142
raising 142
eyes 142
Verheugen 142
performance 142
29 142
minor 142
students 142
educational 142
replaced 141
began 141
additives 141
Nielson 141
undertakings 141
prospect 141
promoted 141
freight 141
hoped 141
observers 141
presentation 140
disabled 140
centres 140
Following 140
criticised 140
occur 140
Energy 140
exceptional 140
exclusively 140
H@@ 140
O@@ 140
Japan 140
victim 140
estimated 140
journalists 140
ratify 140
Mugabe 140
savings 139
amending 139
cuts 139
black 139
90 139
differently 139
informal 139
xenophobia 139
approaches 139
leaves 139
pursued 139
mobile 139
Saddam 139
subsequently 138
marked 138
justification 138
ted 138
claims 138
consequence 138
broader 138
campaigns 138
Rome 138
protest 138
disagree 138
linguistic 138
controversial 138
negotiated 138
al 138
surplus 138
pensioners 138
Growth 138
efficiently 137
fallen 137
attend 137
finish 137
lie 137
affecting 137
Scotland 137
percentage 137
Before 137
traceability 137
Labour 137
pace 137
Islamic 137
Centre 137
route 136
house 136
negotiate 136
tough 136
incentive 136
personnel 136
35 136
biggest 136
observe 136
spring 136
northern 135
Also 135
withdrawn 135
football 135
reliable 135
preventive 135
environmentally 135
lessons 135
yourself 135
tradition 135
drug 135
al@@ 135
unity 135
favourable 135
regarded 135
contract 135
Byrne 135
helpful 135
tangible 134
acted 134
win 134
Thus 134
extraordinary 134
assessments 134
Kinnock 134
seekers 134
revenue 134
multilateral 134
push 134
deny 134
adjourned 134
Barón 134
die 134
threats 134
e-commerce 134
Wednesday 133
city 133
geographical 133
warrant 133
eventually 133
fourth 133
resulting 133
incident 133
permit 133
reported 133
Each 133
hour 133
Representative 133
movements 133
liked 133
directed 133
Crespo 133
engaged 133
associations 133
Ukraine 133
fit 132
react 132
decades 132
pursuant 132
examination 132
causing 132
sincerely 132
c@@ 132
attached 132
n@@ 132
reporting 132
recognises 132
His 132
hopefully 132
GDP 131
4@@ 131
ideal 131
underline 131
meantime 131
expertise 131
authorised 131
standing 131
rely 131
credible 131
post 131
tribute 131
donors 131
transfers 131
contradiction 131
equivalent 131
threatened 131
vaccination 131
substantially 131
shipping 131
lists 131
boost 130
monopoly 130
p@@ 130
compromises 130
surprise 130
short-term 130
farms 130
N@@ 130
author 130
whereby 130
chemicals 130
clarified 130
Fortunately 130
statute 130
civilian 130
differ 129
perfect 129
firms 129
plays 129
3@@ 129
executive 129
m@@ 129
wise 129
Rural 128
straight 128
avoided 128
t@@ 128
leaving 128
dramatic 128
notice 128
incentives 128
y@@ 128
backing 128
counter 128
criterion 128
authorisation 128
2005 128
lasting 127
ar@@ 127
viable 127
Eurojust 127
choices 127
restrictive 127
coastal 127
procedural 127
replied 127
image 127
Needless 127
comitology 127
perspectives 127
silence 127
belief 127
invite 126
hence 126
systematic 126
taxpayers 126
apparently 126
offences 126
gained 126
ordinary 126
twice 126
usually 126
leader 126
Yesterday 126
m 126
chocolate 126
repeated 126
Petitions 126
accessible 125
classification 125
be@@ 125
functions 125
sad 125
tackled 125
objections 125
Citizens 125
Several 125
economically 125
participating 125
Croatia 125
lifelong 125
Hussein 125
targeted 124
interim 124
42 124
envisaged 124
automatically 124
indicate 124
s; 124
2010 124
Indonesia 124
cattle 124
Sharon 124
Quite 123
acceptance 123
Barnier 123
prison 123
except 123
impetus 123
president 123
Bulgaria 123
resulted 123
Burma 123
train 123
cod 123
Taliban 123
hit 122
consistency 122
convince 122
federal 122
Until 122
deadlines 122
scheduled 122
reinforce 122
feedingstuffs 122
marine 122
den 122
autumn 122
joining 122
hazardous 122
incredibly 122
heads 122
prime 122
Czech 122
Colombia 122
Regional 121
comparison 121
chapter 121
endeavour 121
eliminate 121
jurisdiction 121
feels 121
arrive 121
honest 121
generous 121
forgotten 121
denied 121
integrate 121
York 121
soldiers 121
transatlantic 121
volume 120
urban 120
rejection 120
abuses 120
broadly 120
feature 120
scrutiny 120
stick 120
greenhouse 120
imperative 120
non-governmental 120
fulfilled 120
absurd 120
clean 120
sending 120
shadow 120
Haarder 120
territories 120
democracies 120
tackling 120
chemical 120
Constitutional 120
) 120
ations 120
judge 119
Basque 119
fears 119
fixed 119
anti-@@ 119
conventions 119
assets 119
h@@ 119
Process 119
block 118
sums 118
USD 118
ti@@ 118
quote 118
witnessed 118
finances 118
criminals 118
inevitably 118
invited 118
er@@ 118
catch 118
300 118
AIDS 118
dangers 118
reinforced 118
destroy 118
timely 118
hunger 118
Cuba 118
freely 118
Year 118
Sixth 118
monopolies 117
articles 117
unit 117
learned 117
decade 117
regularly 117
founded 117
spite 117
doors 117
cheap 117
everywhere 117
Swoboda 117
I@@ 117
alongside 117
trans-European 117
consistently 116
observed 116
tested 116
implies 116
generations 116
Schreyer 116
showed 116
euros 116
believed 116
32 116
delivered 116
workplace 116
Egypt 116
failing 116
fuels 116
containing 116
adequately 116
genetic 116
highlights 116
western 116
sites 116
buildings 115
Or 115
exemption 115
accompanied 115
violent 115
connected 115
Certainly 115
location 115
expressly 115
physical 115
excuse 115
proven 115
settlement 115
preparatory 115
transactions 115
ch@@ 115
45 115
ingredients 115
livestock 115
Hague 115
import 115
CFP 115
Taiwan 115
Afghan 115
marks 114
Re@@ 114
modernisation 114
game 114
variety 114
struck 114
fought 114
meets 114
abolished 114
ambitions 114
over-@@ 114
ignored 114
d 114
story 114
intelligence 114
recommended 113
south 113
stringent 113
inquiry 113
offering 113
falling 113
team 113
nine 113
bearing 113
remit 113
en 113
Atlantic 113
i@@ 113
inappropriate 113
stricter 113
complied 113
necessity 113
wherever 113
sharing 113
quota 113
farm 113
collaboration 113
VAT 113
PVC 113
incineration 113
radio 113
expressing 113
domain 113
praise 113
sex 113
summits 113
Cotonou 113
prerequisite 112
delicate 112
conservation 112
assured 112
arises 112
pursuing 112
respective 112
explicitly 112
breach 112
Communist 112
electoral 112
arrested 112
indication 112
innocent 112
Chairman 112
5@@ 111
definitions 111
preserve 111
Everything 111
von 111
subsequent 111
medium 111
losses 111
u@@ 111
badly 111
sustained 111
packaging 111
tonight 111
withdrawal 111
ad@@ 111
born 111
producer 111
twelve 111
an@@ 111
pornography 111
collection 110
dossier 110
systematically 110
frequently 110
entering 110
postponed 110
expert 110
paragraphs 110
Arafat 110
Palestine 110
banking 110
investors 110
references 110
defending 110
self-employed 110
fails 110
1@@ 110
imposing 110
e-@@ 110
island 110
God 110
intellectual 110
characterised 110
outbreak 110
employed 109
friendly 109
worried 109
chapters 109
ended 109
visible 109
virtually 109
co@@ 109
accepting 109
troops 109
ding 109
blind 109
In@@ 109
Liikanen 109
woman 109
Iraqi 109
appreciation 108
guilty 108
experiences 108
forests 108
attach 108
reflection 108
remark 108
supervisory 108
traditions 108
terror 108
patients 108
distance 108
obstacle 108
uses 108
accused 108
it@@ 108
stem 108
Report 108
Tunisia 108
criticisms 107
minds 107
devoted 107
examining 107
initially 107
inspectors 107
harm 107
pays 107
appalling 107
Anyone 107
communautaire 107
large-scale 107
cycle 107
assessed 107
vague 107
defining 107
reconciliation 107
Maastricht 107
War 107
gets 107
MEP 107
translation 107
decline 107
biodiversity 107
slaughter 107
foundation 106
criticise 106
reviewed 106
divide 106
abolish 106
unions 106
covering 106
emerged 106
1993 106
listed 106
postpone 106
score 106
Accordingly 106
wage 106
retirement 106
mine 106
match 106
cultures 106
facility 106
initiated 106
sale 106
populations 106
Milosevic 106
margin 106
reproductive 106
in-depth 105
passing 105
remained 105
witness 105
Democrat 105
irresponsible 105
older 105
Wallström 105
argue 105
addresses 105
specified 105
participants 105
tolerance 105
essence 105
pressing 105
notion 105
researchers 105
ac@@ 105
drive 105
Tourism 105
Has 105
charter 105
Investment 105
harassment 105
dead 105
loans 105
fire 104
demanded 104
mergers 104
accepts 104
mandatory 104
feasible 104
furthermore 104
green 104
ELDR 104
quantities 104
Secretary-General 104
well-@@ 104
stations 104
combination 104
coordinate 104
flows 104
signing 104
explanatory 104
pillars 103
adding 103
revolution 103
worthy 103
scientists 103
torture 103
papers 103
Second 103
won 103
openly 103
arising 103
simplify 103
sole 103
practically 103
Kaliningrad 103
medicinal 103
damaging 102
remarkable 102
incidents 102
availability 102
supplies 102
qualifications 102
managing 102
es@@ 102
safeguards 102
donor 102
Arab 102
wars 102
Democracy 102
acknowledged 102
youth 102
immunity 102
Rather 102
sit 102
Statute 102
August 102
whereas 101
steel 101
attended 101
exact 101
accounting 101
root 101
investigations 101
internationally 101
Much 101
vehicle 101
deaths 101
stopped 101
solid 101
exclude 101
channels 101
book 101
host 101
accurate 101
democratically 101
originally 101
reunification 101
radioactive 101
irrespective 101
title 101
Harbour 101
GM 101
ASEM 101
guaranteeing 100
pre-accession 100
fundamentally 100
clauses 100
features 100
Monti 100
am@@ 100
irregularities 100
consequently 100
characteristics 100
tremendous 100
component 100
apologise 100
appeared 100
mistakes 100
signals 100
net 100
interpreted 100
residence 100
quantity 100
findings 100
broken 100
gradual 100
thinks 100
arrangement 100
parliamentarians 100
relief 100
CFSP 100
customs 100
cigarettes 100
cities 99
slowly 99
lesson 99
tions 99
horizontal 99
1990 99
await 99
investigate 99
confine 99
achievements 99
prosecution 99
messages 99
Madrid 99
racist 99
deciding 99
wholly 99
mis@@ 99
ends 99
severe 99
recital 99
universities 99
Aznar 99
driven 99
enthusiasm 99
spectrum 99
helps 99
modest 98
secondary 98
bears 98
Reform 98
thoughts 98
fate 98
CO2 98
Third 98
listening 98
noticed 98
visa 98
W@@ 98
optimistic 98
reverse 98
coalition 98
conviction 98
Corbett 98
pity 98
Alliance 98
enshrined 98
Slovakia 98
Fatuzzo 98
remote 97
faster 97
accountability 97
serves 97
survive 97
Nothing 97
contrast 97
7@@ 97
integral 97
Which 97
presents 97
resource 97
or@@ 97
era 97
ag@@ 97
sees 97
Albanian 97
humanity 97
imported 97
fifth 97
sold 97
simplification 97
fault 97
sentence 97
telling 97
Home 97
supplements 97
mines 97
privatisation 96
passenger 96
reminded 96
ar 96
appointed 96
di@@ 96
Tibet 96
confident 96
onto 96
centralised 96
unilateral 96
thoroughly 96
exploit 96
infringement 96
eat 96
flights 96
Vietnam 96
delayed 95
socially 95
lawyers 95
Federal 95
intolerable 95
Apart 95
experiencing 95
focusing 95
banning 95
consists 95
sections 95
measured 95
continuation 95
resolving 95
responses 95
actors 95
grown 95
interference 95
Rio 95
models 95
losing 95
derogation 95
earmarked 95
Angola 95
EIB 95
transferred 94
meaningful 94
Prosecutor 94
dream 94
exposed 94
returned 94
assurance 94
regardless 94
swiftly 94
contamination 94
empty 94
Again 94
Have 94
served 94
cutting 94
definitive 94
restriction 94
foundations 94
victory 94
third-country 94
38 94
infrastructures 94
airport 94
sheep 94
dates 94
t-@@ 94
Watson 94
therapeutic 94
object 93
Con@@ 93
sooner 93
concessions 93
realised 93
Malta 93
k 93
grave 93
33 93
34 93
indicates 93
merit 93
character 93
Free 93
input 93
objection 93
6@@ 93
secrecy 93
TV 93
programming 92
preferred 92
" 92
compete 92
beneficial 92
concepts 92
Evans 92
uphold 92
75 92
outline 92
der 92
attractive 92
at@@ 92
false 92
integrity 92
Freedom 92
Lamy 92
describe 92
cope 92
Culture 92
conjunction 92
partnerships 92
moratorium 92
statistical 92
providers 92
reductions 92
Kurdish 92
formally 91
exclusive 91
transit 91
400 91
Next 91
interventions 91
tabling 91
complaint 91
touched 91
strikes 91
l@@ 91
asks 91
profile 91
scandal 91
mother 91
generated 91
quick 91
contributes 91
ideological 91
el@@ 91
con@@ 91
tension 91
pharmaceutical 91
abolition 91
foodstuffs 91
disastrous 91
organisms 91
threatening 91
simplified 91
Thanks 91
lowest 91
Plan 91
consolidate 90
expansion 90
V@@ 90
unsatisfactory 90
enforce 90
wished 90
inequality 90
ad 90
storage 90
socio-economic 90
planet 90
judgement 90
venture 90
is@@ 90
flow 90
twenty 90
1992 90
precedent 90
acquire 90
representing 90
ageing 90
te 90
enabling 90
ri@@ 90
Lannoye 90
Whether 89
definite 89
Cohesion 89
design 89
advanced 89
joined 89
unclear 89
belongs 89
respecting 89
renewed 89
Finnish 89
wonderful 89
popular 89
cultivation 89
airline 89
punishment 89
inside 89
search 89
camps 89
backed 89
parents 89
carriers 89
organic 89
relative 88
rejects 88
optimism 88
enabled 88
ally 88
heavily 88
weaknesses 88
Sometimes 88
assessing 88
corresponding 88
im@@ 88
doctors 88
reforming 88
discipline 88
warm 88
48 88
Constitution 88
gratitude 88
Annex 88
raw 88
film 88
Beijing 88
illustrates 88
Special 88
persecution 88
Ferber 88
ceilings 88
External 88
Federation 88
caught 88
Education 88
productive 87
understandable 87
Further 87
merits 87
Environmental 87
rational 87
worthwhile 87
earth 87
Dublin 87
positively 87
entirety 87
watch 87
ly 87
assembly 87
deliberate 87
Fifteen 87
race 87
diverse 87
genocide 87
abroad 87
Tuesday 87
buses 87
biofuels 87
north 86
anyway 86
reactions 86
entail 86
repercussions 86
transportation 86
indirect 86
hypocrisy 86
town 86
Unless 86
exchanges 86
1994 86
floods 86
eastern 86
arisen 86
43 86
exert 86
Euro 86
controlling 86
anywhere 86
owe 86
London 86
premature 86
progressive 86
female 86
topics 86
alarming 86
contradictory 86
whenever 86
thirty 86
adjustment 86
biological 86
warnings 86
estimates 86
conventional 86
girls 86
Belarus 86
Biarritz 86
enforced 85
territorial 85
indispensable 85
expand 85
Wogau 85
constituency 85
names 85
opt 85
travelling 85
ours 85
autonomy 85
feelings 85
strange 85
disappointment 85
reasonably 85
supplement 85
normally 85
update 85
displaced 85
missed 85
democratisation 85
offence 85
36 85
recorded 85
pragmatic 85
Baltic 85
endorsed 85
surveillance 85
runs 85
embryos 85
reconsider 84
albeit 84
isolation 84
ties 84
flag 84
theme 84
complement 84
telephone 84
hygiene 84
formulated 84
focuses 84
evaluate 84
wide-ranging 84
attempting 84
abandon 84
r@@ 84
saving 84
depth 84
150 84
collapse 84
rising 84
d' 84
civilians 84
Albania 84
sell 84
prisons 84
refusal 84
est 84
'@@ 84
cells 84
refunds 84
shipbuilding 84
adapted 83
als 83
convenience 83
owners 83
z@@ 83
philosophy 83
derogations 83
mid-term 83
Asian 83
financially 83
as@@ 83
prevail 83
stating 83
completion 83
disadvantaged 83
persuade 83
limitations 83
trouble 83
theory 83
processed 83
components 83
consult 83
adverse 83
threaten 83
zero 83
occupied 83
anybody 83
knowledge-based 83
Georgia 83
n 82
entails 82
quoted 82
harmonising 82
Articles 82
ab@@ 82
cease 82
Through 82
promising 82
remedy 82
grants 82
Protection 82
subsidy 82
unlike 82
installations 82
solving 82
drinking 82
Consumers 82
claimed 82
relevance 82
sincere 82
consolidation 82
st@@ 82
Costa 82
split 82
civilisation 82
evil 82
lacks 82
problematic 82
dependence 82
subscribe 82
subjected 82
permission 82
surprising 82
Against 82
summary 82
Posselt 82
deficits 82
Nigeria 82
privacy 82
se 82
Congress 82
Defence 82
fundamentalism 82
interoperability 82
Galileo 82
confused 81
holds 81
disappointing 81
pre-@@ 81
lays 81
shoulder 81
hitherto 81
argued 81
contributing 81
knew 81
neutral 81
Information 81
ism 81
stabilisation 81
England 81
discovered 81
vis-à-vis 81
stood 81
combine 81
underway 81
removal 81
speaks 81
inevitable 81
safer 81
guiding 81
Katiforis 81
manoeuvre 81
abortion 81
Genoa 81
adhere 80
tend 80
altogether 80
analyse 80
disappeared 80
dumping 80
unemployed 80
Together 80
confined 80
art 80
halt 80
responded 80
mixed 80
misleading 80
lapses 80
translated 80
secondly 80
pick 80
courageous 80
reassure 80
ic@@ 80
Tobin 80
unification 80
class 80
consent 80
Nobody 80
cast 80
finished 80
cheaper 80
counterfeiting 80
Bosnia 80
registration 80
Maaten 80
Mercosur 80
ultimate 79
closure 79
pure 79
Councils 79
emphasises 79
Al@@ 79
reception 79
forestry 79
consultations 79
site 79
1991 79
boundaries 79
trends 79
bases 79
exceeded 79
formed 79
pilot 79
handled 79
39 79
wake 79
adjustments 79
hoping 79
MacCormick 79
high-quality 79
Haug 79
obtaining 78
Objective 78
towns 78
weaken 78
initiate 78
safeguarding 78
Peace 78
flags 78
le@@ 78
veterinary 78
concentration 78
ensured 78
faces 78
swift 78
ment 78
ha@@ 78
audit 78
Meanwhile 78
workforce 78
rhetoric 78
ministerial 78
PSE 78
profound 78
desperate 78
comparable 78
constraints 78
emerge 78
Three 78
shame 78
survival 78
warn 78
stresses 78
king 78
perform 78
veto 78
95 78
G8 78
composition 78
cigarette 78
ozone 78
premiums 78
ro@@ 77
generate 77
transposition 77
tendency 77
technically 77
enterprise 77
proactive 77
guidance 77
capabilities 77
8@@ 77
tone 77
Washington 77
computer 77
closing 77
ant 77
governed 77
violated 77
li@@ 77
ine 77
departure 77
pretext 77
patents 77
user 77
EU-@@ 77
coordinating 77
inhabitants 77
e-mail 77
on@@ 77
forecasts 77
seat 77
emerging 77
licences 77
potentially 77
Lamfalussy 77
tape 76
percent 76
circulation 76
deemed 76
hide 76
awaiting 76
detriment 76
disadvantage 76
Code 76
deplore 76
sixth 76
confidentiality 76
sensitivity 76
gases 76
bill 76
alert 76
voters 76
repression 76
corporate 76
attaches 76
counts 76
errors 76
dictatorship 76
undermined 76
under@@ 76
automatic 76
pre@@ 76
poses 76
ably 76
techniques 76
distinguish 76
seas 76
murder 76
g 76
Too 75
worry 75
attempted 75
confirms 75
alter 75
gross 75
roots 75
suit 75
delivery 75
reformed 75
ings 75
selection 75
j@@ 75
illustrate 75
19@@ 75
learnt 75
rigid 75
` 75
55 75
university 75
cancer 75
ist 75
inter@@ 75
separation 75
thrust 75
flight 75
isolated 75
resume 75
rejecting 75
Mozambique 75
dimensions 75
44 75
sporting 75
COM 75
sports 75
publicly 74
judges 74
advocated 74
,000 74
weakness 74
proves 74
frontiers 74
Whatever 74
seemed 74
straightforward 74
transmission 74
le 74
demonstrations 74
continually 74
forming 74
Turning 74
Political 74
supranational 74
scenario 74
incredible 74
electorate 74
lend 74
attitudes 74
resort 74
De 74
judged 74
breeding 74
Lithuania 74
protein 74
administrations 74
dramatically 74
narrow 74
spreading 74
Canada 74
J@@ 74
Yugoslav 74
handle 74
ity 74
coins 74
website 74
unknown 73
C 73
suddenly 73
dear 73
vigilant 73
impressive 73
dollar 73
he@@ 73
deeper 73
unprecedented 73
outermost 73
operates 73
revealed 73
Olympic 73
charged 73
fruitful 73
newspaper 73
evaluated 73
intent 73
punished 73
overwhelming 73
indirectly 73
th 73
devote 73
Roma 73
dedicated 73
books 73
distortions 73
expresses 73
disappear 73
uncertain 73
integrating 73
depending 73
lengthy 73
posed 73
Liberals 73
weekend 73
medicine 73
carbon 73
Buitenweg 73
opponents 73
phthalates 73
Monterrey 73
Decision 72
shortage 72
retained 72
Whilst 72
pe@@ 72
sorts 72
incorrect 72
envisage 72
Peijs 72
maintenance 72
breaking 72
speedy 72
wind 72
foot 72
requiring 72
symbolic 72
fed 72
throw 72
y-@@ 72
applaud 72
jeopardise 72
Paris 72
quarter 72
interfere 72
recourse 72
intelligent 72
cautious 72
demonstration 72
contradictions 72
disturbing 72
reconcile 72
pages 72
guide 72
Freedoms 72
seize 72
Echelon 72
commerce 72
vary 72
Area 72
fleets 72
moves 71
Conservative 71
productivity 71
distortion 71
accountable 71
disciplinary 71
inherent 71
Goebbels 71
rigorous 71
conferences 71
structured 71
notification 71
schedule 71
urged 71
Directorate-General 71
out@@ 71
PPE 71
ling 71
Switzerland 71
Cox 71
concluding 71
Conciliation 71
promotes 71
exempt 71
Korean 71
arbitrary 71
countryside 71
drew 71
principal 71
versions 71
thresholds 71
­ 71
phrase 71
bans 71
qualitative 71
maybe 71
Sustainable 71
Jarzembowski 71
tariff 71
pigs 71
premium 71
Patent 71
Bonn 71
audiovisual 71
Very 70
removing 70
decentralisation 70
allotted 70
Aid 70
receives 70
prohibited 70
eligible 70
annually 70
acquired 70
confidential 70
career 70
Strategy 70
unrealistic 70
caution 70
write 70
logic 70
organising 70
Christmas 70
teachers 70
conscience 70
everyday 70
footing 70
pose 70
multiannual 70
tensions 70
corrected 70
deeds 70
ex@@ 70
opposing 70
concentrated 70
concur 70
ance 70
assistants 70
settled 70
Secretary 70
artists 70
disregard 70
determining 70
allies 70
satisfy 70
Moroccan 70
Putin 70
Hopefully 70
registered 70
visas 70
ridiculous 70
execution 70
65 70
Ms 70
bananas 70
approving 69
Equal 69
drop 69
deregulation 69
ending 69
anxious 69
sadly 69
escape 69
anticipated 69
splendid 69
Co@@ 69
wisdom 69
explicit 69
Israelis 69
atmosphere 69
condemnation 69
communicate 69
immense 69
injured 69
democrats 69
invested 69
newspapers 69
Single 69
mountain 69
ill 69
Democratic 69
revise 69
mad 69
tion 69
pricing 69
Partnership 69
complementary 69
conflicting 69
notably 69
vegetable 69
Monitoring 69
disabilities 69
Göteborg 69
absent 68
contents 68
fulfilling 68
EMU 68
threatens 68
decentralised 68
investigated 68
coverage 68
undesirable 68
placing 68
lifted 68
repeating 68
affair 68
preferable 68
roles 68
approaching 68
nationality 68
yield 68
exploited 68
alliance 68
produces 68
circle 68
agents 68
Soviet 68
calm 68
plenty 68
enables 68
artificial 68
afterwards 68
condemning 68
sentences 68
aiming 68
FYROM 68
presidential 68
awarded 68
Hungary 68
analyses 68
costly 68
th@@ 68
checked 68
Blokland 68
advisory 68
white 68
flax 68
Guinea 68
neutrality 68
Muslim 68
Lamassoure 68
embargo 67
card 67
proceeding 67
cold 67
employee 67
es; 67
Conservatives 67
Take 67
ic 67
differing 67
insecurity 67
coast 67
identification 67
employ 67
copy 67
requesting 67
depleted 67
uranium 67
quantitative 67
middle 67
suited 67
endeavours 67
ethics 67
foster 67
exceed 67
publication 67
wages 67
replies 67
Chirac 67
x 67
sovereign 67
Left 67
standardisation 67
wanting 67
tens 67
stone 67
Pro@@ 67
instances 67
co-@@ 67
lift 67
rarely 67
incomprehensible 67
OSCE 67
strive 67
-based 67
profession 67
Nordic 67
frontier 67
Sport 67
airspace 67
Sellafield 67
viewed 66
voices 66
overdue 66
exemptions 66
vigorous 66
l 66
b 66
tourist 66
forest 66
do@@ 66
pursuit 66
studied 66
pact 66
separately 66
se@@ 66
poorer 66
officially 66
sends 66
propaganda 66
promptly 66
opted 66
misunderstanding 66
formula 66
fragile 66
well-known 66
creative 66
Pensioners 66
paramount 66
invitation 66
birth 66
frankly 66
ge@@ 66
changeover 66
Morillon 66
supporters 66
routes 66
fashion 66
Personally 66
te@@ 65
quarters 65
modernise 65
backwards 65
lawyer 65
abandoned 65
distinct 65
customers 65
Karas 65
ruling 65
appointment 65
bottom 65
mentioning 65
units 65
to@@ 65
copyright 65
47 65
imbalance 65
exported 65
platform 65
orientation 65
proving 65
suicide 65
preference 65
regimes 65
likewise 65
accord 65
appreciated 65
encourages 65
identical 65
cow 65
Maij-Weggen 65
deliberately 65
exciting 65
distant 65
precondition 65
killing 65
enormously 65
U@@ 65
Michel 65
Un@@ 65
hake 65
reasoning 65
tunnel 65
cosmetics 65
severely 64
ages 64
survey 64
inspired 64
deficiencies 64
machinery 64
Seattle 64
multinationals 64
vigorously 64
ise 64
advocates 64
anticipate 64
catastrophe 64
Things 64
ters 64
patience 64
energies 64
contaminated 64
advise 64
deployed 64
momentum 64
successes 64
observer 64
securing 64
underestimate 64
instability 64
ous 64
exemplary 64
Wurtz 64
precedence 64
enjoyed 64
expecting 64
delegates 64
reputation 64
stimulate 64
Ex@@ 64
turns 64
pointing 64
beneficiaries 64
abstain 64
pro@@ 64
Certain 64
Children 64
Timor 64
Chechen 64
aids 64
fees 64
lorries 64
suspect 64
diplomacy 64
toys 64
Argentina 64
authors 63
drastic 63
finds 63
dismantling 63
highlighting 63
occurring 63
scandalous 63
risen 63
Scientific 63
Caucasus 63
occupation 63
expenses 63
Dis@@ 63
Galeote 63
Resolution 63
chose 63
selected 63
understands 63
zones 63
existed 63
bu@@ 63
v@@ 63
breakthrough 63
Act 63
seats 63
ans 63
Serbian 63
officers 63
adds 63
bigger 63
constituents 63
transnational 63
LEADER 63
destroying 63
epidemic 63
regulating 63
settle 63
thrown 63
excessively 63
pan-European 63
concerted 63
letters 63
unequivocal 63
Ethiopia 63
upper 63
radically 63
e; 63
cocoa 63
striking 63
teaching 63
clubs 63
Jerusalem 63
departments 62
mistaken 62
manufacturer 62
voiced 62
publish 62
41 62
Randzio-Plath 62
c 62
excellence 62
legislate 62
mainstreaming 62
submitting 62
Ar@@ 62
oppression 62
unusual 62
rid 62
me@@ 62
incompatible 62
eradicate 62
da 62
ness 62
sub@@ 62
blocked 62
licence 62
responding 62
councils 62
feeding 62
Quaestors 62
satellite 62
ho@@ 62
+ 62
post-@@ 62
ded 62
limiting 62
53 62
assumption 62
houses 62
recommends 62
refusing 62
safeguarded 62
display 62
realities 62
emphatically 62
bo@@ 62
painful 62
Interinstitutional 62
ballot 62
channel 61
reiterated 61
cornerstone 61
compare 61
issuing 61
harsh 61
boats 61
store 61
located 61
disagreement 61
None 61
adhered 61
restored 61
attending 61
dual 61
launching 61
milestone 61
welcoming 61
appropriately 61
wishing 61
pressures 61
no@@ 61
selling 61
ists 61
bridge 61
mentions 61
Incidentally 61
suspend 61
draws 61
discriminatory 61
farmer 61
journey 61
complexity 61
Fontaine 61
Dupuis 61
smuggling 61
sky 61
Chile 61
San 61
coexistence 61
specify 61
confuse 61
streets 61
Diamantopoulou 61
box 61
ETA 61
collected 61
intense 61
gaining 61
2007 61
González 61
Category 61
Algerian 61
Gibraltar 61
Ghent 61
additionality 60
fell 60
modification 60
underlined 60
Sadly 60
consulting 60
missions 60
bi@@ 60
Reding 60
relationships 60
Syria 60
po@@ 60
tune 60
chaos 60
bulk 60
civilised 60
acute 60
1990s 60
equipped 60
coal 60
Youth 60
Overall 60
il@@ 60
deprived 60
emphasising 60
antibiotics 60
recognising 60
duly 60
Belgrade 60
refrain 60
ia 60
ingly 60
debts 60
pluralism 60
banana 60
trained 60
evidently 60
Ecofin 60
ap@@ 60
Bösch 60
Blair 60
Moldova 60
Slovenia 60
cards 59
peripheral 59
islands 59
disparities 59
fill 59
alike 59
commendable 59
pull 59
nowadays 59
homes 59
abused 59
annex 59
continuous 59
famous 59
transposed 59
description 59
weapon 59
ideology 59
An@@ 59
bold 59
interpret 59
bought 59
demonstrators 59
extremists 59
fortunately 59
deliberations 59
macroeconomic 59
w@@ 59
permits 59
motor 59
calculated 59
gu@@ 59
B 59
insisted 59
Hautala 59
eleven 59
ineffective 59
high-@@ 59
cooperating 59
connections 59
treating 59
excise 59
reserves 59
ball 59
Far 59
revising 59
OECD 59
seriousness 59
honesty 59
enhancing 59
indigenous 59
Greens/European 59
Law 59
demographic 59
machines 59
olive 59
illegally 59
overview 59
asbestos 59
smokers 59
exercised 58
ECSC 58
utterly 58
manufacturing 58
Unlike 58
scandals 58
tells 58
wasted 58
recruitment 58
geared 58
gaps 58
cooperative 58
counterparts 58
resolutely 58
underlines 58
suspected 58
enemy 58
u 58
800 58
ds 58
mouth 58
prejudice 58
substantive 58
minimal 58
t; 58
aspirations 58
taxpayer 58
disadvantages 58
dealers 58
motives 58
suspicion 58
guided 58
assumed 58
starts 58
surface 58
witnessing 58
tariffs 58
excluding 58
chair 58
occurs 58
tied 58
extends 58
trials 58
De@@ 58
announcement 58
maintains 58
1989 58
odd 58
petitions 58
Sunday 58
Maes 58
Maybe 58
burdens 58
exposure 58
transported 57
wrote 57
cite 57
pending 57
wave 57
flying 57
car@@ 57
Indian 57
nice 57
ta@@ 57
lo@@ 57
misery 57
stakeholders 57
complying 57
ir@@ 57
senior 57
ent 57
professions 57
compliment 57
themes 57
catches 57
viability 57
proceeds 57
qu@@ 57
defended 57
moderate 57
legislators 57
informing 57
les 57
partially 57
miss 57
College 57
headway 57
silent 57
advised 57
Hong 57
Kong 57
Cashman 57
superfluous 57
consolidated 57
returning 57
displayed 57
minors 57
brutal 57
forwards 57
teams 57
sterling 57
Euratom 57
Fiori 57
trains 57
decides 56
establishes 56
cr@@ 56
Tomorrow 56
damaged 56
own-initiative 56
Admittedly 56
Hulten 56
2000-2006 56
appeals 56
deplorable 56
allocate 56
per@@ 56
participated 56
exceptionally 56
46 56
stepped 56
documentation 56
wine 56
nowhere 56
cash 56
des 56
nationalism 56
orders 56
Haider 56
centuries 56
assent 56
convincing 56
admitted 56
avoiding 56
lobby 56
ra@@ 56
map 56
identifying 56
EDF 56
ol@@ 56
Forum 56
frame 56
adjust 56
procurement 56
shocking 56
notified 56
beautiful 56
Karamanou 56
impunity 56
sentenced 56
lived 56
advances 56
small-scale 56
pushing 56
prompt 56
mining 56
kill 56
destination 56
complain 56
Titley 56
love 56
Mann 56
IV 56
butter 56
engineering 56
synthetic 56
navigation 56
modes 56
Nepal 56
foreseeable 55
feet 55
earn 55
ownership 55
guard 55
controversy 55
redundancies 55
gen@@ 55
Hatzidakis 55
Among 55
Concerning 55
weakened 55
120 55
challenging 55
Jackson 55
enlarge 55
codes 55
handed 55
upheld 55
discretion 55
soft 55
em@@ 55
ou@@ 55
suspension 55
scourge 55
Professor 55
behave 55
ge 55
opens 55
delivering 55
Others 55
sittings 55
Medina 55
explains 55
humane 55
Velzen 55
resist 55
fatal 55
ter 55
gallery 55
McKenna 55
85 55
restricting 55
Islands 55
reacted 55
Lagendijk 55
conditional 55
hatred 55
Ministry 55
individually 55
supplied 55
bone 55
echo 55
Ludford 55
pig 55
luck 55
frameworks 55
self-regulation 55
Berlusconi 55
Eurocontrol 55
Socrates 55
Färm 55
Global 55
Seveso 55
Equally 54
redundant 54
privilege 54
postponing 54
Progress 54
devastating 54
repair 54
finalised 54
Theato 54
desperately 54
Roth-Behrendt 54
saved 54
polluter 54
tolerate 54
extraordinarily 54
dioxin 54
moments 54
sessions 54
Purvis 54
benefited 54
separated 54
sh@@ 54
res@@ 54
belonging 54
ensures 54
housing 54
si@@ 54
go@@ 54
Measures 54
duration 54
D 54
detrimental 54
reserved 54
acknowledges 54
liberalised 54
justifiable 54
commodity 54
buying 54
discrepancies 54
worded 54
49 54
Lomé 54
levy 54
ator 54
profitable 54
autonomous 54
Scottish 54
simplifying 54
postponement 54
station 54
Governments 54
Whitehead 54
Deprez 54
UNHCR 54
co-decision 54
doping 54
salmonella 54
20@@ 53
renewal 53
Competition 53
Greater 53
cross 53
misuse 53
ne@@ 53
um 53
certification 53
Europe-wide 53
estimate 53
grasp 53
ul@@ 53
ruled 53
decommissioning 53
unlikely 53
Work 53
Izquierdo 53
elapsed 53
allegations 53
unambiguous 53
isation 53
liberty 53
sceptical 53
conducting 53
feasibility 53
founding 53
scene 53
formation 53
Pack 53
begins 53
taught 53
accusations 53
gratifying 53
dropped 53
Finance 53
convey 53
wall 53
alive 53
responds 53
applicants 53
deterioration 53
Besides 53
incorporating 53
mutually 53
frustration 53
Civil 53
51 53
unnecessarily 53
socialist 53
smooth 53
slaughtered 53
Estonia 53
engines 53
nutrition 53
recover 53
broadcasting 53
extradition 53
disgraceful 52
cargo 52
Various 52
700 52
supplemented 52
vessel 52
speculation 52
shorter 52
52 52
99 52
slight 52
substitute 52
forever 52
wood 52
shock 52
stipulated 52
perpetrators 52
infected 52
Balkan 52
resident 52
hospital 52
universally 52
EPP 52
abolishing 52
Board 52
visitors 52
fifty 52
organisational 52
attacked 52
residents 52
dominated 52
virus 52
newly 52
somewhere 52
employer 52
stipulates 52
manufacture 52
dare 52
unreasonable 52
sectoral 52
unqualified 52
stepping 52
entrepreneurs 52
Graefe 52
zu 52
Baringdorf 52
seed 52
Water 52
phasing 52
presidencies 52
Fifth 52
ising 52
excess 52
deleted 52
Durban 52
council 52
insight 52
pretty 52
bl@@ 52
correction 52
Terrorism 52
humans 52
regrets 52
Languages 52
Oostlander 52
gladly 52
Almost 52
Moscovici 52
Caudron 52
interaction 51
strongest 51
62 51
profoundly 51
improves 51
prosecutor 51
memory 51
incomes 51
E 51
perceived 51
indications 51
forth 51
consist 51
persistent 51
Stauner 51
Euro@@ 51
currencies 51
motivated 51
dubious 51
explaining 51
Solbes 51
replacing 51
page 51
accorded 51
eliminating 51
alism 51
adjusted 51
58 51
high-level 51
derived 51
Hughes 51
typical 51
suppliers 51
adaptation 51
Staes 51
a-@@ 51
Former 51
persecuted 51
toxic 51
congestion 51
limitation 51
plane 51
scarcely 51
Good 51
br@@ 51
mostly 51
occupational 51
ICAO 51
academic 51
Muslims 51
Islam 51
prevents 51
performing 51
Egyptian 51
Christians 51
ease 50
ised 50
right-wing 50
liable 50
tighten 50
Right 50
eliminated 50
GNP 50
pictures 50
dominant 50
illustrated 50
worries 50
mobilise 50
ators 50
mutilation 50
quest 50
congratulated 50
tive 50
independently 50
gather 50
psychological 50
industrialised 50
gains 50
ats 50
agreeing 50
counting 50
one-sided 50
accommodate 50
op@@ 50
d-@@ 50
earliest 50
250 50
tor@@ 50
manipulation 50
timing 50
continuity 50
Air 50
ambiguous 50
Busquin 50
summarise 50
fragmented 50
visits 50
electrical 50
Kyi 50
Cypriot 50
Mar@@ 50
shop 50
medium-term 50
methodology 50
herself 50
eating 50
Norway 50
Lancker 50
IT 50
Support 50
Iranian 50
Savary 50
Smet 50
auctions 50
Fiji 50
Games 50
cotton 50
prohibition 49
distort 49
Fifthly 49
Basically 49
updated 49
Duisenberg 49
M 49
ies 49
assurances 49
crop 49
coincidence 49
fly 49
overlooked 49
laying 49
restoring 49
nuts 49
rationale 49
ks 49
widening 49
permanently 49
insofar 49
specialist 49
compatibility 49
rec@@ 49
Communication 49
tic 49
labelled 49
abide 49
fronts 49
res 49
ty 49
fats 49
facto 49
shocked 49
mediation 49
ry 49
Poos 49
ed@@ 49
securities 49
confronted 49
unreservedly 49
Congo 49
Z@@ 49
ten@@ 49
par@@ 49
regulators 49
villages 49
optimum 49
adult 49
computers 49
investigating 49
Oomen-Ruijten 49
well-being 49
Veterinary 49
run-up 49
pointless 49
slavery 49
player 49
Suu 49
Verhofstadt 49
us@@ 48
favours 48
infringements 48
scoreboard 48
plus 48
raft 48
publishing 48
undermining 48
gathering 48
rehabilitation 48
encountered 48
weather 48
En@@ 48
ve 48
loopholes 48
T 48
timetables 48
dilemma 48
illustration 48
ancient 48
vitally 48
repressive 48
Schulz 48
forgive 48
questionable 48
atrocities 48
web 48
selective 48
rare 48
overlook 48
provisional 48
chamber 48
Albanians 48
workable 48
hesitation 48
intolerance 48
pro-@@ 48
preservation 48
east 48
ked 48
plain 48
translate 48
achievable 48
9@@ 48
software 48
statutory 48
window 48
investing 48
pledge 48
constitutions 48
fits 48
hidden 48
El 48
exacerbated 48
passive 48
journalist 48
poorly 48
pride 48
spare 48
Montenegro 48
proportionate 48
supporter 48
Paulsen 48
dioxide 48
onwards 48
56 48
films 48
magnificent 48
plea 48
2015 48
troika 48
feared 48
GALILEO 48
ASEAN 48
Bangladesh 48
instructions 47
suggesting 47
advocating 47
mo@@ 47
mix 47
reservation 47
supposedly 47
merger 47
z 47
encouragement 47
visiting 47
compensate 47
viewpoint 47
chiefly 47
Working 47
obligatory 47
marking 47
department 47
Ultimately 47
600 47
symbol 47
purchase 47
ful 47
backs 47
embrace 47
ch 47
peacekeeping 47
xenophobic 47
man@@ 47
secured 47
eradication 47
internally 47
murdered 47
com@@ 47
imminent 47
fossil 47
trans@@ 47
environmentally-friendly 47
honoured 47
disproportionate 47
Y@@ 47
announce 47
transformation 47
subsidised 47
Farmers 47
racial 47
attract 47
ec@@ 47
salaries 47
aforementioned 47
images 47
bus 47
Up 47
accessibility 47
ma@@ 47
EP 47
Aung 47
Perspective 47
expects 47
confirmation 47
ical 47
despair 47
penal 47
father 47
Management 47
dreadful 47
govern 47
bid 47
ECOFIN 47
settlements 47
judgments 47
EMAS 47
illnesses 47
Söderman 47
son 47
by-products 47
attendance 47
frank 47
progressing 47
affordable 47
Lehne 47
opt-out 47
Ivoire 47
vigilance 46
restraint 46
frequent 46
machine 46
gesture 46
exercising 46
boat 46
undermines 46
partial 46
weaker 46
confront 46
restoration 46
habitats 46
detected 46
arrange 46
privileged 46
remembered 46
staffing 46
tion; 46
Berg 46
la@@ 46
ments 46
pledged 46
Eurodac 46
migrants 46
incomplete 46
IMF 46
village 46
imply 46
Recently 46
thirteen 46
classified 46
disgrace 46
parameters 46
decent 46
har@@ 46
fo@@ 46
justifies 46
experiments 46
day-to-day 46
secretariat 46
DG 46
legacy 46
tries 46
Schmid 46
os 46
minimise 46
cell 46
inland 46
updating 46
condemns 46
dwell 46
Euro-@@ 46
soil 46
ard 46
Lulling 46
fe@@ 46
foreseen 46
alleged 46
completing 46
liberalising 46
mail 46
minerals 46
gathered 46
injustice 46
Access 46
admittedly 46
prostitution 46
capacities 46
Aviation 46
63 46
cereals 46
tri@@ 46
malaria 46
gene 46
simpler 46
ICC 46
Indonesian 46
B5 46
undeclared 46
Neves 46
Côte 46
Nisticò 46
herbal 46
forefront 45
17@@ 45
dark 45
Did 45
filled 45
multinational 45
capita 45
owing 45
drastically 45
gra@@ 45
sa@@ 45
III 45
demonstrating 45
ying 45
cofinancing 45
damages 45
landscape 45
Nuclear 45
TACIS 45
ter@@ 45
Catholic 45
Technical 45
stupid 45
blocks 45
shot 45
devise 45
asset 45
Taking 45
harder 45
judiciary 45
flame 45
ice 45
alist 45
validity 45
tender 45
arriving 45
prevailing 45
worker 45
Bowis 45
glass 45
INTERREG 45
insists 45
rethink 45
fathers 45
e-Europe 45
globally 45
protective 45
Administration 45
alised 45
incidence 45
capitalist 45
horrific 45
cited 45
virtual 45
LIFE 45
Dialogue 45
ing-@@ 45
contracting 45
shut 45
colonial 45
beforehand 45
unfounded 45
levelled 45
blow 45
underestimated 45
enthusiastic 45
imprisoned 45
populated 45
hot 45
curious 45
-related 45
incorporation 45
facilitating 45
servants 45
drink 45
recitals 45
inspiration 45
alarm 45
seeds 45
quorum 45
prominent 45
Australia 45
distinguished 44
failures 44
inter-@@ 44
carries 44
den@@ 44
studying 44
negligence 44
checking 44
envisages 44
conceal 44
rigour 44
courses 44
ons 44
mankind 44
tight 44
reactors 44
holiday 44
Communities 44
managers 44
pledges 44
overhaul 44
Lebanon 44
gr@@ 44
winter 44
detention 44
and@@ 44
endeavoured 44
self-evident 44
billions 44
undemocratic 44
extremism 44
wrongly 44
barrier 44
intensify 44
fi@@ 44
thematic 44
Experience 44
reviewing 44
Young 44
O 44
sed 44
explosion 44
Recent 44
render 44
y; 44
denounce 44
intensified 44
cre@@ 44
factory 44
flooding 44
verification 44
Wales 44
odds 44
introduces 44
keeps 44
elimination 44
literally 44
stipulate 44
escalation 44
trialogue 44
knowing 44
conversion 44
professionals 44
winners 44
extremist 44
distorted 44
pushed 44
rush 44
Prize 44
devised 44
lagging 44
exporting 44
claiming 44
Latvia 44
convictions 44
smoke 44
adults 44
ashamed 44
Toulouse 44
appointments 44
genes 44
in-@@ 44
Kostunica 44
juncture 43
misunderstandings 43
modernising 43
incapable 43
IMO 43
classes 43
moderation 43
tankers 43
cure 43
deployment 43
F 43
tra@@ 43
cleared 43
iting 43
transferring 43
suffice 43
arranged 43
ker 43
unresolved 43
Sjöstedt 43
realism 43
chances 43
responsibly 43
afforded 43
evaluations 43
divisions 43
confrontation 43
multi-@@ 43
cancelled 43
grips 43
Recital 43
clarifying 43
gi@@ 43
unjustified 43
adapting 43
smoothly 43
ver@@ 43
theoretical 43
Day 43
constructively 43
Alba 43
expanding 43
rectify 43
outbreaks 43
besides 43
Agricultural 43
ically 43
pregnant 43
Cologne 43
answering 43
benchmarking 43
competing 43
cancel 43
visibility 43
landmines 43
punish 43
liberties 43
churches 43
token 43
lifting 43
entity 43
tropical 43
fl@@ 43
ps 43
struggling 43
Opportunities 43
Burg 43
Small 43
neighbour 43
delete 43
craft 43
encryption 43
unified 43
prohibit 43
Sri 43
endorses 43
headquarters 43
patient 43
Institute 43
driver 43
Dover 43
meat-and-bone 43
vitamins 43
coup 42
satisfactorily 42
broke 42
margins 42
mid-@@ 42
grass-roots 42
varies 42
Looking 42
decrease 42
inconsistent 42
guardian 42
wondering 42
birds 42
so@@ 42
outlines 42
preserving 42
collect 42
standardised 42
tar 42
inability 42
exhaustive 42
registers 42
heartfelt 42
Gulf 42
hugely 42
arena 42
Force 42
legislator 42
21st 42
prescribed 42
bomb 42
outright 42
resignation 42
ex 42
choosing 42
insisting 42
Moscow 42
confusing 42
sounds 42
taste 42
h 42
dying 42
indicative 42
cl@@ 42
ary 42
alisation 42
safely 42
lobbying 42
concentrating 42
anxiety 42
tolerated 42
somehow 42
vi@@ 42
preferential 42
quiet 42
offensive 42
immigrant 42
URBAN 42
contradict 42
Caribbean 42
resolute 42
competitors 42
federalism 42
blocking 42
catering 42
forward-looking 42
Due 42
household 42
meaningless 42
sharp 42
Moluccas 42
Malmström 42
personality 42
Sakharov 42
goodwill 42
passport 42
Kauppi 42
devices 42
policing 42
David 42
reveal 42
rescue 42
Sahara 42
Her 42
phenomena 42
Jewish 42
Church 42
Pirker 42
holdings 42
fundamentalist 42
migratory 42
simultaneously 42
GMO 42
penalise 42
hypocritical 42
Miguel 42
penalised 42
Colombian 42
pertaining 41
lastly 41
purchasing 41
d; 41
specialised 41
curb 41
ur@@ 41
Country 41
horrendous 41
defines 41
hoc 41
back@@ 41
Maritime 41
shed 41
embark 41
preceded 41
pieces 41
Im@@ 41
benefiting 41
hierarchy 41
shaping 41
presupposes 41
Elles 41
ish 41
ren@@ 41
consultative 41
al-@@ 41
deploy 41
barbaric 41
Racism 41
reflecting 41
sustain 41
warned 41
57 41
agendas 41
panic 41
hamper 41
anniversary 41
fourteen 41
retardants 41
leftovers 41
ative 41
ving 41
preserved 41
Jews 41
can@@ 41
unite 41
sub-@@ 41
self-determination 41
ignores 41
inequalities 41
Ortega 41
inclusive 41
reorganisation 41
prioritise 41
Nicholson 41
reminder 41
cleaner 41
Martin 41
overly 41
steady 41
engine 41
ality 41
headed 41
cows 41
countless 41
defeat 41
Mo@@ 41
cu@@ 41
breakdown 41
incidentally 41
homework 41
eco-@@ 41
modifications 41
Baroness 41
club 41
traffickers 41
cinema 41
sheet 41
Tunisian 41
expanded 41
ber@@ 41
diet 41
obsolete 41
growers 41
accidental 41
Perry 41
TENs 41
Howitt 41
S 41
combated 41
Equatorial 41
Lalumière 41
records 40
explore 40
slightest 40
Brazil 40
forcing 40
ev@@ 40
overcoming 40
imposes 40
reliability 40
tightened 40
successive 40
polluting 40
crew 40
condolences 40
fortunate 40
balances 40
Rapid 40
Independent 40
NGO 40
non 40
formulate 40
possess 40
Vienna 40
music 40
suppose 40
sand 40
U 40
ambiguity 40
accede 40
predecessor 40
premise 40
Lord 40
alleviate 40
Bourlanges 40
draftsman 40
peat 40
traditionally 40
low-@@ 40
spiral 40
Cambodia 40
Com@@ 40
prudent 40
Negotiations 40
director 40
shareholders 40
somebody 40
P 40
oriented 40
neglected 40
compromised 40
prompted 40
Bonde 40
supportive 40
chief 40
expressions 40
irreversible 40
tly 40
derivatives 40
readily 40
Villiers 40
executed 40
anti-personnel 40
bed 40
ICT 40
on-going 40
shops 40
allocating 40
arguing 40
famine 40
labels 40
database 40
monthly 40
origins 40
imagination 40
Dr 40
Red 40
bombing 40
hemp 40
Valencia 40
Papayannakis 40
ves 40
bottlenecks 40
west 40
Dell' 40
Tobacco 40
ILO 40
donation 40
Kabul 40
Danielsson 40
five-year 39
provider 39
Society 39
ms 39
varied 39
approached 39
emergence 39
inquiries 39
Morgan 39
Being 39
fat 39
shipowners 39
unequivocally 39
appoint 39
calculations 39
up-to-date 39
Between 39
attracted 39
half-@@ 39
54 39
EQUAL 39
eve 39
analysed 39
horse 39
GBP 39
sorted 39
expectation 39
Agreements 39
System 39
assuming 39
makers 39
ve@@ 39
male 39
au@@ 39
circles 39
watching 39
reluctant 39
occasionally 39
questioned 39
distances 39
altered 39
federation 39
nonsense 39
counterproductive 39
harmony 39
broadcast 39
tends 39
er-@@ 39
influenced 39
flood 39
gulf 39
def@@ 39
specifications 39
hearts 39
mar@@ 39
replacement 39
daughter 39
conscious 39
Armenia 39
ne 39
1980s 39
touches 39
protectionism 39
Maghreb 39
format 39
arrests 39
warming 39
credits 39
perception 39
ed; 39
passage 39
enjoys 39
Russians 39
stimulating 39
Apparently 39
ence 39
street 39
insignificant 39
urges 39
seminar 39
urging 39
trace 39
screening 39
dollars 39
allowances 39
embryo 39
slots 39
biometric 39
Bo@@ 39
licensing 39
Accession 39
Mauritania 39
post-Nice 39
Bullmann 39
overnight 38
undergo 38
arm 38
For@@ 38
overriding 38
deadlock 38
quo 38
aggressive 38
perpetrated 38
ca@@ 38
enforcing 38
undertook 38
ins 38
crossing 38
Laan 38
St@@ 38
Quecedo 38
proclaimed 38
disposed 38
ff@@ 38
wife 38
Rübig 38
dirty 38
termed 38
tragedies 38
sing 38
tantamount 38
politician 38
pen@@ 38
ke 38
unlimited 38
Throughout 38
unduly 38
ises 38
Fourth 38
Serbs 38
unilaterally 38
well-balanced 38
collecting 38
arose 38
et 38
sion 38
prosperous 38
Lucas 38
practise 38
federalist 38
om@@ 38
matched 38
evaluating 38
clash 38
representations 38
Car@@ 38
Berenguer 38
drought 38
dynamism 38
virtue 38
tes 38
pain 38
ideals 38
leap 38
imperialist 38
Méndez 38
reaches 38
institute 38
fu@@ 38
hinder 38
par 38
fied 38
unsustainable 38
Somalia 38
preventative 38
contempt 38
infectious 38
fora 38
coasts 38
cruel 38
functional 38
unexpected 38
redress 38
camp 38
Li@@ 38
unaware 38
ratio 38
assigned 38
panel 38
Fridays 38
Maat 38
resale 38
Müller 38
Saudi 38
Poverty 37
entrepreneurship 37
appropriation 37
destructive 37
proportions 37
linking 37
thereof 37
correspond 37
approves 37
tougher 37
decisively 37
tightening 37
pl@@ 37
shopping 37
dec@@ 37
interpreting 37
rewarded 37
qualities 37
mode 37
budgeting 37
stamp 37
Blak 37
fairness 37
SIS 37
scenarios 37
favourably 37
yours 37
isolate 37
Trans@@ 37
robust 37
pertinent 37
sentiments 37
tighter 37
negotiators 37
renewables 37
re-use 37
plastic 37
roll-call 37
tyres 37
invaluable 37
Davies 37
principally 37
Initiative 37
ches 37
broaden 37
cross-@@ 37
analysing 37
submission 37
enemies 37
underpin 37
forecast 37
fin@@ 37
deepening 37
sick 37
2020 37
attain 37
dismissed 37
precious 37
select 37
ignoring 37
transpose 37
Something 37
ann@@ 37
referral 37
undergoing 37
continental 37
speeded 37
vigour 37
Specifically 37
forwarded 37
calculation 37
sur@@ 37
interception 37
illness 37
collectively 37
vain 37
serving 37
Ministerial 37
shameful 37
Stenmarck 37
McCartin 37
occupy 37
infection 37
fishery 37
unsafe 37
indicating 37
games 37
marriage 37
auction 37
Be@@ 37
beliefs 37
Seppänen 37
accelerate 37
ai@@ 37
unwilling 37
directions 37
Sky 37
intermodal 37
tyre 37
shipyards 37
lesser 36
82 36
marker 36
preferably 36
roll 36
fore 36
adopts 36
Jacques 36
named 36
omission 36
subsidiary 36
doubtful 36
generosity 36
occurrence 36
municipal 36
Official 36
ian 36
é@@ 36
discriminated 36
Rojo 36
disability 36
stopping 36
ante 36
breaks 36
Southern 36
impressed 36
tactics 36
Mon@@ 36
dealings 36
fying 36
sacrifice 36
su@@ 36
friendship 36
concentrations 36
vacuum 36
and/or 36
350 36
authorise 36
Banotti 36
Danube 36
Cederschiöld 36
conformity 36
ously 36
alising 36
reconciled 36
sp@@ 36
regain 36
incurred 36
OSPAR 36
sentiment 36
ta 36
measuring 36
exerted 36
engaging 36
healthcare 36
innovations 36
dating 36
motivation 36
annum 36
locally 36
pave 36
extensively 36
richest 36
0@@ 36
id@@ 36
Ma@@ 36
ged 36
Vigo 36
teach 36
Macedonian 36
striving 36
for@@ 36
two-@@ 36
doctor 36
e-mails 36
spell 36
dismantle 36
capability 36
massacres 36
pro-active 36
generic 36
Relations 36
rape 36
Duff 36
Regrettably 36
Martínez 36
Le 36
impartial 36
disclosure 36
distrust 36
vaccinated 36
clients 36
bounds 36
speedily 36
repatriation 36
Kuhne 36
fires 36
Money 36
ging 36
loading 36
valued 36
disarmament 36
96 36
submarine 36
recession 36
indicator 36
Basle 36
Aarhus 36
opt-in 36
legislature 35
Transparency 35
permissible 35
renationalisation 35
characteristic 35
exchanging 35
honestly 35
centralisation 35
classic 35
ring 35
doubtless 35
millennium 35
deterrent 35
x@@ 35
earned 35
endeavouring 35
deepest 35
Tibetan 35
headings 35
reinforcing 35
enforceable 35
under-@@ 35
prescribe 35
channelled 35
audits 35
asylum-seekers 35
strengthens 35
doubled 35
r 35
develops 35
tically 35
non-EU 35
awful 35
combustion 35
metals 35
cumbersome 35
non-discrimination 35
publicity 35
equity 35
guideline 35
persist 35
imagined 35
appraisal 35
corresponds 35
closures 35
reduces 35
sc@@ 35
encounter 35
practicable 35
charging 35
Ten 35
polluted 35
92 35
Four 35
preferences 35
twenty-first 35
TRIPS 35
ACP-EU 35
Especially 35
outlook 35
withdrawing 35
qualify 35
pockets 35
refuses 35
mothers 35
describes 35
intimidation 35
Romanian 35
hi@@ 35
retail 35
left-wing 35
balancing 35
tor 35
salary 35
vocational 35
é 35
manufactured 35
dividing 35
John 35
R 35
sulphur 35
explosive 35
Belder 35
Kurds 35
Schröder 35
ordered 35
illicit 35
Lanka 35
fever 35
award 35
foods 35
differentiated 35
meanwhile 35
liberalise 35
BNFL 35
King 35
speeding 35
petition 35
pleasant 35
Schmitt 35
donations 35
Armenian 35
Marco 35
Bali 35
Schroedter 34
discover 34
yourselves 34
critics 34
bitter 34
offset 34
grip 34
approximation 34
monies 34
economics 34
ders 34
reveals 34
protocols 34
legality 34
prize 34
suspicions 34
horror 34
harbour 34
objectively 34
metres 34
dozens 34
accelerated 34
ach@@ 34
s-@@ 34
87 34
expired 34
Gaza 34
murders 34
ation; 34
contravene 34
challenged 34
frequency 34
reversed 34
globalised 34
arrival 34
unequal 34
unwanted 34
67 34
Lange 34
precarious 34
jeopardised 34
militarisation 34
Le@@ 34
premises 34
emotional 34
110 34
retaining 34
pa@@ 34
duplication 34
atory 34
Senate 34
workings 34
brave 34
denying 34
rivers 34
subsidise 34
fragmentation 34
discharges 34
we@@ 34
WHO 34
unchanged 34
72 34
ently 34
ven@@ 34
part-time 34
rolling 34
fee 34
complementarity 34
Cairo 34
seconds 34
Amnesty 34
angle 34
associate 34
66 34
tribunal 34
ble 34
holders 34
heated 34
returns 34
deletion 34
punishable 34
mental 34
Saturday 34
signature 34
des@@ 34
kilometres 34
Chernobyl 34
interview 34
sanction 34
reaffirm 34
Rocard 34
Combating 34
tr@@ 34
clinical 34
parental 34
na@@ 34
lowering 34
customary 34
Trakatellis 34
dioxins 34
um@@ 34
Peru 34
hectares 34
oblige 34
ver 34
Ac@@ 34
Ad@@ 34
Kirkhope 34
boxes 34
corrections 34
Fléchard 34
surpluses 34
Paasilinna 34
busy 34
junior 34
remedies 34
MAGP 34
Arms 34
Watts 34
2008 34
missile 34
plasma 34
renew 33
Either 33
criticising 33
counted 33
storms 33
accompanying 33
cornerstones 33
81 33
plainly 33
observance 33
dossiers 33
N 33
misgivings 33
Heaton-Harris 33
ru@@ 33
staying 33
climatic 33
earthquake 33
symptoms 33
tors 33
verify 33
qualification 33
fairer 33
spot 33
mature 33
Thors 33
trip 33
As@@ 33
suffers 33
spheres 33
strain 33
pretend 33
Ortuondo 33
intervening 33
Unemployment 33
random 33
Aids 33
baby 33
style 33
verdict 33
watered 33
differentiation 33
realisation 33
irrelevant 33
dependency 33
discrepancy 33
regulates 33
n't 33
comprises 33
vein 33
whoever 33
editorial 33
listing 33
indifference 33
appearing 33
strand 33
bs 33
tailored 33
du@@ 33
Local 33
closest 33
ci@@ 33
useless 33
sacrificed 33
illusion 33
experiment 33
mistrust 33
min@@ 33
polls 33
sexes 33
designated 33
confess 33
standpoint 33
Andersson 33
loan 33
formulating 33
executions 33
rebels 33
Alyssandrakis 33
Wall 33
entrusted 33
overseas 33
Stabilisation 33
bones 33
interpretations 33
Vallelersundi 33
vegetables 33
Sterckx 33
continents 33
UN@@ 33
recipients 33
embarked 33
deteriorating 33
Petersberg 33
catching 33
one-@@ 33
Ch@@ 33
scientifically 33
tuna 33
Varela 33
Legislation 33
quicker 33
Along 33
catalogue 33
designation 33
soya 33
upset 33
fulfils 33
ing; 33
correspondence 33
violate 33
genital 33
attacking 33
tired 33
lively 33
comparative 33
chairmen 33
espionage 33
astonished 33
temporarily 33
ESDP 33
Dary 33
high-speed 33
Di@@ 33
Spring 33
foreigners 33
Sierra 33
Annual 33
celebrate 33
breast 33
accomplished 32
barely 32
unconditional 32
exhaustion 32
distressing 32
usefulness 32
Robert 32
compiled 32
subordinate 32
uncertainties 32
lending 32
tanker 32
Better 32
ep@@ 32
timber 32
Current 32
haste 32
catastrophic 32
evolving 32
evolution 32
Florenz 32
Myller 32
bombs 32
98 32
contradicts 32
drafts 32
voluntarily 32
outdated 32
downward 32
forceful 32
matches 32
surrounded 32
communicated 32
questioning 32
synergy 32
long-standing 32
Nogueira 32
St 32
ignorance 32
Alongside 32
yardstick 32
protests 32
reads 32
expelled 32
unstable 32
14@@ 32
Frassoni 32
incumbent 32
timeframe 32
inclined 32
generates 32
recovered 32
laudable 32
il 32
distress 32
reluctance 32
transmitted 32
differs 32
dissemination 32
progressed 32
habit 32
reminds 32
acceding 32
neglect 32
ally-@@ 32
precautions 32
disregarded 32
TSE 32
dr@@ 32
conceived 32
predominantly 32
mountains 32
proportionality 32
uc@@ 32
paradox 32
appearance 32
hostage 32
hostile 32
exploiting 32
grey 32
chaired 32
hesitate 32
protects 32
peacefully 32
predictable 32
one-off 32
recommending 32
deferred 32
Castro 32
practised 32
tur@@ 32
Violence 32
ca 32
vicious 32
travelled 32
anti@@ 32
takeover 32
stops 32
corner 32
committing 32
world-wide 32
Thousands 32
Eurostat 32
vaccines 32
hauliers 32
non-compliance 32
cancellation 32
multi-annual 32
bombings 32
bordering 32
switch 32
Bowe 32
dictate 32
objects 32
accurately 32
tuberculosis 32
case-by-case 32
heat 32
rapprochement 32
noisy 32
Roo 32
intensity 32
warrants 32
abandoning 32
fusion 32
gentleman 32
journeys 32
boys 32
Salafranca 32
Schörling 32
Crowley 32
Berès 32
Leone 32
pressed 32
mon@@ 32
Jihad 32
Pronk 32
sympathetic 32
Arabia 32
proteins 32
passes 31
presently 31
prevails 31
st 31
che@@ 31
know-how 31
commission 31
specialists 31
twofold 31
indefinitely 31
weakest 31
visions 31
strengths 31
accords 31
Men 31
restructure 31
Grossetête 31
ts; 31
corporations 31
Japanese 31
respectively 31
undergone 31
skilled 31
pattern 31
stabilise 31
complained 31
Experts 31
avail 31
improper 31
Mulder 31
inefficient 31
Reconstruction 31
Currently 31
translations 31
complies 31
fleeing 31
Likewise 31
soul 31
Alavanos 31
excesses 31
frightening 31
Bushill-Matthews 31
profitability 31
favoured 31
shifting 31
totalitarian 31
Montreal 31
locked 31
emerges 31
focussed 31
wheel 31
conception 31
McNally 31
delaying 31
comfort 31
combining 31
Alps 31
fa@@ 31
stressing 31
files 31
vo@@ 31
Dam 31
Regions 31
intensively 31
ke@@ 31
Doyle 31
152 31
phased 31
authorisations 31
finger 31
factories 31
Coordination 31
Napolitano 31
importing 31
alcoholic 31
embarrassing 31
predict 31
pollutants 31
imprisonment 31
130 31
Javier 31
Eritrea 31
vicinity 31
skill 31
leeway 31
la 31
establishments 31
obstruct 31
Additionally 31
customer 31
desires 31
dominate 31
Cohn-Bendit 31
detect 31
deb@@ 31
assisted 31
aquaculture 31
insolvency 31
nets 31
distorting 31
breaches 31
happily 31
ten-year 31
lorry 31
ty-@@ 31
Polish 31
predicted 31
ses 31
commodities 31
habits 31
Ambassador 31
enjoying 31
61 31
burning 31
second-class 31
violates 31
ing@@ 31
oversight 31
Mexican 31
stored 31
counter-@@ 31
Bosnia-Herzegovina 31
bro@@ 31
enquiry 31
file 31
Part 31
Cartagena 31
inter 31
constituent 31
drawbacks 31
Figueiredo 31
EPLP 31
inhumane 31
ass@@ 31
dy 31
Alpine 31
Channel 31
fitted 31
amounting 31
beer 31
hopeful 31
adolescents 31
308 31
bar@@ 31
Was 31
Orden 31
Marques 31
freezing 31
Statement 31
Qatar 31
Decisions 30
loud 30
owner 30
88 30
mess 30
forty 30
cleaning 30
mainland 30
minded 30
judgements 30
Particular 30
norm 30
off@@ 30
authorising 30
short-sighted 30
certificates 30
operated 30
critically 30
miracle 30
heed 30
storm 30
trees 30
fantastic 30
forgetting 30
noble 30
ning 30
ping 30
rests 30
Journal 30
ors 30
detract 30
gl@@ 30
admire 30
tongue 30
applause 30
ob@@ 30
comprehensible 30
precision 30
dragged 30
wa@@ 30
alists 30
re-establish 30
Representatives 30
w 30
GUE/NGL 30
traders 30
opposes 30
ori@@ 30
ranks 30
interfering 30
enters 30
le-@@ 30
reminding 30
freeze 30
bogged 30
rooted 30
fac@@ 30
UNMIK 30
coordinator 30
tiny 30
capitalism 30
Si@@ 30
Often 30
EU-wide 30
routine 30
Anything 30
centred 30
insufficiently 30
preconditions 30
contentious 30
triggered 30
logically 30
feeds 30
annexes 30
ines 30
Making 30
simplistic 30
underpinned 30
scepticism 30
ran 30
uniformity 30
forge 30
surrender 30
regrettably 30
conducive 30
construct 30
contexts 30
wholehearted 30
UCITS 30
hearings 30
constructed 30
Companies 30
signatures 30
detained 30
turnover 30
operator 30
Military 30
He@@ 30
imposition 30
bridges 30
non-existent 30
Had 30
protectionist 30
Oslo 30
convert 30
recipient 30
recreational 30
fines 30
Be 30
student 30
Child 30
landfill 30
waited 30
edge 30
employs 30
MEDIA 30
tively 30
HIPC 30
stretch 30
abundantly 30
wisely 30
Wynn 30
backlog 30
output 30
lawful 30
unscrupulous 30
monitors 30
divergent 30
readiness 30
admiration 30
unavoidable 30
frustrated 30
Animal 30
eastward 30
alia 30
up@@ 30
CARDS 30
reprocessing 30
Burmese 30
carrier 30
hooliganism 30
Police 30
superpower 30
relatives 30
Turco 30
fortress 30
FIFA 30
Vietnamese 30
paramilitaries 30
slowdown 30
prerequisites 29
inspire 29
uncontrolled 29
commented 29
expire 29
sophisticated 29
vertical 29
consolidating 29
concise 29
Wise 29
Countries 29
bio@@ 29
sinking 29
69 29
devastated 29
tures 29
south-east 29
sen@@ 29
reinforcement 29
sine 29
by@@ 29
stories 29
no-one 29
impasse 29
Romano 29
persuaded 29
scarce 29
compensated 29
Regulations 29
contractual 29
modus 29
dictatorships 29
97 29
ears 29
auspices 29
respectable 29
categorically 29
Her@@ 29
deprive 29
nut 29
widen 29
deaf 29
EEC 29
Cultural 29
contemplate 29
recycled 29
wh@@ 29
letting 29
norms 29
Gorsel 29
apologies 29
Chapter 29
contend 29
repetition 29
handful 29
mood 29
hiding 29
grows 29
specifies 29
equitable 29
TSEs 29
dry 29
Nowadays 29
Lienemann 29
mu@@ 29
clarifications 29
creativity 29
reversal 29
recording 29
authoritarian 29
acknowledgement 29
discriminate 29
rigorously 29
criminality 29
realising 29
possession 29
Services 29
marketed 29
HIV 29
Man@@ 29
scenes 29
hungry 29
grammes 29
websites 29
opting 29
regulator 29
mentality 29
weigh 29
Attwooll 29
Gallagher 29
abilities 29
tortured 29
comparisons 29
synthesis 29
ado 29
stri@@ 29
describing 29
clo@@ 29
lightly 29
Cross 29
untenable 29
outrageous 29
native 29
observing 29
swine 29
Imbeni 29
logistical 29
proliferation 29
Foundation 29
Langenhagen 29
walls 29
fighters 29
incorporates 29
war@@ 29
invoked 29
Supplementary 29
Fuster 29
Media 29
Collins 29
exhaust 29
League 29
Administrative 29
diesel 29
et@@ 29
frequencies 29
ascertain 29
prevailed 29
Sacrédeus 29
89 29
Khanbhai 29
Standing 29
Lindh 29
Sabena 29
Mitchell 29
Polo 29
loose 28
15@@ 28
seventh 28
hospitals 28
86 28
entrepreneurial 28
hardest 28
Amongst 28
enlarging 28
mor@@ 28
1986 28
flagrant 28
liberals 28
speculative 28
cost-benefit 28
scrutinise 28
Based 28
el 28
grass 28
scrap 28
certificate 28
Galicia 28
Colleagues 28
physically 28
qua 28
wi@@ 28
petrol 28
Rothley 28
commensurate 28
focal 28
sk@@ 28
Numerous 28
Bay 28
motive 28
expulsion 28
fabric 28
mainstream 28
refute 28
History 28
Munich 28
crack 28
cost-effective 28
tion@@ 28
hurdles 28
Marinho 28
lady 28
prerogatives 28
ample 28
gauge 28
calmly 28
Directives 28
chaotic 28
McCarthy 28
shortcoming 28
observatory 28
PHARE 28
marginalisation 28
reopen 28
administered 28
ale 28
bas@@ 28
communist 28
proximity 28
interparliamentary 28
ak@@ 28
Generally 28
ars 28
reg@@ 28
appreciates 28
emotions 28
alise 28
stream 28
luxury 28
59 28
temptation 28
wealthy 28
inefficiency 28
contravenes 28
season 28
unwise 28
Cuban 28
transformed 28
Presidency-in-Office 28
headlines 28
tandem 28
na 28
ys 28
rebuild 28
inviting 28
beauty 28
prudential 28
ill@@ 28
command 28
sudden 28
Level 28
Sakellariou 28
thirds 28
gar@@ 28
tourists 28
superior 28
Liberalisation 28
Se@@ 28
exhausted 28
Gil-Robles 28
conversation 28
diminished 28
ay@@ 28
Cunha 28
bankruptcy 28
Peres 28
part-sessions 28
ite 28
downright 28
misused 28
prohibiting 28
dreams 28
lying 28
Bouwman 28
Brenner 28
appliances 28
Respect 28
Germans 28
invasion 28
Daul 28
Service 28
Precisely 28
rice 28
documented 28
Clinton 28
bur@@ 28
Klamt 28
nicotine 28
patenting 28
flawed 28
assisting 28
Per@@ 28
consumed 28
ton 28
endorsing 28
Ramos 28
commitology 28
rectified 28
endocrine 28
Cappato 28
hormones 28
tracing 28
engagement 28
Duhamel 28
ruminants 28
Still 27
conferred 27
wing 27
unlawful 27
permitting 27
exaggerated 27
constructing 27
decision-makers 27
Langen 27
decreased 27
expiry 27
fore@@ 27
freed 27
transporting 27
radiation 27
Future 27
performed 27
introductory 27
deem 27
tation 27
68 27
mi@@ 27
mismanagement 27
Change 27
reassured 27
similarly 27
L 27
unanswered 27
ges 27
char@@ 27
Speaking 27
X@@ 27
00@@ 27
KFOR 27
seized 27
ranging 27
Chancellor 27
brand 27
kills 27
Remember 27
pulling 27
installation 27
quoting 27
Provan 27
Gu@@ 27
sha@@ 27
unfairly 27
commenting 27
by-@@ 27
fitting 27
down@@ 27
traced 27
younger 27
ching 27
utilisation 27
free-trade 27
co-operation 27
Climate 27
river 27
deteriorated 27
subsidising 27
foresee 27
coin 27
ceased 27
ited 27
piracy 27
Ber@@ 27
ni@@ 27
formulation 27
grassroots 27
ned 27
rebuilding 27
trap 27
advancing 27
stuck 27
accumulated 27
taboo 27
Schmidt 27
Canary 27
panacea 27
plight 27
sis 27
intervened 27
buried 27
provocation 27
sleep 27
aged 27
Solidarity 27
Par@@ 27
shelter 27
six-month 27
TACs 27
occurrences 27
ash@@ 27
av@@ 27
theirs 27
conform 27
ombudsman 27
depressing 27
breathe 27
atmospheric 27
appealing 27
Supreme 27
hostages 27
employing 27
conservative 27
Bonino 27
couples 27
TB 27
herds 27
ess@@ 27
screen 27
rulings 27
Álvarez 27
fanaticism 27
modify 27
offenders 27
ste@@ 27
federations 27
illiteracy 27
Linkohr 27
conversations 27
laboratories 27
Ribeiro 27
comprehensively 27
Skinner 27
Casaca 27
Athens 27
Deva 27
fundamentalists 27
Producers 27
calendar 27
investor 27
Responsibility 27
intermediaries 27
tonne 27
groupings 27
accusation 27
drinks 27
Busk 27
200@@ 27
sharply 27
SME 27
Sörensen 27
Paraguay 27
cosmetic 27
veal 27
FAO 27
Amending 27
diabetes 27
sponsorship 27
volumes 27
ber 27
referendums 27
honey 27
perceive 26
province 26
redistribution 26
rationalisation 26
pronounced 26
encompass 26
Workers 26
unforeseen 26
dissatisfaction 26
proclaim 26
oc@@ 26
Riis-Jørgensen 26
punishing 26
ster 26
tro@@ 26
impacts 26
awarding 26
powerless 26
imaginative 26
multi@@ 26
accounted 26
well-founded 26
teeth 26
interpreters 26
grade 26
applauded 26
micro@@ 26
Mer@@ 26
stones 26
compliments 26
ran@@ 26
ll@@ 26
the@@ 26
sl@@ 26
redeployment 26
unpleasant 26
legitimately 26
importation 26
generating 26
bizarre 26
commence 26
insistence 26
fy 26
twentieth 26
deepen 26
declaring 26
governmental 26
omitted 26
Berger 26
presumably 26
contributors 26
defects 26
77 26
derive 26
end-of-life 26
socialists 26
composed 26
scrapping 26
cry 26
pu@@ 26
widest 26
ants 26
confines 26
marginal 26
Su@@ 26
winning 26
Bible 26
self-interest 26
fruits 26
Refugees 26
tw@@ 26
Böge 26
cra@@ 26
owned 26
grain 26
ns 26
ped 26
persuasion 26
prioritised 26
cancelling 26
Six 26
cap@@ 26
undeniable 26
imbalances 26
horizon 26
ess 26
ratifying 26
originating 26
blank 26
activists 26
apartheid 26
comprising 26
Universal 26
waiver 26
fled 26
ade 26
brink 26
Korakas 26
est@@ 26
transform 26
prudence 26
García-Margallo 26
reciprocity 26
remarked 26
excuses 26
weakens 26
indignation 26
bloody 26
supplying 26
denial 26
year-old 26
disappearance 26
anti-terrorist 26
impartiality 26
sacrifices 26
loses 26
Staff 26
equip 26
Ro@@ 26
levies 26
eradicating 26
acy 26
revolutionary 26
parcel 26
tations 26
judging 26
assertion 26
ammonia 26
Contrary 26
stra@@ 26
patterns 26
religions 26
tables 26
bul@@ 26
unhappy 26
tu@@ 26
Plus 26
No@@ 26
remuneration 26
artificially 26
waves 26
throwing 26
facilitated 26
ls 26
Executive 26
additions 26
disappearing 26
Increased 26
mineral 26
Inter@@ 26
ill-@@ 26
Vi@@ 26
unwillingness 26
dialogues 26
ents 26
Title 26
Schwaiger 26
jeopardy 26
Mal@@ 26
José 26
juice 26
tie 26
disruption 26
Lambert 26
officer 26
Miguélez 26
CE 26
91 26
Television 26
Assurance 26
ce@@ 26
conglomerates 26
Helmer 26
Lifelong 26
Fi@@ 26
maternity 26
Transatlantic 26
Pérez 26
endorsement 26
stoning 26
Pri@@ 26
fodder 26
Sharia 26
Conduct 26
municipalities 25
equation 25
rose 25
pping 25
prosecuted 25
grand 25
specifying 25
euro@@ 25
receptive 25
prosecute 25
abstaining 25
generalised 25
tanks 25
volunteers 25
kes 25
Lo@@ 25
marvellous 25
compelled 25
shipments 25
equilibrium 25
telephones 25
Millions 25
compounds 25
clock 25
hampered 25
Equality 25
Discussions 25
Clear 25
sweeping 25
endless 25
hard-@@ 25
activity-based 25
-to-@@ 25
ph@@ 25
operandi 25
reconciling 25
decrees 25
regretted 25
multifunctional 25
lucrative 25
que 25
University 25
sti@@ 25
insult 25
irrational 25
indifferent 25
brominated 25
attributed 25
sixteen 25
coordinators 25
amazing 25
jeopardising 25
cul@@ 25
Moura 25
motorcycles 25
holder 25
weakening 25
punitive 25
wasting 25
awkward 25
Science 25
clever 25
three-@@ 25
Director-General 25
astonishing 25
amazed 25
theatre 25
golden 25
richer 25
equ@@ 25
abstract 25
forcefully 25
marginalised 25
1988 25
thirdly 25
Quality 25
steadily 25
end@@ 25
commended 25
ica 25
inconsistencies 25
inconsistency 25
clearance 25
ideally 25
risky 25
Ankara 25
fold 25
ka 25
tripartite 25
corrupt 25
beg 25
targeting 25
clearing 25
reassuring 25
spared 25
Prevention 25
reprehensible 25
policemen 25
headline 25
hesitant 25
opportune 25
emp@@ 25
cheapest 25
Miller 25
walk 25
pensioner 25
ari@@ 25
George 25
deplores 25
decree 25
Jo@@ 25
air@@ 25
instituted 25
continuously 25
carcinogenic 25
unpaid 25
endangered 25
Nobel 25
precedents 25
Simpson 25
breath 25
ce 25
occupying 25
Ottawa 25
64 25
ue 25
harmless 25
locations 25
two-thirds 25
acid 25
Earth 25
allegedly 25
slaughterhouses 25
circulated 25
civilisations 25
overtaken 25
Oil 25
bat@@ 25
erosion 25
hectare 25
f 25
Is@@ 25
suppression 25
cor@@ 25
Studies 25
Bar@@ 25
convicted 25
cooperated 25
med 25
charity 25
vitamin 25
SLIM 25
re 25
LDCs 25
Hungarian 25
co-financing 25
adversely 25
acquisition 25
reaffirmed 25
shortages 25
nightmare 25
Flesch 25
Tunnel 25
reassurance 25
140 25
steer 25
poultry 25
misunderstood 25
Th@@ 25
Secretariat 25
Au@@ 25
church 25
layer 25
diplomats 25
indiscriminate 25
Macao 25
pesticides 25
Skopje 25
ÅU 25
calves 25
1408/71 25
Persson 25
Powell 25
stabilisers 25
Laden 25
vibrations 25
lasted 24
hell 24
conclusive 24
roughly 24
supervise 24
Thyssen 24
boom 24
vested 24
beneficiary 24
loophole 24
stumbling 24
advisers 24
advent 24
Five 24
Delors 24
Issues 24
199@@ 24
iron 24
sailing 24
salute 24
harvest 24
pause 24
paradoxical 24
tree 24
identifies 24
retrograde 24
Lynne 24
inaccurate 24
doctrine 24
commissioned 24
controllers 24
slip 24
pessimistic 24
Never 24
slaves 24
93 24
Frahm 24
Larrea 24
Kosovar 24
Croatian 24
conveyed 24
nominal 24
Millennium 24
Gollnisch 24
Austrians 24
tread 24
indivisible 24
midst 24
gravity 24
dictators 24
Bi@@ 24
Leinen 24
Min@@ 24
Confederal 24
referenda 24
meagre 24
ton@@ 24
Graça 24
lots 24
disputed 24
percentages 24
cadmium 24
patently 24
flourish 24
insecure 24
neo-liberal 24
populist 24
void 24
biased 24
anti-discrimination 24
reap 24
k-@@ 24
Ghilardotti 24
philosophical 24
Globalisation 24
coincide 24
streamlining 24
Am@@ 24
Azores 24
branch 24
reinforces 24
households 24
joke 24
forums 24
mortality 24
packages 24
discourage 24
aff@@ 24
mal@@ 24
rain 24
eighteen 24
decreasing 24
devising 24
ever-increasing 24
North-South 24
embassies 24
praised 24
violating 24
Africans 24
wounded 24
Wuori 24
Cushnahan 24
anger 24
geopolitical 24
Canadian 24
exercises 24
ced 24
abducted 24
sidelined 24
dated 24
ESA 24
reciprocal 24
intermediary 24
counter@@ 24
Di 24
preamble 24
ram@@ 24
ups 24
peculiar 24
ation@@ 24
refuge 24
revenge 24
Troika 24
translates 24
Pursuant 24
spokesman 24
resign 24
behaving 24
realises 24
non-military 24
competitions 24
acknowledging 24
Anyway 24
ang@@ 24
lip 24
-free 24
unthinkable 24
holy 24
defensive 24
stimulus 24
varying 24
dedication 24
skies 24
cyclical 24
dictates 24
to-@@ 24
ff 24
square 24
cur@@ 24
density 24
Failure 24
homosexual 24
platforms 24
Data 24
slogan 24
mounting 24
lin@@ 24
standstill 24
Guatemala 24
collapsed 24
privatised 24
cynical 24
Birdal 24
fast-track 24
-and-@@ 24
ris@@ 24
der@@ 24
yields 24
distributing 24
dairy 24
tendering 24
remarkably 24
divides 24
La@@ 24
Movement 24
2009 24
aspiration 24
Herzegovina 24
memorandum 24
à 24
nutritional 24
ov 24
men@@ 24
self-sufficiency 24
hunting 24
6/@@ 24
boarding 24
NAFO 24
progressively 24
Chair 24
mafia 24
Reaction 24
ics 24
Afghans 24
Foster 24
pe 24
Delegation 24
Laos 24
Corbey 24
unloading 24
202 24
Stevenson 24
EURES 24
this; 23
needing 23
brake 23
centr@@ 23
96/@@ 23
totalling 23
modernised 23
chains 23
enthusiastically 23
Steel 23
Huhne 23
livelihoods 23
pan@@ 23
fre@@ 23
factual 23
halted 23
Trans-European 23
Paul 23
coupled 23
dly 23
-up 23
teacher 23
mer@@ 23
Santer 23
promotions 23
controller 23
auditing 23
hunt 23
Actually 23
brilliant 23
land@@ 23
oppressed 23
compensating 23
magic 23
provoke 23
globe 23
obscure 23
Someone 23
900 23
crazy 23
benchmark 23
uncomfortable 23
reacting 23
complacency 23
proportional 23
non-discriminatory 23
laboratory 23
diminish 23
immune 23
istic 23
unsuccessful 23
Everybody 23
Seguro 23
expires 23
71 23
dissatisfied 23
scrapped 23
cost-@@ 23
pioneering 23
boycott 23
spots 23
adjusting 23
networking 23
custody 23
farce 23
boosting 23
favouring 23
Full 23
smallest 23
1987 23
dogs 23
groundwater 23
bre@@ 23
willingly 23
Schleicher 23
ruin 23
tics 23
macro-economic 23
denominator 23
WIPO 23
thin 23
vice 23
pur@@ 23
distributors 23
belt 23
shaped 23
id 23
Sudan 23
perseverance 23
multicultural 23
Were 23
influx 23
embryonic 23
henceforth 23
exchanged 23
prefers 23
exceeds 23
Swedes 23
Marfil 23
defer 23
aspire 23
confirming 23
Gorostiaga 23
tolerant 23
alliances 23
ment@@ 23
nationalist 23
shake 23
fur@@ 23
nuisance 23
holidays 23
losers 23
client 23
unworthy 23
Díez 23
educated 23
lunch 23
corps 23
emanating 23
Jospin 23
under-represented 23
mandates 23
shortfall 23
mobilising 23
Cardiff 23
col@@ 23
definitively 23
wild 23
toll 23
relying 23
keys 23
disturbed 23
affirm 23
readings 23
load 23
detection 23
doomed 23
sacrosanct 23
remainder 23
lakes 23
und@@ 23
Pen 23
8/@@ 23
homosexuals 23
hollow 23
clashes 23
kers 23
ga@@ 23
unambiguously 23
avenues 23
7/@@ 23
her@@ 23
fait 23
posing 23
lag 23
Times 23
aw@@ 23
tting 23
takeovers 23
equivalence 23
believing 23
Kashmir 23
ath 23
Rec@@ 23
Noise 23
shirk 23
Gebhardt 23
commercialisation 23
tical 23
genetics 23
Refugee 23
lapse 23
invoke 23
ers; 23
loaded 23
appointing 23
KLA 23
Meeting 23
commonly 23
admissible 23
UNICEF 23
massacre 23
lesser-used 23
tal 23
complicate 23
exempted 23
winner 23
Trafficking 23
Cup 23
pi@@ 23
degrees 23
broadcasters 23
backdrop 23
geographically 23
top@@ 23
pregnancy 23
implants 23
productions 23
terminals 23
Rossa 23
Silva 23
reactor 23
Delhi 23
Parliaments 23
Theorin 23
Colom 23
133 23
ECHELON 23
modulation 23
Chad 23
Neyts-Uyttebroeck 23
Trentin 23
Bene 23
Jenin 23
Groups 22
phases 22
scratch 22
flexibly 22
twenty-five 22
attentive 22
nit@@ 22
index 22
protagonists 22
amounted 22
naïve 22
ites 22
Karl 22
Gemelli 22
turnout 22
explored 22
nationally 22
endure 22
recurring 22
agent 22
incoming 22
gear 22
districts 22
revenues 22
Peter 22
sanitation 22
passion 22
compound 22
an-@@ 22
st-@@ 22
ens 22
spiritual 22
Honourable 22
transposing 22
privileges 22
carpet 22
Assistance 22
picked 22
Implementation 22
costing 22
spirits 22
uring 22
resumption 22
Jordan 22
Less 22
lodged 22
Edinburgh 22
halfway 22
Dimitrakopoulos 22
fixing 22
reiterates 22
havens 22
ur 22
cing 22
dose 22
failings 22
utilised 22
assault 22
emb@@ 22
ining 22
sabotage 22
unrestricted 22
restricts 22
enrich 22
rent 22
identities 22
els 22
far@@ 22
assert 22
reminiscent 22
eligibility 22
relaxed 22
pivotal 22
culturally 22
Monnet 22
it; 22
publicise 22
Faced 22
motorway 22
1970 22
Kindermann 22
Reference 22
rises 22
Ver@@ 22
withdrew 22
disseminated 22
passionate 22
travellers 22
sions 22
outlining 22
bly 22
EU/@@ 22
ser@@ 22
inventory 22
converted 22
likes 22
ast@@ 22
creatures 22
ex-@@ 22
aggression 22
Hecke 22
multiple 22
eradicated 22
Non-@@ 22
Pacific 22
inhuman 22
illusions 22
upgrading 22
Moving 22
1985 22
legislating 22
Matters 22
approximate 22
Already 22
rounds 22
invention 22
waged 22
unrest 22
Angolan 22
prevalent 22
1979 22
catalyst 22
EU-Russia 22
mobilised 22
unhealthy 22
implication 22
miles 22
accessions 22
Go@@ 22
proverb 22
spectacular 22
Earlier 22
1980 22
prohibits 22
vaccine 22
relax 22
sheer 22
sizes 22
Zealand 22
drain 22
directors 22
amp@@ 22
01 22
Road 22
fostering 22
filling 22
argues 22
recipe 22
inject 22
varieties 22
proclamation 22
Sir 22
Bos 22
geographic 22
Greenland 22
technique 22
heating 22
acidification 22
strides 22
college 22
formidable 22
rhetorical 22
eggs 22
co-incineration 22
Nassauer 22
indulge 22
advisable 22
printed 22
abstention 22
replying 22
competencies 22
circum@@ 22
Madagascar 22
convened 22
CITES 22
Governing 22
form@@ 22
substitution 22
delegate 22
gun 22
intrinsic 22
flee 22
anchored 22
injury 22
notable 22
Turmes 22
grid 22
James 22
notorious 22
taboos 22
guise 22
legitimise 22
on-@@ 22
succession 22
eEurope 22
We@@ 22
ali@@ 22
administer 22
apparatus 22
retention 22
handing 22
Moldavia 22
acquiring 22
aries 22
intensification 22
interactive 22
entities 22
provoked 22
Atkins 22
counter-productive 22
tenth 22
diversification 22
wearing 22
declining 22
thorny 22
underpinning 22
arrears 22
undue 22
start-up 22
City 22
hooligans 22
Rwanda 22
Chichester 22
fies 22
Florence 22
escaped 22
confiscation 22
Camp 22
frightened 22
Tannock 22
Souchet 22
Prague 22
Torres 22
Ariel 22
Rothe 22
Moreira 22
Heading 22
Position 22
unilateralism 22
inadmissible 21
livelihood 21
G 21
notify 21
lodge 21
Director 21
first-class 21
280 21
coastline 21
testify 21
inspected 21
de-@@ 21
manages 21
deleting 21
suspects 21
harmonious 21
omissions 21
gift 21
tide 21
V 21
safest 21
releasing 21
outs 21
underground 21
aring 21
wondered 21
temperature 21
fullest 21
Committees 21
evolve 21
anonymous 21
Lama 21
gre@@ 21
perverse 21
workload 21
blamed 21
copies 21
terribly 21
Ruiz 21
needless 21
Presidencies 21
Drugs 21
mercy 21
endemic 21
sustaining 21
Ceyhun 21
Serb 21
invites 21
brokers 21
elite 21
satisfying 21
cha@@ 21
orientated 21
bing 21
fascist 21
stems 21
barbarism 21
grouping 21
petty 21
o-@@ 21
differentiate 21
crystal 21
Left/Nordic 21
federalists 21
crux 21
widened 21
conditionality 21
74 21
pped 21
intransigence 21
complements 21
ances 21
complaining 21
lic 21
assumptions 21
grandchildren 21
framing 21
litigation 21
triumph 21
embarking 21
arrogance 21
El@@ 21
stark 21
arm@@ 21
Har@@ 21
across-the-board 21
protesting 21
comprise 21
liaison 21
offshore 21
picking 21
encompasses 21
chickens 21
scrapie 21
Important 21
unrelated 21
dozen 21
blue 21
tering 21
compensatory 21
successor 21
no-@@ 21
originate 21
undeniably 21
,@@ 21
joy 21
ever-@@ 21
print 21
arts 21
all@@ 21
Sch@@ 21
Particularly 21
least-developed 21
leisure 21
misguided 21
precaution 21
crude 21
Hundreds 21
testimony 21
cabinet 21
deems 21
hole 21
restraints 21
continual 21
reward 21
breadth 21
Increasing 21
passports 21
Innovation 21
flaws 21
conf@@ 21
Fre@@ 21
acceleration 21
Ho@@ 21
bar 21
distribute 21
Annan 21
mystery 21
sel@@ 21
accessing 21
exploring 21
married 21
ple 21
accumulation 21
fulfilment 21
Chris 21
Head 21
hardship 21
Nowhere 21
cake 21
tendencies 21
star@@ 21
initiating 21
wreck 21
loyalty 21
packets 21
contention 21
alarmed 21
boy 21
Erasmus 21
ruthless 21
1970s 21
verbatim 21
ham@@ 21
Ta@@ 21
casualties 21
Schnellhardt 21
malnutrition 21
downwards 21
gg@@ 21
vitality 21
witnesses 21
broadened 21
accuse 21
ming 21
Ab@@ 21
three-year 21
herd 21
Different 21
Read 21
Hieronymi 21
suspicious 21
pet 21
hits 21
inflicted 21
signatories 21
doubling 21
hushkits 21
depart 21
Marseilles 21
ie 21
noting 21
substantiated 21
Liese 21
forbidden 21
eastwards 21
Reports 21
Coal 21
transforming 21
bri@@ 21
conspicuous 21
Simply 21
boards 21
HADEP 21
Goodwill 21
sticking 21
midnight 21
equals 21
Long 21
starving 21
shortest 21
suits 21
anti-Semitism 21
mediator 21
brutality 21
four-@@ 21
weighting 21
Gahrton 21
Zimbabwean 21
sat 21
formerly 21
TEN 21
enhances 21
Wallis 21
Around 21
verified 21
regionalisation 21
upwards 21
reintroduced 21
inherited 21
addiction 21
annexed 21
excludes 21
transparently 21
disrupters 21
destined 21
Whenever 21
Temelin 21
food-@@ 21
overshadowed 21
motorways 21
Fraisse 21
rewards 21
treatments 21
Burundi 21
biomass 21
Parish 21
cruelty 21
Porto 21
Alegre 21
Ayuso 21
Cornillet 21
Yasser 21
unsolicited 21
ceasefire 21
electronically 20
blessing 20
grew 20
accommodated 20
debatable 20
fierce 20
presidents 20
underdevelopment 20
ninth 20
displaying 20
hull 20
unjustifiable 20
Or@@ 20
Kar@@ 20
champion 20
Wiebenga 20
Cor@@ 20
prosecutors 20
examinations 20
revisit 20
hand@@ 20
Cu@@ 20
slick 20
utter 20
sol@@ 20
inferior 20
prey 20
master 20
conceivable 20
manpower 20
catastrophes 20
gging 20
shoulders 20
reinstate 20
reintroduce 20
authoritative 20
residues 20
south-eastern 20
exile 20
sympathise 20
satisfies 20
announcements 20
occupies 20
delegated 20
hanging 20
lobbies 20
tempted 20
materialise 20
Libya 20
echoed 20
overlap 20
elaborate 20
intermediate 20
Fishing 20
cleansing 20
stabilising 20
fluctuations 20
73 20
az@@ 20
literature 20
spectacle 20
neo-@@ 20
shaken 20
Ever 20
warmest 20
fortnight 20
eless 20
unease 20
Pillar 20
contributor 20
searching 20
Mira 20
eagerly 20
delight 20
compel 20
plan@@ 20
yards 20
ecologically 20
fastest 20
bloc 20
decidedly 20
BBC 20
renders 20
inconceivable 20
expose 20
gangs 20
scores 20
cement 20
restructured 20
a; 20
UEN 20
wary 20
efficacy 20
unbalanced 20
framed 20
20th 20
desert 20
bread 20
originates 20
constituencies 20
restate 20
habitat 20
underdeveloped 20
Roman 20
inalienable 20
sounding 20
reproduction 20
arbitration 20
obey 20
duplicate 20
versa 20
Corrie 20
correcting 20
interrupt 20
inde@@ 20
determines 20
ay 20
portion 20
So@@ 20
admitting 20
guess 20
suspending 20
survived 20
True 20
impending 20
phone 20
video 20
Relating 20
antly 20
Developing 20
Company 20
anticipation 20
rough 20
Chechens 20
horrors 20
densely 20
measurement 20
Bu@@ 20
scrutinised 20
morally 20
alas 20
virtues 20
dispense 20
landing 20
ology 20
childcare 20
degradation 20
calculate 20
brain 20
stayed 20
lands 20
truck 20
discusses 20
descriptions 20
realm 20
nail 20
unpunished 20
Setting 20
much-needed 20
Discrimination 20
antisemitism 20
sup@@ 20
elect 20
Messrs 20
Whoever 20
Mollar 20
rac@@ 20
· 20
enduring 20
celebration 20
commenced 20
accompli 20
Petersen 20
spends 20
hear@@ 20
sing@@ 20
harassed 20
missiles 20
Sim@@ 20
paramilitary 20
ra 20
shoot 20
maladministration 20
sted 20
shifted 20
stakes 20
wear 20
att@@ 20
hasty 20
Hu@@ 20
Boetticher 20
constituted 20
bra@@ 20
facilitates 20
childhood 20
prestige 20
non-proliferation 20
Politicians 20
photographs 20
opponent 20
supervised 20
read@@ 20
Rühle 20
Leonardo 20
Pomés 20
Rod 20
shield 20
generously 20
Napoletano 20
outrage 20
UMTS 20
judicious 20
Beysen 20
contemporary 20
paralysed 20
Senegal 20
Bor@@ 20
roof 20
proceeded 20
Life 20
cultivated 20
set-aside 20
rushed 20
hypothetical 20
tives 20
don@@ 20
rence 20
Danes 20
inflationary 20
versus 20
Space 20
renowned 20
sincerity 20
Out 20
unjust 20
tin@@ 20
therapy 20
formulae 20
str@@ 20
Major 20
sts 20
unspent 20
ians 20
telecoms 20
Salvador 20
Dimension 20
Enterprises 20
Paciotti 20
Cypriots 20
Catalonia 20
resisted 20
destabilising 20
disappoint 20
ery 20
heights 20
Menrad 20
Eurobarometer 20
Naval 20
lawmaking 20
amnesty 20
Blanc 20
Ibrahim 20
ICANN 20
country-of-origin 20
cannibalism 20
pilotage 20
rating 19
periodic 19
5-@@ 19
pon@@ 19
anti-fraud 19
league 19
row 19
economical 19
downturn 19
seldom 19
fauna 19
Ne@@ 19
Networks 19
unusually 19
stuff 19
FVO 19
dumped 19
waive 19
strands 19
bother 19
entitlement 19
Changes 19
concede 19
upward 19
Might 19
transaction 19
instrumental 19
beat 19
accuracy 19
campaigning 19
outcomes 19
pri@@ 19
ban@@ 19
bolster 19
Bal@@ 19
sw@@ 19
fruition 19
direc@@ 19
Marinos 19
environment@@ 19
Gasòliba 19
boast 19
sequence 19
decency 19
liberalism 19
vulnerability 19
casting 19
prerogative 19
raison 19
spotlight 19
bio-@@ 19
babies 19
reconsidered 19
Must 19
reside 19
deteriorate 19
distinctive 19
dra@@ 19
affords 19
pollute 19
insurmountable 19
quantified 19
tre@@ 19
automobile 19
92/@@ 19
comparing 19
mixture 19
populism 19
foolish 19
basin 19
optimal 19
jargon 19
veritable 19
contacted 19
discovery 19
diagnosis 19
unwieldy 19
ion@@ 19
superstate 19
Nearly 19
elementary 19
triangle 19
tenacity 19
powder 19
gs 19
fool 19
sits 19
Network 19
formalities 19
sively 19
pipeline 19
Schierhuber 19
destabilise 19
north-west 19
paint 19
usage 19
anti-European 19
exerting 19
predecessors 19
gh@@ 19
Peninsula 19
injustices 19
endanger 19
108 19
variations 19
district 19
admirable 19
counterpart 19
rationalise 19
lock 19
yed 19
dic@@ 19
dies 19
defeated 19
Specific 19
Democracies 19
comfortable 19
situated 19
blackmail 19
ot@@ 19
Tribunal 19
disciplined 19
typically 19
finalise 19
broker 19
ward 19
internation@@ 19
justifiably 19
counterfeit 19
Coelho 19
portfolio 19
Individual 19
attained 19
clearest 19
architecture 19
Few 19
acutely 19
squ@@ 19
obliges 19
unconditionally 19
Kofi 19
Ri@@ 19
wiped 19
corridors 19
diplomas 19
Tajani 19
Markov 19
Holland 19
hate 19
recruit 19
Qu@@ 19
ambassador 19
nutshell 19
ger 19
WEU 19
Unit 19
touching 19
abe@@ 19
laurels 19
complications 19
disparity 19
Piétrasanta 19
simplest 19
exacerbate 19
Po@@ 19
long-@@ 19
concealed 19
finishing 19
Rotterdam 19
preceding 19
homeland 19
destiny 19
Normally 19
Du@@ 19
implements 19
arable 19
bin 19
celebrating 19
Serious 19
Half 19
Coming 19
Hernández 19
lights 19
bovine 19
avoids 19
suppressed 19
dictator 19
starvation 19
ore 19
South-East 19
elephant 19
elephants 19
Zana 19
pool 19
derives 19
frozen 19
alities 19
fished 19
corrective 19
confronting 19
rejoice 19
patented 19
invented 19
stolen 19
imp@@ 19
Rapporteur 19
2/@@ 19
rooms 19
expectancy 19
futile 19
budgeted 19
lion 19
ther@@ 19
super@@ 19
persistence 19
ow@@ 19
groundwork 19
83 19
relieve 19
desperation 19
deter 19
twin 19
desirability 19
Plooij-van 19
191 19
ang 19
concession 19
school@@ 19
Mayer 19
Pi@@ 19
bankrupt 19
feedback 19
Newton 19
recess 19
Organised 19
ba@@ 19
uniting 19
abduction 19
tru@@ 19
juvenile 19
giant 19
Tra@@ 19
Mombaur 19
frontloading 19
intervals 19
Redondo 19
Holte 19
cease-fire 19
absorption 19
Ha@@ 19
Israeli-Palestinian 19
consume 19
scaffolding 19
Guidelines 19
interconnection 19
remunerated 19
Slovak 19
Lisi 19
facilitation 19
Sun 19
voyage 19
ir 19
column 19
Olsson 19
Jensen 19
Eurogroup 19
Hermange 19
fishmeal 19
nitrofen 19
time-consuming 18
dispose 18
bills 18
urs 18
ü@@ 18
secular 18
peak 18
compromising 18
Advisory 18
Royal 18
aligned 18
Rapkay 18
acquisitions 18
wayside 18
managerial 18
marketplace 18
criticises 18
bottom-up 18
12@@ 18
Pe@@ 18
remedied 18
beaches 18
crews 18
unbridled 18
Beyond 18
enquiries 18
sorrow 18
ades 18
enti@@ 18
ley 18
apology 18
dilution 18
withholding 18
periphery 18
dedicate 18
Dalai 18
Humanitarian 18
alleviation 18
retire 18
rendered 18
concentrates 18
unused 18
compelling 18
scrupulously 18
thrive 18
Directorates-General 18
compile 18
professionalism 18
ces 18
pleasing 18
parent 18
motto 18
ate@@ 18
hor@@ 18
accompany 18
Char@@ 18
segment 18
externally 18
Román 18
connect 18
evasion 18
G7 18
tion-@@ 18
colour 18
prejudices 18
al; 18
appalled 18
jeopardises 18
bind 18
Guterres 18
provinces 18
gy 18
stimulated 18
synonymous 18
crossroads 18
prejudge 18
libraries 18
recycle 18
relies 18
burn 18
clarifies 18
E-@@ 18
verbal 18
spontaneous 18
monster 18
succeeds 18
employability 18
neglecting 18
Efforts 18
enhancement 18
belts 18
distinguishing 18
reaffirms 18
analytical 18
vehemently 18
ticket 18
demarcation 18
enlightened 18
spokesperson 18
packet 18
orderly 18
Fortress 18
first-hand 18
Front 18
additive 18
contested 18
re-established 18
husbandry 18
greed 18
gen 18
Berthu 18
Mitrovica 18
ological 18
characterise 18
seminars 18
cord 18
Subsequently 18
Andalusia 18
viewpoints 18
fascinating 18
geography 18
Pat@@ 18
bes 18
sceptics 18
rightful 18
modalities 18
30@@ 18
flourishing 18
Sub@@ 18
ana 18
wiser 18
universality 18
Falun 18
Gong 18
MPs 18
replaces 18
certainties 18
Similar 18
arrogant 18
eu 18
assemblies 18
Nigerian 18
humiliating 18
sensitivities 18
business@@ 18
mockery 18
high-risk 18
lobbyists 18
symbols 18
phones 18
presumption 18
abo@@ 18
sub-Saharan 18
Tanzania 18
essed 18
CO@@ 18
Ejido 18
mayor 18
guest 18
crossed 18
hindered 18
diamonds 18
weighed 18
multi-ethnic 18
ecosystem 18
exacerbating 18
upholding 18
win@@ 18
supplier 18
Radwan 18
grand@@ 18
á@@ 18
asserted 18
peace-keeping 18
Pierre 18
broach 18
ludicrous 18
appealed 18
helicopters 18
sacred 18
classical 18
streamline 18
draconian 18
harms 18
90/@@ 18
conserve 18
1975 18
short-@@ 18
supreme 18
manipulated 18
parity 18
possesses 18
zz@@ 18
ut@@ 18
í@@ 18
wil@@ 18
lever 18
unify 18
Mongolia 18
probability 18
on-line 18
ash 18
accomplish 18
fence 18
substitutes 18
mislead 18
ECHR 18
recalled 18
Can@@ 18
incinerators 18
purity 18
cheaply 18
ear@@ 18
on-the-spot 18
ple@@ 18
Kuwait 18
first-@@ 18
recalling 18
ishing 18
humiliation 18
devil 18
audience 18
Department 18
dishonest 18
practitioners 18
admission 18
Swiss 18
Ru@@ 18
orally 18
one-way 18
extinction 18
Maria 18
negotiator 18
accommodation 18
magnitude 18
inventions 18
ceases 18
boundary 18
manipulate 18
likelihood 18
lucky 18
correlation 18
identifiable 18
deception 18
Lund 18
Training 18
ard@@ 18
reproach 18
lax 18
questionnaire 18
Mis@@ 18
Business 18
anti-democratic 18
1960s 18
bi-regional 18
Miranda 18
jail 18
electors 18
adequacy 18
Bradbourn 18
bush 18
Summits 18
Conclusions 18
Venezuela 18
resigned 18
smile 18
candidacy 18
reunited 18
semi-@@ 18
tickets 18
pupils 18
broad-based 18
attracting 18
Niebler 18
purchases 18
liking 18
fraudulent 18
declined 18
processors 18
Dunn 18
frustrating 18
vine 18
haulage 18
MOX 18
withstand 18
lar@@ 18
Initially 18
deadly 18
satellites 18
sciences 18
ell@@ 18
NLD 18
fans 18
Sturdy 18
monoxide 18
Crime 18
Ben@@ 18
hazelnuts 18
Boumediene-Thiery 18
Ferri 18
killings 18
transporters 18
blatantly 18
EP@@ 18
Laskar 18
updates 18
om 18
levied 18
properties 18
ladders 18
Problems 18
Imagine 18
ment; 18
SAPARD 18
Hoff 18
overturn 18
assertions 18
trigger 18
Péry 18
Zagreb 18
Karlsson 18
Temporary 18
needlessly 18
non-vaccination 18
contraception 18
Korhola 18
GPS 18
Hulthén 18
decoupling 18
Mont 18
Enron 18
ARGO 18
HACCP 18
acquitted 17
40@@ 17
revolves 17
Effective 17
hinders 17
therein 17
fact-finding 17
cartels 17
corpus 17
sho@@ 17
5/@@ 17
ino 17
Twenty 17
rulers 17
second-@@ 17
inspect 17
sting 17
shores 17
EAGGF 17
preclude 17
well-intentioned 17
requisite 17
prescriptive 17
Ahern 17
directing 17
ture 17
optional 17
umbrella 17
anticipating 17
tour 17
exaggeration 17
ity-@@ 17
paved 17
Syrian 17
fluid 17
ud@@ 17
Programmes 17
capitals 17
terrifying 17
Behind 17
readmission 17
ICES 17
Kouchner 17
ity; 17
Round 17
tar@@ 17
murderers 17
ambassadors 17
ma 17
SP@@ 17
Madame 17
guilt 17
wolf 17
être 17
disguised 17
caring 17
explo@@ 17
Kaufmann 17
suitably 17
re-examined 17
discarded 17
ain@@ 17
Instance 17
contrasts 17
rumours 17
ei@@ 17
span 17
builds 17
ading 17
Approximately 17
noticeable 17
Improved 17
wordings 17
hysteria 17
paedophilia 17
impotence 17
Sound 17
contingency 17
ner 17
allocations 17
compounded 17
adaptability 17
Do@@ 17
pr@@ 17
Attention 17
arduous 17
wor@@ 17
policy; 17
NA@@ 17
1-@@ 17
unifying 17
Seen 17
protested 17
inspiring 17
ambiguities 17
escaping 17
ancy 17
Lu@@ 17
consciences 17
bonemeal 17
dust 17
No-one 17
alistic 17
majorities 17
Te@@ 17
chronic 17
Kosovars 17
lis@@ 17
bias 17
Ford 17
handicapped 17
waterways 17
78 17
deserved 17
notwithstanding 17
interconnected 17
humble 17
artistic 17
privatise 17
nineteenth 17
aggravated 17
Namibia 17
pluralist 17
Legislative 17
stars 17
leg@@ 17
eroded 17
sounded 17
surprisingly 17
ial 17
maps 17
redouble 17
branches 17
indefensible 17
ption 17
prescription 17
tran@@ 17
European-@@ 17
1/@@ 17
oneself 17
wounds 17
ast 17
cheque 17
watched 17
beaten 17
waging 17
dragging 17
pres@@ 17
emotion 17
screens 17
counteract 17
egg 17
ant@@ 17
staggering 17
unregulated 17
prof@@ 17
surprises 17
operative 17
appetite 17
sparsely 17
assassination 17
Big 17
iling 17
ze 17
consisting 17
summed 17
93/@@ 17
Honduras 17
kg 17
longer-term 17
unitary 17
reign 17
exporters 17
prescribes 17
make-up 17
succeeding 17
disseminate 17
organisers 17
ousness 17
refined 17
heartily 17
persists 17
fication 17
clouds 17
pigmeat 17
beans 17
ils 17
organs 17
enshrine 17
Bulgarian 17
NOx 17
measurements 17
salient 17
realistically 17
releases 17
re-examine 17
ros@@ 17
Torture 17
sive 17
Asylum 17
ju@@ 17
guards 17
bells 17
dictated 17
ambient 17
measurable 17
awareness-raising 17
Flemming 17
intra-Community 17
motivate 17
B5-0@@ 17
gri@@ 17
packed 17
despicable 17
mouths 17
confiscated 17
guerrillas 17
Italians 17
Compared 17
cal@@ 17
Consider 17
disagreements 17
reopening 17
plac@@ 17
architects 17
Vidal-Quadras 17
tricky 17
Schuman 17
provisionally 17
waived 17
discretionary 17
enacted 17
colours 17
lan@@ 17
Fo@@ 17
doses 17
originated 17
civic 17
Section 17
Guarantee 17
old-fashioned 17
bureau 17
briefing 17
pipe 17
Togo 17
af@@ 17
Leyla 17
man-made 17
resistant 17
tionally 17
bonus 17
planes 17
converting 17
cynicism 17
defuse 17
taxed 17
carte 17
Verts/ALE 17
five-@@ 17
Eight 17
Catalan 17
sham 17
justifying 17
Andreasen 17
brother 17
allay 17
dogmatic 17
surveys 17
discouraged 17
uprooted 17
stan@@ 17
ce; 17
prosecuting 17
admits 17
confidence-building 17
dispel 17
creditors 17
flo@@ 17
present-day 17
institutes 17
Ps 17
traces 17
cro@@ 17
ach 17
separating 17
snuff 17
giants 17
entrants 17
deputy 17
healthier 17
holistic 17
Vatican 17
discovering 17
Herzog 17
birthday 17
Giving 17
madness 17
money-laundering 17
lacked 17
ills 17
carcasses 17
drag 17
discriminating 17
Daphne 17
custom 17
owed 17
Product 17
rein 17
advantageous 17
decibels 17
Iron 17
Lithuanian 17
Tempus 17
dreamt 17
militant 17
1951 17
copying 17
COP6 17
evils 17
consuming 17
collateral 17
cabin 17
unauthorised 17
aci@@ 17
Star 17
Turchi 17
Governance 17
Musharraf 17
adoptions 17
Bin 17
Giscard 17
Estaing 17
CSR 17
adventitious 17
infancy 16
dismantled 16
Jonckheer 16
in-house 16
repealed 16
Frankly 16
Illegal 16
mild 16
Works 16
bird 16
havoc 16
filed 16
sec@@ 16
fif@@ 16
dismissal 16
Brittany 16
thick 16
ky 16
esteemed 16
Fl@@ 16
180 16
yl@@ 16
cycles 16
utilise 16
finalising 16
centrally 16
Net 16
desk 16
transboundary 16
Cas@@ 16
rap@@ 16
steering 16
wonders 16
incur 16
nepotism 16
morality 16
rotation 16
diametrically 16
Standards 16
stretched 16
convening 16
above-mentioned 16
ati@@ 16
democrat 16
ards 16
provocative 16
EEA 16
ened 16
denies 16
oldest 16
embraces 16
commonplace 16
cri@@ 16
till 16
denounced 16
springs 16
Stenzel 16
aroused 16
calculating 16
arbitrarily 16
hat 16
bargaining 16
unsuitable 16
bureaucrats 16
invitations 16
complemented 16
cultivate 16
# 16
acti@@ 16
invent 16
yielded 16
mitigate 16
ef@@ 16
ane 16
Providing 16
laborious 16
wound 16
vanguard 16
settling 16
basing 16
mayors 16
intact 16
EM@@ 16
deprivation 16
loo@@ 16
Nor@@ 16
122 16
interrupted 16
Tri@@ 16
dent 16
cour@@ 16
anxieties 16
streamlined 16
battles 16
consequent 16
ultra-@@ 16
accommodating 16
Subsidiarity 16
characterises 16
yearly 16
licensed 16
promoters 16
antibiotic 16
ironic 16
bag 16
end-@@ 16
90/220 16
wellbeing 16
misled 16
speeds 16
unfavourable 16
valley 16
dri@@ 16
Flanders 16
fun 16
time-@@ 16
Ste@@ 16
teen 16
arranging 16
historically 16
diver@@ 16
Iberian 16
devoting 16
seasonal 16
76 16
Natura 16
resembles 16
nationalists 16
entertainment 16
Air@@ 16
printing 16
dynamics 16
undertakes 16
bud 16
medication 16
thought-out 16
sm@@ 16
fall@@ 16
inextricably 16
Protestant 16
environments 16
gestures 16
Vice-Presidents 16
VI 16
behaved 16
republic 16
quasi-@@ 16
tackles 16
hal@@ 16
Additional 16
head@@ 16
innocence 16
verifiable 16
Whereas 16
phrases 16
Conventions 16
kets 16
Nicole 16
relocation 16
domination 16
acquainted 16
husband 16
conceded 16
tful 16
Ren@@ 16
de-mining 16
ecosystems 16
polluter-pays 16
Ph@@ 16
450 16
Direct 16
Bavaria 16
energetic 16
fer@@ 16
newcomers 16
ron@@ 16
disproportionately 16
post@@ 16
ail 16
enlargements 16
don 16
rift 16
heaven 16
aftermath 16
tted 16
Gi@@ 16
quantifiable 16
salmon 16
tissue 16
ering 16
fervent 16
chasm 16
refrained 16
km 16
trivial 16
hotel 16
240 16
Tax 16
Gröner 16
da@@ 16
lags 16
e-business 16
ele@@ 16
adventure 16
ous@@ 16
deficient 16
non-binding 16
inflexible 16
Piecyk 16
brakes 16
Bri@@ 16
od@@ 16
cheating 16
cream 16
tenor 16
3/@@ 16
misconception 16
petitioners 16
beating 16
Thorning-Schmidt 16
ISO 16
poison 16
burned 16
lung 16
dangerously 16
abortions 16
incoherent 16
Turks 16
arsenal 16
ries 16
defends 16
trampled 16
tic@@ 16
Deputy 16
Bill 16
irritation 16
memories 16
DAPHNE 16
shortened 16
commercially 16
Ferrer 16
Initiatives 16
suffrage 16
variable 16
troubled 16
Mention 16
liberation 16
mobilisation 16
Andean 16
fil@@ 16
prolong 16
setback 16
sensibly 16
scientist 16
ners 16
pessimism 16
eminently 16
dismiss 16
gener@@ 16
Vander 16
Taelen 16
im 16
ths 16
ethically 16
Victims 16
cutbacks 16
variation 16
emergencies 16
payer 16
roaming 16
Essen 16
état 16
solemn 16
reportedly 16
Akin 16
PKK 16
downs 16
instructed 16
sof@@ 16
spelled 16
consum@@ 16
er; 16
disregarding 16
disservice 16
Using 16
proposition 16
migrant 16
kin@@ 16
Canaries 16
extremes 16
detainees 16
durable 16
illogical 16
equates 16
bottleneck 16
aeroplanes 16
iled 16
Er@@ 16
Pre@@ 16
decisiveness 16
divergence 16
v 16
paving 16
re-tabled 16
13@@ 16
plantations 16
careers 16
dol@@ 16
Commonwealth 16
Mandela 16
injuries 16
zed 16
STOA 16
entrust 16
115 16
pertains 16
rebel 16
Malaysia 16
junta 16
depletion 16
transcend 16
mented 16
disrupt 16
catalytic 16
mounted 16
W 16
paths 16
Nicaragua 16
Mitch 16
Pelinka 16
Sudre 16
EMCDDA 16
SAB 16
91/@@ 16
intake 16
Essentially 16
Sanders-ten 16
unsolved 16
Judicial 16
Seoul 16
ty-five 16
censorship 16
unmarried 16
notions 16
broadening 16
escalating 16
residue 16
Esteve 16
Ignalina 16
enriched 16
mildly 16
299 16
exceeding 16
nitrogen 16
insider 16
Basel 16
Conflict 16
chooses 16
Presevo 16
Poignant 16
Islam@@ 16
vertebral 16
HIV/AIDS 16
pre-emptive 16
worsening 16
DNA 16
call-back 16
praesidium 16
Pasko 16
lowered 15
Subsidies 15
gel 15
entrepreneur 15
dered 15
communitisation 15
repayment 15
impatient 15
incompetence 15
euphemism 15
contravention 15
onus 15
ums 15
single-@@ 15
law@@ 15
capture 15
transcends 15
protracted 15
broadest 15
ace 15
3-@@ 15
Länder 15
ruined 15
Bra@@ 15
Fin@@ 15
sink 15
lim@@ 15
superficial 15
peninsula 15
sail 15
Val@@ 15
shellfish 15
selecting 15
tended 15
comprehend 15
Greeks 15
chairs 15
hallmark 15
rationally 15
oun@@ 15
externalisation 15
cart 15
buck 15
U-turn 15
backbone 15
Barak 15
tag 15
Gama 15
insulting 15
midday 15
rally 15
well-informed 15
bids 15
reiterating 15
dire 15
Bologna 15
conten@@ 15
quarrel 15
Martens 15
tability 15
electing 15
indebted 15
Hitler 15
unites 15
Events 15
high@@ 15
crucially 15
residual 15
retains 15
tional 15
tranche 15
Promoting 15
125 15
unquestionably 15
Community-wide 15
pot 15
gues 15
blatant 15
state-@@ 15
fifty-@@ 15
rubbish 15
unworkable 15
beware 15
plastics 15
tons 15
mindful 15
fix 15
posted 15
Jud@@ 15
Gr@@ 15
anti-Semitic 15
educate 15
Pinochet 15
axis 15
lifetime 15
Radical 15
Jean 15
irs 15
strip 15
Europe@@ 15
manifest 15
celebrated 15
solemnly 15
lent 15
indisputable 15
ight 15
4/@@ 15
Animals 15
qui@@ 15
twenty-@@ 15
ty@@ 15
dam 15
Me@@ 15
tack 15
tragically 15
hydro@@ 15
flat 15
furniture 15
10@@ 15
repeats 15
dness 15
databases 15
hopeless 15
bury 15
watchword 15
emigration 15
OAU 15
thereafter 15
lic@@ 15
xes 15
ist@@ 15
gn@@ 15
adherence 15
intimate 15
jump 15
pathetic 15
manifestations 15
earnings 15
illing 15
peace-@@ 15
ble@@ 15
incalculable 15
1984 15
ger@@ 15
matic 15
devi@@ 15
open-@@ 15
Mutual 15
disturb 15
Zambia 15
cloud 15
Uganda 15
tiveness 15
saddened 15
sian 15
complicity 15
Outside 15
fraction 15
band 15
campaigners 15
prisoner 15
eleventh 15
loved 15
far-sighted 15
implicated 15
lifestyle 15
logistics 15
cable 15
vice-president 15
1981 15
assassinated 15
stirred 15
Vo@@ 15
ishes 15
hon@@ 15
ISA 15
mesh 15
cle@@ 15
tta 15
long-awaited 15
Technology 15
dogma 15
talent 15
forged 15
quieter 15
non-member 15
outweigh 15
Sha@@ 15
weekly 15
ing-up 15
ISPA 15
ures 15
popularity 15
courtesy 15
ples 15
jo@@ 15
euphoria 15
raging 15
eth@@ 15
Carlotti 15
Clegg 15
Under@@ 15
tunnels 15
long-distance 15
pos@@ 15
incorrectly 15
tribunals 15
spo@@ 15
slave 15
disseminating 15
stature 15
170 15
fascism 15
alibi 15
flag@@ 15
understandably 15
STOP 15
announcing 15
swallow 15
Westendorp 15
teaches 15
accelerating 15
lit@@ 15
warring 15
Mary 15
lethal 15
volatile 15
fanatical 15
defenders 15
cereal 15
pul@@ 15
hitting 15
humiliated 15
red@@ 15
star 15
Hon@@ 15
chalk 15
allowance 15
presume 15
experimentation 15
firmer 15
subjective 15
align 15
allergies 15
addictive 15
auditor 15
ure 15
clear-cut 15
plutonium 15
Mc@@ 15
disbursed 15
impulse 15
invoices 15
take-up 15
fare 15
antibiotic-resistant 15
Consideration 15
SOS 15
lifts 15
pill 15
ined 15
shipment 15
technicians 15
lu@@ 15
praises 15
bond 15
ly; 15
Learning 15
priest 15
Taiwanese 15
polling 15
eventual 15
Böhm 15
Hurricane 15
stipulating 15
modesty 15
reviews 15
intermodality 15
tin 15
invariably 15
galleries 15
combines 15
custom@@ 15
SADC 15
excitement 15
rest@@ 15
alignment 15
frames 15
crash 15
differentials 15
visibly 15
cheques 15
tered 15
Sup@@ 15
uncontrollable 15
devotes 15
sunk 15
shi@@ 15
Gradin 15
discouraging 15
coffee 15
transpired 15
asthma 15
hot@@ 15
1976 15
transmit 15
Azerbaijan 15
mar 15
energetically 15
anti-terrorism 15
our@@ 15
2013 15
bars 15
dignified 15
pro-European 15
cowardice 15
Asia-Europe 15
smugglers 15
inserted 15
Virrankoski 15
orphan 15
curricula 15
implied 15
athletes 15
Mi@@ 15
carrot 15
irresponsibly 15
sorely 15
modal 15
submarines 15
signatory 15
deconcentration 15
affirmed 15
guests 15
shelf 15
Anti-Doping 15
Pastrana 15
pedestrians 15
Cold 15
Warsaw 15
co-legislator 15
tim@@ 15
trades 15
sinks 15
Valley 15
here; 15
horrible 15
inter-institutional 15
girl 15
pedestrian 15
Ramallah 15
online 15
Fox 15
Securities 15
determinants 15
ferrets 15
attestation 15
03@@ 15
Lukashenko 15
Koukiadis 15
non-remunerated 15
goat 15
ITER 15
Guantanamo 15
Ni@@ 14
lament 14
uneven 14
hereby 14
empowered 14
retro@@ 14
Sixthly 14
prosper 14
irregularity 14
destroys 14
sizeable 14
constraint 14
private-sector 14
Reading 14
spells 14
accustomed 14
97/@@ 14
flaw 14
Total 14
irresponsibility 14
umpteenth 14
1967 14
Coast 14
EDD 14
cost-effectiveness 14
flora 14
fal@@ 14
sister 14
haven 14
recurrence 14
Franz 14
FIFG 14
immoral 14
Permit 14
arrives 14
sank 14
sludge 14
priori 14
Putting 14
Gender 14
uni@@ 14
Back 14
Perea 14
Account 14
plethora 14
depriving 14
inadequately 14
mooted 14
corners 14
colonialism 14
receipt 14
envelope 14
attracts 14
ke-@@ 14
manifestation 14
Désir 14
nineties 14
bles 14
impede 14
tan@@ 14
deep-seated 14
mat@@ 14
sweep 14
Sal@@ 14
ride 14
rushing 14
manifesto 14
embarrassed 14
tyranny 14
fr@@ 14
co-rapporteur 14
banner 14
blockade 14
daring 14
warlords 14
infrastructural 14
stays 14
pray 14
disposing 14
assembled 14
370 14
314 14
tal@@ 14
Breyer 14
thread 14
Rel@@ 14
Thir@@ 14
iness 14
flames 14
unwarranted 14
ideologies 14
and-@@ 14
reasoned 14
radicals 14
interregional 14
ME@@ 14
Manchester 14
regeneration 14
Over@@ 14
eco@@ 14
self-sufficient 14
Ob@@ 14
vel@@ 14
fingers 14
Dell 14
mel@@ 14
ese 14
cen@@ 14
obsession 14
backward 14
sy 14
por@@ 14
sal@@ 14
fork 14
Auroi 14
jurisprudence 14
facets 14
altar 14
ocean 14
polluters 14
upstream 14
descendants 14
Financing 14
tense 14
hostilities 14
handicap 14
Wil@@ 14
ceremony 14
sewage 14
whisky 14
converge 14
hy@@ 14
nitrates 14
obstructing 14
84 14
shifts 14
walking 14
retired 14
cas@@ 14
artist 14
two-year 14
north-south 14
00 14
stifle 14
preach 14
reflections 14
upgraded 14
practising 14
timescale 14
life-@@ 14
complicating 14
acious 14
inviolable 14
ences 14
smart 14
aegis 14
akin 14
Gran@@ 14
tness 14
severity 14
han@@ 14
nationalities 14
public-sector 14
culminated 14
ted; 14
Mauritius 14
massively 14
wretched 14
ski 14
sen 14
liabilities 14
convene 14
CA@@ 14
stipulations 14
FO@@ 14
irregular 14
gers 14
coloured 14
breached 14
symptomatic 14
invisible 14
earning 14
Mayor 14
Pristina 14
ain 14
reintegration 14
amiss 14
Radio 14
veil 14
Kremlin 14
poisoning 14
fertile 14
loads 14
outlets 14
int@@ 14
paperwork 14
praiseworthy 14
accomplices 14
warfare 14
Bel@@ 14
sidelines 14
assistant 14
vation 14
absorbed 14
spreads 14
94/@@ 14
spr@@ 14
participates 14
oils 14
discards 14
sun@@ 14
Ca@@ 14
shore 14
ramifications 14
bare 14
Morgantini 14
achieves 14
indictment 14
viewing 14
string 14
well-functioning 14
exporter 14
Electronic 14
Martín 14
Waste 14
parliamentarian 14
multitude 14
interdependence 14
codification 14
jungle 14
scored 14
oilseed 14
wholesale 14
chest 14
manifestly 14
Item 14
& 14
Uruguay 14
subtle 14
eco-label 14
fulness 14
container 14
sampling 14
sample 14
technologically 14
incinerated 14
tooth 14
sights 14
pulled 14
Domestic 14
well-considered 14
resorting 14
Milan 14
hostility 14
erroneous 14
deviate 14
ement 14
dissidents 14
fuss 14
Hedkvist 14
bite 14
bench 14
forging 14
atomic 14
gic 14
immensely 14
liber@@ 14
overload 14
aching 14
deserving 14
hijacked 14
dictatorial 14
classify 14
lunchtime 14
enact 14
anarchy 14
Zimmerling 14
legumes 14
overlapping 14
sponsored 14
relaunch 14
anim@@ 14
-European 14
Tamil 14
ECPAT 14
of@@ 14
telecom 14
Adam 14
crept 14
ved 14
sexually 14
genome 14
Sil@@ 14
termination 14
divorce 14
optimise 14
ene 14
oxide 14
yardsticks 14
invoicing 14
Improving 14
hurt 14
well-defined 14
cut-off 14
peer 14
begs 14
Dakar 14
beset 14
miracles 14
supervising 14
Arvidsson 14
fire@@ 14
absurdity 14
Gen@@ 14
bore 14
rearing 14
campaigned 14
fully-fledged 14
simplicity 14
essentials 14
censure 14
off-@@ 14
Eur@@ 14
trick 14
hardware 14
assumes 14
stagnation 14
AS 14
encountering 14
Frankfurt 14
torn 14
Madeira 14
inherently 14
powerlessness 14
bodes 14
freeing 14
casts 14
bothered 14
evade 14
ack 14
hurricane 14
10-@@ 14
turbulent 14
Iceland 14
slot 14
advertised 14
competitor 14
dom 14
m-@@ 14
worsened 14
Cross-border 14
communism 14
macro-financial 14
theft 14
Mauro 14
Rodríguez 14
pre-empt 14
Protecting 14
objectivity 14
spongiform 14
empire 14
Luckily 14
inspectorate 14
superiority 14
warranted 14
Muscardini 14
Guardian 14
disrupted 14
Poor 14
alis@@ 14
loop 14
Adopting 14
San@@ 14
Liberia 14
Ger@@ 14
ey@@ 14
sacrificing 14
Sa@@ 14
contracted 14
smo@@ 14
upcoming 14
importers 14
slower 14
Abkhazia 14
Gill 14
emit 14
unimportant 14
Majesty 14
infringed 14
plead 14
1000 14
co-existence 14
armies 14
produc@@ 14
Op@@ 14
tempting 14
Draft 14
slowing 14
Comple@@ 14
unreliable 14
conver@@ 14
Real 14
151 14
ce-@@ 14
ara 14
jams 14
owes 14
Speaker 14
Knesset 14
summarised 14
KEDO 14
statistic 14
Directorate 14
Tony 14
07@@ 14
hum@@ 14
resisting 14
pin@@ 14
Curtain 14
DA 14
opening-up 14
sadness 14
glimmer 14
bloodshed 14
Montfort 14
Jové 14
formality 14
autom@@ 14
MHP 14
solar 14
mixtures 14
seafarers 14
Patrie 14
Pat 14
susceptible 14
gender-specific 14
e-learning 14
Macau 14
eurozone 14
Avilés 14
anti-grass 14
timeshare 14
swill 14
transponders 14
Biological 14
Weapons 14
Royo 14
pentaBDE 14
Sangatte 14
non-road 14
Dawn 14
repairers 14
Alternatively 13
forgot 13
PR@@ 13
dawn 13
defender 13
counties 13
pursues 13
pinpoint 13
Expenditure 13
unleashed 13
disturbances 13
lessly 13
lenient 13
tire 13
cat 13
Power 13
regression 13
afflicted 13
hulls 13
first-rate 13
zero-@@ 13
entailed 13
ities 13
sters 13
reallocation 13
fellow-citizens 13
Martinez 13
unbelievable 13
implicitly 13
underpins 13
withhold 13
circumstance 13
Large 13
Task 13
bullets 13
bli@@ 13
overarching 13
conscientious 13
Institutions 13
elec@@ 13
inundated 13
strictest 13
auditors 13
specially 13
fax 13
nose 13
Antonio 13
Terrón 13
instigate 13
absorbing 13
je@@ 13
naked 13
Europa 13
Seixas 13
acceptability 13
predictability 13
wheels 13
brush 13
Jörg 13
cradle 13
upholds 13
Words 13
testi@@ 13
provincial 13
eness 13
atively 13
nuns 13
citizen@@ 13
focussing 13
tric@@ 13
minimalist 13
ear 13
leaf 13
Richard 13
popul@@ 13
compiling 13
Inglewood 13
bright 13
youngest 13
Gra@@ 13
person@@ 13
kindly 13
splitting 13
metal 13
phasing-out 13
inner 13
culprits 13
low@@ 13
spectre 13
untrue 13
experimental 13
doub@@ 13
idealistic 13
nonsensical 13
scattered 13
relieved 13
fores@@ 13
ther; 13
Permanent 13
saves 13
sies 13
creditable 13
policy-making 13
re-evaluation 13
mixing 13
outmoded 13
convenient 13
hint 13
foresees 13
disguise 13
obstruction 13
co 13
cancellations 13
masse 13
denouncing 13
loc@@ 13
depopulation 13
ineffectual 13
asing 13
genetically-modified 13
coccidiostats 13
cats 13
micro-@@ 13
scare 13
oceans 13
shorten 13
horrified 13
abundance 13
itation 13
cluster 13
Compensation 13
archives 13
unfinished 13
terrain 13
instructive 13
Marset 13
-year 13
1977 13
vengeance 13
850 13
entitlements 13
set-up 13
coexist 13
Herman 13
consciously 13
educating 13
stabilised 13
se-@@ 13
incoherence 13
terminate 13
coffers 13
worsen 13
leaks 13
les@@ 13
flouted 13
Wahid 13
Thailand 13
zonal 13
joins 13
1974 13
surviving 13
Elmar 13
Crimes 13
mile 13
keenly 13
soldier 13
knock 13
much-@@ 13
supremacy 13
spe@@ 13
Modern 13
antiquated 13
risk-@@ 13
ISD 13
elaborated 13
revival 13
sparked 13
stir 13
ina 13
dominating 13
eing 13
Parties 13
DR 13
earnest 13
fellow-@@ 13
hang 13
Land 13
oppressive 13
articulated 13
work@@ 13
Multi@@ 13
Post 13
ferry 13
Béguin 13
telephony 13
Oc@@ 13
ó@@ 13
Previously 13
wishful 13
non-aligned 13
impaired 13
instigated 13
ish@@ 13
tracks 13
ased 13
femin@@ 13
wield 13
homogenous 13
eng@@ 13
swept 13
straightaway 13
predictions 13
evidenced 13
activated 13
hangs 13
merchant 13
ventures 13
all-@@ 13
primacy 13
paradigm 13
ment-@@ 13
atten@@ 13
redistribute 13
blanket 13
top-level 13
Give 13
ligh@@ 13
abreast 13
formulations 13
inspectorates 13
fts 13
cater 13
dam@@ 13
loyal 13
Congratulations 13
setbacks 13
fat@@ 13
1973 13
Harmonisation 13
eaten 13
pseudo-@@ 13
IS@@ 13
Voggenhuber 13
Later 13
constitutionalisation 13
Point 13
avoidance 13
stand@@ 13
logists 13
engineers 13
Bl@@ 13
breathing 13
aces 13
post-war 13
ham 13
Nine 13
Ku@@ 13
occasional 13
ou 13
absorb 13
ah 13
comm@@ 13
institutionalised 13
influences 13
priests 13
underfoot 13
Christianity 13
Products 13
Pres@@ 13
fills 13
utopian 13
royal 13
co-financed 13
overwhelmingly 13
18@@ 13
eigh@@ 13
planting 13
senses 13
IA@@ 13
Coreper 13
resounding 13
és 13
unbundling 13
bosses 13
err@@ 13
pilots 13
TDI 13
devoid 13
Pol@@ 13
unhindered 13
Except 13
1972 13
Europe; 13
Notwithstanding 13
conservatives 13
Banks 13
black@@ 13
ini 13
ney 13
sim@@ 13
thr@@ 13
sanctuary 13
fraudsters 13
neatly 13
Upper 13
Valdivielso 13
alerted 13
Smith 13
reared 13
tip 13
Clercq 13
hunters 13
Creating 13
Interreg 13
pets 13
lighter 13
iles 13
homosexuality 13
graphic 13
um-@@ 13
documentary 13
ational 13
tenders 13
Documents 13
tt@@ 13
publications 13
fri@@ 13
plague 13
Strengthening 13
Cape 13
halving 13
well-established 13
translating 13
illiterate 13
benchmarks 13
lobbied 13
Insurance 13
vocation 13
Closer 13
Twenty-@@ 13
cohesive 13
double-@@ 13
terminology 13
adjourn 13
ions 13
Autonomous 13
ile 13
circulating 13
maturity 13
poured 13
Positive 13
frustrate 13
stimulates 13
generals 13
dominance 13
shar@@ 13
multilingual 13
-friendly 13
hemisphere 13
distract 13
antagonism 13
guerrilla 13
Tibetans 13
cy 13
haul 13
are@@ 13
euro-@@ 13
1950s 13
drift 13
Fe@@ 13
far-@@ 13
legislations 13
Lin@@ 13
removes 13
Little 13
Worse 13
imperialism 13
armaments 13
reactionary 13
championship 13
2000/@@ 13
fibre 13
grossly 13
ensue 13
Bringing 13
lead@@ 13
alls 13
broadcasts 13
adhering 13
culling 13
blueprint 13
ruminant 13
longest 13
clothes 13
Santa 13
2001/@@ 13
destinations 13
trade-@@ 13
polite 13
lets 13
residential 13
Lipietz 13
deliberation 13
Mark 13
timeliness 13
distorts 13
polar 13
ory 13
pression 13
Rest 13
inseparable 13
Politics 13
fic@@ 13
Establishing 13
enjoyable 13
atypical 13
dar@@ 13
Hel@@ 13
destabilisation 13
unfolding 13
Eigh@@ 13
nu@@ 13
disrupting 13
Fischer 13
consultants 13
lat@@ 13
pollutant 13
McMillan-Scott 13
oring 13
Emissions 13
CONNECT 13
Queen 13
crying 13
branded 13
Gerhard 13
installed 13
sized 13
-scale 13
Mastorakis 13
ya 13
prosecutions 13
flowing 13
weighty 13
lasts 13
blocs 13
non-violence 13
inward 13
austerity 13
Proce@@ 13
irrevocable 13
validated 13
firing 13
courageously 13
differential 13
complacent 13
emotive 13
purchased 13
hurdle 13
ute 13
ef 13
cyber 13
Lan@@ 13
metre 13
Biodiversity 13
Ko@@ 13
Lello 13
bleak 13
communicable 13
pharmaceuticals 13
administering 13
Sacconi 13
horses 13
sportsmen 13
all-embracing 13
walks 13
collec@@ 13
diminishing 13
reprisals 13
OPEC 13
bol@@ 13
plurality 13
candidature 13
ano 13
Slovakian 13
dilute 13
Open 13
RAL 13
Ages 13
abl@@ 13
Gbagbo 13
ECJ 13
senseless 13
textbooks 13
filter 13
Dayton 13
user-friendly 13
ished 13
Tokyo 13
p-@@ 13
winding 13
seamen 13
protesters 13
mills 13
ili@@ 13
Tsiakourmas 13
oversee 13
Kim 13
berg 13
baggage 13
Colin 13
García-Orcoyen 13
Congolese 13
Koran 13
seated 13
land-use 13
registry 13
rabies 13
16@@ 13
Maoist 13
Osama 13
OCTs 13
Durant 13
Sulawesi 13
Elsinore 13
143 12
reinstated 12
renovation 12
fro@@ 12
discredited 12
lers 12
European-wide 12
awaited 12
burg 12
avenue 12
impenetrable 12
squeezed 12
competi@@ 12
gigantic 12
upheaval 12
Maltese 12
delivers 12
flies 12
eration 12
intentional 12
Prices 12
muster 12
MAGPs 12
mechanical 12
thin@@ 12
cries 12
irreparable 12
flooded 12
auto@@ 12
Uzbekistan 12
trusted 12
squarely 12
conveying 12
lec@@ 12
t-related 12
duty-free 12
recasting 12
Arabs 12
Resolutions 12
chi@@ 12
itous 12
EC@@ 12
TAC 12
multiplied 12
knock-on 12
traded 12
streams 12
penalising 12
è@@ 12
burying 12
ounded 12
Nazi 12
Konrad 12
nal 12
Nazism 12
mini-@@ 12
Bro@@ 12
Onesta 12
public-@@ 12
easiest 12
aire 12
enough; 12
trademark 12
tirelessly 12
Previous 12
textiles 12
motorcycle 12
imperatives 12
glory 12
hic@@ 12
inging 12
respectful 12
Add 12
clu@@ 12
mercury 12
unprofitable 12
applicability 12
French-@@ 12
pit 12
Ur@@ 12
blown 12
goats 12
participatory 12
repudiate 12
ily 12
supermarkets 12
diversified 12
subordinated 12
va 12
attachment 12
fostered 12
bow 12
fol@@ 12
redundancy 12
mainstay 12
intending 12
inescapable 12
emo@@ 12
gist 12
disquiet 12
revealing 12
monstrous 12
lation 12
dot 12
deser@@ 12
Calais 12
intensifying 12
Nature 12
Considerable 12
Eventually 12
holes 12
strategically 12
strings 12
affront 12
maximise 12
dging 12
AR 12
Mafia 12
Campos 12
25@@ 12
excited 12
super-@@ 12
unamended 12
valuation 12
extr@@ 12
dia 12
diverted 12
cohe@@ 12
plundered 12
cho@@ 12
fertiliser 12
episode 12
deficiency 12
sanctity 12
confinement 12
acies 12
relegated 12
clout 12
omm@@ 12
height 12
About 12
stemming 12
curtain 12
tism 12
faithful 12
tions; 12
Pl@@ 12
ass 12
Budapest 12
y-based 12
Fer@@ 12
reluctantly 12
inspires 12
fluctu@@ 12
Strict 12
pooling 12
lighting 12
weighing 12
home-@@ 12
bonds 12
partition 12
Pietro 12
ail@@ 12
lav@@ 12
gged 12
economist 12
acking 12
di 12
savage 12
harbours 12
activist 12
relaxation 12
UNITA 12
Journalists 12
air-@@ 12
Liber@@ 12
vers 12
negligent 12
emphatic 12
gold 12
derisory 12
Irrespective 12
ely 12
Telecommunications 12
Isler 12
extract 12
ñ@@ 12
eager 12
fortune 12
hu@@ 12
intelligently 12
rogue 12
muddle 12
distinctly 12
leverage 12
Army 12
wells 12
competently 12
spouses 12
talents 12
san@@ 12
care@@ 12
apace 12
Exactly 12
bloo@@ 12
tious 12
bath 12
Fish 12
embody 12
fiddling 12
herring 12
mm 12
device 12
infringe 12
occupations 12
Suanzes-Carpegna 12
tears 12
washing 12
drawn-out 12
abusing 12
evolved 12
retraining 12
forecasting 12
eighties 12
plate 12
toy 12
piecemeal 12
ashing 12
textile 12
Scheele 12
dump 12
road@@ 12
chairing 12
standardise 12
thirty-@@ 12
15-@@ 12
dering 12
admirably 12
authenticity 12
third-world 12
bags 12
Cro@@ 12
Scandinavian 12
drowned 12
Reducing 12
hazards 12
prevalence 12
disapproval 12
curtail 12
subscribed 12
EUR@@ 12
even-handed 12
coincineration 12
negligible 12
halve 12
Rev@@ 12
idle 12
belonged 12
countrymen 12
paves 12
unwelcome 12
Think 12
Czechs 12
edges 12
possessions 12
widows 12
wrong@@ 12
deportation 12
jumping 12
staunch 12
spade 12
Xenophobia 12
tionary 12
reliance 12
brea@@ 12
Success 12
EA@@ 12
Cap@@ 12
treats 12
persevere 12
sealed 12
sighted 12
broadband 12
pupil 12
thers 12
bubble 12
circulate 12
rails 12
ams 12
Commons 12
Alas 12
bn 12
re-election 12
Inter-@@ 12
factions 12
envoy 12
whichever 12
Pakistani 12
escalate 12
ivory 12
Considering 12
Implementing 12
NUTS 12
Å@@ 12
abattoir 12
sid@@ 12
Airbus 12
educ@@ 12
culmination 12
tening 12
emigrate 12
informative 12
exc@@ 12
unquestionable 12
fantasy 12
credentials 12
Supervisory 12
log@@ 12
biotechnological 12
Ethics 12
noises 12
DM 12
Ethiopian 12
Integration 12
prioritising 12
change@@ 12
ouring 12
situ 12
malpractice 12
fired 12
party-political 12
affirmative 12
discharging 12
degrading 12
opaque 12
Co-@@ 12
miserable 12
Institutional 12
road-@@ 12
discounts 12
breeders 12
minced 12
belated 12
ES@@ 12
Sh@@ 12
Close 12
recipes 12
380 12
lame 12
tremendously 12
backgrounds 12
unparalleled 12
guns 12
Srpska 12
recruiting 12
Gal@@ 12
ws 12
Kuckelkorn 12
capitalisation 12
concealing 12
flesh 12
multilingualism 12
edifice 12
ate-@@ 12
dist@@ 12
Baghdad 12
jails 12
barbarity 12
Abu 12
disregards 12
ential 12
mindedness 12
thriving 12
laughing 12
Fa@@ 12
Lower 12
detailing 12
fares 12
guarded 12
Spaniards 12
grap@@ 12
Cop@@ 12
short@@ 12
simultaneous 12
spark 12
Conversely 12
HIV/Aids 12
resentment 12
Customs 12
ler 12
saga 12
cooking 12
maximising 12
Janeiro 12
halved 12
contractors 12
diligence 12
plunged 12
Inflation 12
discoveries 12
Holy 12
Da 12
Mission 12
Nelson 12
Kabila 12
Rangoon 12
terminal 12
tioning 12
tactical 12
tual 12
staffed 12
Empire 12
chairperson 12
All@@ 12
tedly 12
unacceptably 12
march 12
incitement 12
skin 12
heightened 12
Michael 12
accusing 12
worthless 12
tireless 12
Interior 12
Solomon 12
Papua 12
Smoking 12
smoker 12
anism 12
API 12
Frontiers 12
merge 12
outgoing 12
co-regulation 12
influential 12
Ti@@ 12
bridging 12
fatalities 12
Opinions 12
avert 12
erup@@ 12
displays 12
one-third 12
equate 12
Believe 12
foot@@ 12
repaid 12
develop@@ 12
repe@@ 12
fraud@@ 12
alteration 12
alling 12
inheritance 12
diversities 12
odious 12
'; 12
hand-in-hand 12
utilities 12
g-@@ 12
brick 12
creeping 12
The@@ 12
validation 12
secrets 12
counsel 12
plasticisers 12
cybercrime 12
answerable 12
Bucharest 12
ombudsmen 12
Seven@@ 12
luggage 12
itable 12
unreserved 12
Damião 12
workplaces 12
Atomic 12
PACT 12
chicken 12
ECIP 12
Moratinos 12
Lusaka 12
Look 12
sickness 12
com 12
Alzheimer 12
Parkinson 12
switching 12
motor@@ 12
bel 12
cer@@ 12
sman 12
La 12
dilemmas 12
equi@@ 12
non-legislative 12
dares 12
seaports 12
verge 12
demo@@ 12
twin-track 12
bullet 12
sa 12
abattoirs 12
feedstuffs 12
valuing 12
revert 12
Massoud 12
mutilated 12
AR@@ 12
Al 12
rum 12
slope 12
gh 12
envy 12
interlinked 12
Vis@@ 12
devastation 12
Fishermen 12
magistrates 12
Coun@@ 12
reimbursement 12
pat@@ 12
attendant 12
lamentable 12
ano@@ 12
wipe 12
Ievoli 12
point@@ 12
ered 12
Irian 12
Jaya 12
ethyl 12
fraught 12
predatory 12
knowingly 12
AC@@ 12
Sen@@ 12
dissent 12
Fava 12
Gahler 12
waterway 12
vaccinations 12
interlocutors 12
ster@@ 12
one-size-fits-all 12
SE 12
anti-globalisation 12
BDE 12
Extraordinary 12
Loya 12
Jirga 12
Amina 12
Rasmussen 12
catch-the-eye 12
Fiscalis 12
GM-free 12
Appendix 12
admissibility 11
competition-@@ 11
SA@@ 11
hears 11
mathematical 11
Judging 11
perplexed 11
CE@@ 11
accredited 11
inertia 11
ER@@ 11
abusive 11
masses 11
chan@@ 11
affording 11
dig@@ 11
ress 11
structurally 11
reticent 11
sea-@@ 11
traceable 11
Tor@@ 11
lessness 11
shipwreck 11
heap 11
ensuing 11
even@@ 11
reputable 11
sailors 11
solitary 11
unintentional 11
coastlines 11
repairs 11
re-establishing 11
wr@@ 11
unpredictable 11
mourning 11
shelves 11
humility 11
embraced 11
novel 11
overturned 11
happiness 11
add@@ 11
Funding 11
gloomy 11
effected 11
SE@@ 11
garden 11
whistle-blowers 11
dal 11
pardon 11
seal 11
incompetent 11
expediency 11
ched 11
pain@@ 11
uncovered 11
FI@@ 11
asting 11
1948 11
courteous 11
forthwith 11
pol@@ 11
Immigration 11
irony 11
avalanche 11
ket 11
sco@@ 11
engineer 11
Souladakis 11
255 11
ö@@ 11
rotating 11
impracticable 11
modestly 11
consciousness 11
tax-@@ 11
underlining 11
symptom 11
ken 11
planted 11
FPÖ 11
tiger 11
isolating 11
roughshod 11
ich 11
two-fold 11
func@@ 11
fine-tuning 11
wavelength 11
terminated 11
Delays 11
ables 11
publicised 11
proviso 11
reinstatement 11
complimenting 11
Codecision 11
block@@ 11
structuring 11
solidly 11
astic 11
pounds 11
Cars 11
laughable 11
recovering 11
amateur 11
statutes 11
side@@ 11
appropriateness 11
swing 11
condone 11
hol@@ 11
nationalistic 11
Proposals 11
AD@@ 11
deriving 11
dividends 11
vari@@ 11
cofinanced 11
classed 11
visionary 11
county 11
straw 11
winds 11
reunite 11
uneasy 11
tising 11
attainable 11
prominently 11
fosters 11
culminate 11
Drug 11
centralism 11
Sapard 11
epidemiological 11
comp@@ 11
bluntly 11
Marshall 11
ulation 11
evacuation 11
grab 11
loudly 11
arity 11
Need 11
two-way 11
nervous 11
mud@@ 11
speculate 11
beverages 11
burst 11
fers 11
River 11
unevenly 11
79 11
six@@ 11
cli@@ 11
befits 11
Stephen 11
pious 11
smell 11
stateless 11
anchor 11
Fine 11
embar@@ 11
all-important 11
self-same 11
poverty-@@ 11
Diversities 11
exorbitant 11
Liberties 11
raped 11
footsteps 11
deni@@ 11
inadequacies 11
us; 11
pre-condition 11
dé@@ 11
Bul@@ 11
relied 11
commits 11
featured 11
patri@@ 11
head-on 11
expertly 11
shocks 11
clamp 11
Paragraphs 11
hegemony 11
imper@@ 11
Sta@@ 11
freer 11
master@@ 11
Pa@@ 11
Communism 11
interpreter 11
relinquish 11
counterfe@@ 11
ar-@@ 11
unfamiliar 11
OTC 11
analogy 11
insurers 11
pertain 11
dian 11
liquid 11
disparate 11
entertain 11
ound 11
semantic 11
reorganising 11
obliging 11
Accord 11
region@@ 11
ak 11
Examples 11
encompassing 11
sians 11
Popular 11
compassion 11
brothers 11
wives 11
j 11
ben@@ 11
Bernard 11
flown 11
trail 11
mysterious 11
defenceless 11
murderous 11
Khmer 11
Rouge 11
ée 11
endangering 11
stalemate 11
adaptations 11
ray 11
fron@@ 11
Prior 11
heralded 11
sorting 11
tax@@ 11
lecture 11
Attempts 11
impatience 11
ex-ante 11
paren@@ 11
spelt 11
prolonged 11
landed 11
War@@ 11
personalities 11
ia; 11
locate 11
static 11
frustrations 11
interface 11
Platform 11
bet 11
correctness 11
ministries 11
scant 11
for-@@ 11
cans 11
endured 11
samples 11
collating 11
blows 11
accommodates 11
ana@@ 11
temperatures 11
juveniles 11
time-limited 11
overfishing 11
over-fishing 11
doorstep 11
repaired 11
submits 11
poly@@ 11
thered 11
reckless 11
Shi@@ 11
rebuilt 11
thanked 11
apportioning 11
Knowledge 11
literacy 11
labour-intensive 11
induce 11
tak@@ 11
Wijkman 11
report; 11
pin 11
principled 11
lia 11
brains 11
lips 11
Ivory 11
thwart 11
Righ@@ 11
fain@@ 11
pronouncements 11
aforesaid 11
fiasco 11
instruction 11
astounded 11
readable 11
impair 11
Parliamentarians 11
IC@@ 11
administr@@ 11
Anti-@@ 11
years; 11
side-@@ 11
Est@@ 11
Alcohol 11
mil@@ 11
mg 11
incinerate 11
Sor@@ 11
blowing 11
roo@@ 11
Twelve 11
instil 11
numerical 11
drama 11
taxi 11
beneath 11
sixty 11
opportunism 11
liberate 11
itors 11
commotion 11
Cre@@ 11
dled 11
Fighting 11
cowardly 11
prejudiced 11
Tim@@ 11
militate 11
fingerprints 11
chairmanship 11
criminalise 11
Gener@@ 11
wash 11
Saint 11
assuring 11
multimedia 11
highly-@@ 11
contrac@@ 11
ements 11
play@@ 11
intents 11
disbur@@ 11
Robinson 11
disagrees 11
Wiersma 11
relentless 11
Maintaining 11
1983 11
aling 11
shells 11
Eurosystem 11
Farm 11
redefine 11
voter 11
objectionable 11
Marx@@ 11
gy@@ 11
ye@@ 11
Hamburg 11
inadequacy 11
Anna 11
melting 11
tending 11
l-@@ 11
energy-@@ 11
renewing 11
non-food 11
dared 11
cry@@ 11
iceberg 11
uncontroversial 11
transmissible 11
Soon 11
sport@@ 11
Hänsch 11
Contact 11
kidnapped 11
Interpol 11
cap 11
implicit 11
95/@@ 11
Klaß 11
carrots 11
supplementing 11
650 11
meals 11
basics 11
Thessaloniki 11
manageable 11
rigidity 11
sun 11
Somebody 11
EU-Africa 11
val@@ 11
Horn 11
Prepar@@ 11
eding 11
then@@ 11
discern 11
festival 11
cons 11
forbid 11
stipulation 11
signalled 11
til@@ 11
137 11
ening 11
combinations 11
alternate 11
cup 11
arbitrariness 11
50@@ 11
hallmarks 11
kilo 11
grasped 11
grotesque 11
teries 11
militarily 11
polarisation 11
worlds 11
dish 11
118 11
anced 11
defendants 11
B5-03@@ 11
tisation 11
concomitant 11
ander 11
refund 11
Brempt 11
localised 11
Businesses 11
petroleum 11
gun@@ 11
vac@@ 11
faithfully 11
Ebner 11
surroundings 11
recruited 11
fle@@ 11
inf@@ 11
watchful 11
cks 11
tablets 11
1a 11
glance 11
Seven 11
Carraro 11
gon 11
Fourtou 11
Afterwards 11
Jeggle 11
cell@@ 11
112 11
societal 11
PDB 11
self-employment 11
compares 11
ade@@ 11
traw@@ 11
unison 11
notifications 11
skilful 11
Regulators 11
econometric 11
80s 11
slide 11
recurrent 11
Reserve 11
singled 11
hook 11
grating 11
remotely 11
soci@@ 11
Cerdeira 11
auctioning 11
bands 11
goodbye 11
Green@@ 11
averted 11
coincides 11
stadium 11
reversing 11
convincingly 11
truths 11
dock 11
illustrating 11
Labelling 11
out-of-date 11
fallout 11
Plenary 11
discharged 11
rie 11
guides 11
Digital 11
subscriber 11
contest 11
Veltroni 11
prescribing 11
Fair 11
commending 11
ank 11
hydrocarbons 11
og@@ 11
lease 11
nec@@ 11
lled 11
175 11
litres 11
cameras 11
shrinking 11
secretive 11
emulate 11
ex-post 11
Aegean 11
uniformly 11
passivity 11
ol 11
compatriots 11
cou@@ 11
Integrated 11
California 11
exodus 11
eloquently 11
design@@ 11
cop@@ 11
Pflimlin 11
crowned 11
Safe 11
mid@@ 11
heroes 11
7-@@ 11
confederation 11
Presidential 11
dash 11
overs 11
Credit 11
troubles 11
supervisors 11
interfered 11
scrutinising 11
locks 11
unhelpful 11
allegation 11
benzene 11
PE@@ 11
commemor@@ 11
Voting 11
non-violent 11
gin@@ 11
ritual 11
enter@@ 11
rein@@ 11
Sustainability 11
park 11
Naïr 11
small@@ 11
sluggish 11
gro@@ 11
technocratic 11
Ala 11
Gross 11
Gutiérrez-Cortines 11
injection 11
dwindling 11
anti-competitive 11
-of-@@ 11
concert 11
Mario 11
Professional 11
sponsors 11
opium 11
impoverished 11
Columbia 11
dams 11
acquain@@ 11
self-confidence 11
skilfully 11
faults 11
pled 11
businessmen 11
Thirty 11
marry 11
Suharto 11
rounded 11
sore 11
stakeholder 11
decon@@ 11
Preparations 11
repeal 11
lengths 11
High-@@ 11
Stop 11
Dybkjær 11
life-long 11
B5-07@@ 11
stubborn 11
slippery 11
Chris@@ 11
clim@@ 11
invoking 11
punishments 11
Weiler 11
Broad 11
pig@@ 11
harmed 11
BSE-free 11
shareholder 11
Koreans 11
Stihler 11
pipelines 11
unofficial 11
domains 11
Grou@@ 11
Statistics 11
bombers 11
stroke 11
long-stay 11
Flexibility 11
disclose 11
them; 11
technicalities 11
GMO-free 11
Genetics 11
FMD 11
Kessler 11
bullying 11
e-Learning 11
roadmap 11
ASEP 11
Podestà 11
silicone 11
Holmes 11
Ettl 11
Decrees 11
Sensus 11
Cork 11
Gujarat 11
CESR 11
aver@@ 10
Discussion 10
water@@ 10
displacement 10
slim 10
influencing 10
Confidence 10
attribute 10
dge 10
boundless 10
execu@@ 10
anised 10
colossal 10
1982 10
pes 10
corporation 10
recur 10
Em@@ 10
worthiness 10
capitulation 10
Black 10
penalises 10
ordeal 10
wind@@ 10
triumphed 10
penny 10
Dec@@ 10
wool 10
specification 10
consisted 10
soundly 10
incisive 10
ingredient 10
over-regulation 10
bit@@ 10
exponential 10
infinitum 10
Buddhist 10
graphy 10
less-favoured 10
society; 10
ets 10
rosy 10
desks 10
struggled 10
1957 10
apologising 10
budge@@ 10
ch-@@ 10
awaits 10
grief 10
Tell 10
Sec@@ 10
lectures 10
corollary 10
thoroughness 10
inary 10
linear 10
settlers 10
ments; 10
nearing 10
EURODAC 10
hampering 10
fraternity 10
criminalisation 10
stripped 10
modern-day 10
totalled 10
remedying 10
professor 10
degenerate 10
Biscay 10
Rom@@ 10
Medicines 10
tory 10
blindly 10
capit@@ 10
egoism 10
ania 10
Holocaust 10
ues 10
mould 10
Tsatsos 10
consigned 10
persuasive 10
Owing 10
Confederation 10
persuading 10
ancillary 10
disintegration 10
tricks 10
Renewable 10
Kal@@ 10
communic@@ 10
vintage 10
buyers 10
retroactive 10
Mind 10
pers 10
Belgians 10
tech 10
bargain 10
usable 10
enlist 10
burdened 10
defect 10
bottom@@ 10
9/@@ 10
crystal-clear 10
designate 10
sible 10
passionately 10
1945 10
prematurely 10
fun@@ 10
quaestors 10
consultancy 10
Plooij-Van 10
Plans 10
ground@@ 10
proponents 10
alienation 10
hastily 10
Midlands 10
sided 10
bil@@ 10
Extending 10
interrelated 10
Disabled 10
revitalise 10
tailor 10
hindering 10
usefully 10
two-tier 10
ows 10
Bol@@ 10
Telecom 10
endlessly 10
dest@@ 10
apprehension 10
glos@@ 10
dre@@ 10
audio-visual 10
distracted 10
synergies 10
regularise 10
awards 10
assimilation 10
Sar@@ 10
ord@@ 10
technocrats 10
Ref@@ 10
guardians 10
feedingstuff 10
vaccinate 10
ules 10
Stra@@ 10
farm@@ 10
onerous 10
epidemics 10
plug 10
declares 10
mechanically 10
desertification 10
downstream 10
del@@ 10
installing 10
misinformation 10
Bundestag 10
excus@@ 10
Parts 10
directorate 10
democratise 10
smuggled 10
intrinsically 10
tightly 10
Scotch 10
inhabited 10
Ideally 10
Lim@@ 10
105 10
tel@@ 10
tally 10
lump 10
rings 10
noteworthy 10
eighth 10
speci@@ 10
:@@ 10
mirror 10
pioneer 10
believers 10
rainfall 10
interdependent 10
modifying 10
execute 10
Basic 10
Mil@@ 10
apathy 10
eternal 10
aded 10
shining 10
powerfully 10
ripe 10
peculiarities 10
Hitherto 10
captain 10
declaratory 10
dispensed 10
Ass@@ 10
syndrome 10
unnoticed 10
masters 10
embarrassment 10
pa 10
Macedonians 10
commencement 10
comparability 10
time@@ 10
attributable 10
prospective 10
deduc@@ 10
common-sense 10
trusts 10
GATS 10
tapping 10
Utri 10
cru@@ 10
extradite 10
Swede 10
merged 10
curriculum 10
dismis@@ 10
aging 10
underhand 10
Lat@@ 10
criminalised 10
Employers 10
hill 10
non-European 10
aggres@@ 10
Flora 10
lition 10
diamond 10
crushed 10
stering 10
ammunition 10
jo 10
Babitsky 10
burnt 10
pernicious 10
full-time 10
pleasantly 10
unskilled 10
ilo@@ 10
show@@ 10
deliveries 10
fond 10
rying 10
closes 10
recognisable 10
snail 10
alien@@ 10
coercion 10
shattered 10
roundly 10
Jean-@@ 10
Claude 10
Daniel 10
Panama 10
swe@@ 10
Early 10
knocking 10
deploying 10
complexities 10
numbered 10
ja 10
Union; 10
fan 10
Poul 10
bravely 10
jer@@ 10
Key@@ 10
Surveys 10
gos 10
-style 10
desist 10
aqu@@ 10
ICCAT 10
purse 10
spawning 10
exasper@@ 10
theoretically 10
ric 10
ings; 10
bankruptcies 10
idly 10
outlying 10
avoidable 10
fearful 10
spills 10
Preven@@ 10
queries 10
amends 10
earmark 10
embedded 10
world-@@ 10
te-@@ 10
cartel 10
policy-makers 10
upturn 10
Fernández 10
sli@@ 10
fights 10
hazard 10
suppress 10
calibre 10
mut@@ 10
apt 10
scheduling 10
all-out 10
deceived 10
issue; 10
waste-@@ 10
necessitates 10
traps 10
conve@@ 10
sion; 10
erous 10
Regular 10
shutting 10
fighter 10
ranges 10
AT@@ 10
Scandinavia 10
Priority 10
sticks 10
penetration 10
At@@ 10
rewording 10
constitutionally 10
teething 10
Bethell 10
countering 10
shrink 10
sharia 10
intellectuals 10
insensitive 10
penetrate 10
stamped 10
self 10
legalised 10
laugh 10
hotels 10
benches 10
esp@@ 10
well-meaning 10
pointers 10
exclusivity 10
ll 10
dle 10
Cs 10
age-old 10
abject 10
categor@@ 10
64/@@ 10
Migration 10
broached 10
bypassed 10
perceptions 10
book@@ 10
NAFTA 10
hel@@ 10
filters 10
Produc@@ 10
Improvements 10
Schools 10
Independence 10
analysts 10
unpopular 10
ly-@@ 10
overrun 10
dismay 10
IN@@ 10
tioned 10
camera 10
resettlement 10
incursions 10
terrified 10
Az@@ 10
Islamabad 10
Pu@@ 10
Fourteen 10
classi@@ 10
Sylla 10
marching 10
withheld 10
Provision 10
dried 10
nights 10
regionally 10
Commerce 10
Mus@@ 10
tracking 10
haggling 10
Pr@@ 10
blindness 10
open-minded 10
spoil 10
Ojeda 10
advertisements 10
prim@@ 10
defective 10
revisions 10
tooth@@ 10
bell 10
intercept 10
Sydney 10
mad@@ 10
colonisation 10
Andrews 10
heavier 10
goodness 10
age-@@ 10
unborn 10
peers 10
ID 10
typified 10
e-money 10
affirming 10
pronounce 10
factually 10
rock 10
ush@@ 10
foo@@ 10
privately 10
blaming 10
discredit 10
mathematics 10
Old 10
anomaly 10
ready-made 10
dosage 10
chat 10
continu@@ 10
periodically 10
avi@@ 10
pound 10
8-@@ 10
buil@@ 10
undernourished 10
favourite 10
correspondingly 10
Developments 10
stu@@ 10
Str@@ 10
one-year 10
-type 10
infringes 10
reticence 10
misinterpretation 10
slipped 10
cat@@ 10
Biosafety 10
Sooner 10
undo 10
timid 10
Carnero 10
bated 10
Sarajevo 10
Republika 10
similarities 10
minim@@ 10
ip@@ 10
Project 10
narrowly 10
intergenerational 10
SM@@ 10
pay@@ 10
embodies 10
communicating 10
refine 10
offs 10
additionally 10
agri-@@ 10
essing 10
plausible 10
tery 10
renounce 10
Bavarian 10
rebellion 10
outsiders 10
panic@@ 10
Supervision 10
blanche 10
Block 10
psycho@@ 10
logy 10
dat@@ 10
presiding 10
sleeping 10
inch 10
afield 10
woods 10
Verona 10
trapped 10
Building 10
transports 10
money-@@ 10
teamwork 10
Duma 10
Privatisation 10
restrained 10
distinctions 10
Laschet 10
increments 10
yielding 10
tomatoes 10
pocket 10
Trust 10
5m 10
vice-chairman 10
Sto@@ 10
receipts 10
disappears 10
bureaucracies 10
activate 10
two-stage 10
encephalopathies 10
tab@@ 10
three-quarters 10
hides 10
prohibitions 10
inconvenience 10
decision-taking 10
derog@@ 10
2012 10
signalling 10
Interoperability 10
North@@ 10
exempting 10
K 10
Chief 10
falsification 10
hopelessly 10
ok 10
sector-specific 10
best-@@ 10
Zanu-PF 10
reinvigorate 10
timed 10
profit@@ 10
ringing 10
portability 10
dearly 10
breakthroughs 10
len@@ 10
Vir@@ 10
sem@@ 10
Cam@@ 10
JRC 10
Practical 10
suspensive 10
pudding 10
telecommunication 10
persistently 10
problematical 10
overwhelmed 10
inhal@@ 10
alo@@ 10
unspeakable 10
stat@@ 10
Khatami 10
FA 10
phy@@ 10
abundant 10
cigars 10
infant 10
outlet 10
addicts 10
bal@@ 10
sufferers 10
wer 10
leaps 10
94 10
750 10
munitions 10
interfaces 10
gateway 10
Ossetia 10
ek 10
instigation 10
evenly 10
dominates 10
Crisis 10
oning 10
ny 10
misses 10
myth 10
surfaces 10
hoo@@ 10
subsidises 10
wins 10
non-transparent 10
conceive 10
Coptic 10
ik@@ 10
ón 10
Echerer 10
reparations 10
Murphy 10
19th 10
198@@ 10
high-tech 10
exit 10
Gor@@ 10
anc@@ 10
thwarted 10
assaults 10
stoned 10
offended 10
Ripoll 10
locust 10
rev@@ 10
Pers@@ 10
estate 10
momentous 10
poli@@ 10
reorganised 10
ticking 10
sheets 10
cut@@ 10
Euroland 10
kilometre 10
symbolises 10
conduc@@ 10
Ukrainian 10
Politically 10
Tox@@ 10
toxicity 10
desp@@ 10
mount 10
hail 10
Competitiveness 10
shy 10
Jacob 10
reserving 10
Christian-Democrats 10
foet@@ 10
th-@@ 10
tless 10
irrigation 10
lean 10
unbearable 10
greeted 10
tible 10
Asturias 10
South-South 10
frankness 10
departed 10
disorder 10
therapies 10
em 10
ination 10
dged 10
Al-@@ 10
win-win 10
reunion 10
extra-judicial 10
sibility 10
depths 10
angry 10
menting 10
day@@ 10
Manufacturers 10
3/EEC 10
tainted 10
proclaiming 10
gratified 10
cy@@ 10
J 10
workshops 10
wedge 10
Sk@@ 10
Vinci 10
beginnings 10
is; 10
Bilbao 10
burdensome 10
counter-terrorism 10
start-ups 10
Econom@@ 10
manifested 10
completes 10
Scots 10
impatiently 10
cyclists 10
install 10
manual 10
hesit@@ 10
wrongs 10
restaurant 10
Thomas 10
circuit 10
Mobility 10
quar@@ 10
thir@@ 10
candid 10
ide@@ 10
mapped 10
tren@@ 10
vines 10
Garot 10
ough 10
Gil-Delgado 10
Registry 10
dinner 10
queue 10
supervisor 10
EFSA 10
sty 10
Region 10
COREPER 10
hurry 10
chlorine 10
Enterprise 10
'I 10
slowed 10
Monde 10
destabilised 10
Clo@@ 10
conforms 10
Euromed 10
scares 10
ion 10
spinal 10
MBMs 10
sow 10
Garrett 10
vis@@ 10
COP 10
thoughtful 10
Cows 10
anthrax 10
Aceh 10
GSP 10
affi@@ 10
mediocre 10
winding-up 10
departing 10
ides 10
Cambodian 10
ratifications 10
bulbs 10
Fitzsimons 10
termin@@ 10
astonishment 10
90-head 10
nutrients 10
examines 10
poll 10
ashes 10
methodologies 10
allu@@ 10
anti-Americanism 10
Pascal 10
Achieving 10
fragrances 10
démarches 10
GROTIUS 10
fertilisers 10
Commander 10
Somali 10
multilateralism 10
SENSUS 10
Angolans 10
Dehaene 10
Neyts 10
Hamas 10
towers 10
Santini 10
Aer 10
generics 10
vibration 10
spam 10
í 10
Zappalà 10
after-sales 10
Lawal 10
pregnancies 10
dropping 9
tying 9
drove 9
biting 9
inappropriately 9
maiden 9
surrendering 9
mammoth 9
tly-@@ 9
minimis 9
Hol@@ 9
approvals 9
histor@@ 9
contemplating 9
abor@@ 9
tell@@ 9
alleviating 9
crosses 9
juris 9
publishes 9
incidences 9
delimitation 9
investigative 9
ESF 9
sparing 9
wildlife 9
rers 9
iz 9
io 9
lovely 9
registering 9
insured 9
devolved 9
halting 9
manager 9
discontinue 9
warm@@ 9
aler@@ 9
envisaging 9
ine@@ 9
Main@@ 9
Turkmenistan 9
Century 9
honours 9
keting 9
stretches 9
participant 9
Existing 9
mindset 9
tax-free 9
Urgent 9
Wh@@ 9
wrangling 9
Via 9
reimbursed 9
carelessness 9
scor@@ 9
long-winded 9
painstaking 9
open-ended 9
Audit 9
relaxing 9
hand-@@ 9
Lebanese 9
partisan 9
multiply 9
classifying 9
Eurosceptics 9
hair 9
comprehen@@ 9
123 9
timescales 9
ref@@ 9
dog 9
1244 9
kings 9
EFA 9
ideologically 9
solu@@ 9
volatility 9
worship 9
reckoned 9
salutary 9
ter-@@ 9
stock@@ 9
band@@ 9
nurses 9
nerve 9
conciliatory 9
right-@@ 9
Schüssel 9
dogged 9
respec@@ 9
Sanctions 9
headlong 9
racists 9
comprehension 9
darkest 9
oured 9
squabbles 9
able; 9
instincts 9
sledgehammer 9
decision@@ 9
Ocean 9
hormone-treated 9
pre-conditions 9
silly 9
centralist 9
seizing 9
seconded 9
militias 9
Dührkop 9
tentative 9
Matikainen-Kallström 9
boosts 9
SAVE 9
go-ahead 9
Man 9
Packaging 9
beside 9
reno@@ 9
Logically 9
DE 9
Trojan 9
heroic 9
null 9
AP@@ 9
designing 9
fications 9
attaining 9
observatories 9
disruptive 9
insul@@ 9
overlaps 9
Transnational 9
Criticism 9
2-@@ 9
acc@@ 9
forgo 9
democra@@ 9
entrance 9
mas@@ 9
unfettered 9
ture; 9
rebu@@ 9
Balfe 9
CI@@ 9
manipul@@ 9
erring 9
pitched 9
conceals 9
zo@@ 9
Coc@@ 9
industrialists 9
overshadow 9
sweet 9
insidious 9
Regardless 9
mod@@ 9
ulated 9
painted 9
leak 9
time-frame 9
circuits 9
possible; 9
impractical 9
tigh@@ 9
ruins 9
Ensuring 9
demagoguery 9
Beazley 9
West@@ 9
inaction 9
electric 9
thering 9
Provided 9
cyanide 9
intimated 9
reassess 9
ascri@@ 9
econom@@ 9
draw@@ 9
offing 9
inaccuracies 9
duty-bound 9
corrup@@ 9
programmed 9
beet 9
regularity 9
harrowing 9
alises 9
incompatibility 9
Nielsen 9
Governor 9
indulgent 9
Havel 9
ut 9
intangible 9
TRIPs 9
pie 9
ore@@ 9
tivity 9
ification 9
siveness 9
probable 9
cruelly 9
verse 9
founders 9
pir@@ 9
afloat 9
Tens 9
lurch 9
regul@@ 9
bic@@ 9
Resources 9
milit@@ 9
militarised 9
cob@@ 9
bled 9
Ra@@ 9
escapes 9
deceive 9
Ser@@ 9
bians 9
angles 9
boo@@ 9
atrocity 9
Cl@@ 9
Abuja 9
louder 9
emancipation 9
reorganise 9
minefield 9
servant 9
lends 9
lac@@ 9
savers 9
over-the-counter 9
light-@@ 9
Pension 9
simplifies 9
inclination 9
attentively 9
lab@@ 9
curtailed 9
intercepting 9
actor 9
vocabulary 9
laun@@ 9
expansionist 9
imperial 9
uous 9
Les@@ 9
schizophrenic 9
Wor@@ 9
Michelin 9
Andalu@@ 9
Geograph@@ 9
merciless 9
lyn@@ 9
patch 9
sons 9
searched 9
atrocious 9
mediate 9
Indians 9
seizure 9
1949 9
Vladimir 9
démarche 9
ong 9
ascertained 9
refu@@ 9
mond 9
overloaded 9
marginally 9
Postal 9
commissioners 9
impeded 9
coaches 9
remo@@ 9
ferries 9
reassurances 9
É@@ 9
tling 9
Senator 9
ceasing 9
director@@ 9
disarray 9
Ge@@ 9
milestones 9
communitarisation 9
legitimisation 9
Coordin@@ 9
carved 9
Sol@@ 9
Ivanov 9
Introducing 9
betrays 9
beacon 9
preparedness 9
downside 9
sins 9
economists 9
argu@@ 9
infinitely 9
Eleven 9
oul@@ 9
carve 9
enlighten 9
contrasting 9
Hudghton 9
eels 9
lifeline 9
cold-@@ 9
payable 9
bluefin 9
divine 9
over-exploitation 9
ties; 9
Large-scale 9
slump 9
ean 9
lessen 9
Shimon 9
process@@ 9
Scientists 9
brushed 9
employ@@ 9
cherished 9
strained 9
portrayed 9
industrialisation 9
pric@@ 9
dest 9
Reforms 9
tenable 9
harnessing 9
trucks 9
fruitless 9
rati@@ 9
orientations 9
thank-you 9
pra@@ 9
distinguishes 9
deepened 9
fisherman 9
Marrakech 9
anti-racist 9
temper 9
wrap@@ 9
infamous 9
tastes 9
compassionate 9
ball@@ 9
distributor 9
ful@@ 9
ostensibly 9
Pyrenees 9
contributory 9
estimation 9
excellently 9
kilns 9
violently 9
flu@@ 9
smog 9
Ozone 9
Interim 9
impossibility 9
inventories 9
linkage 9
clinics 9
Minority 9
EPP-ED 9
impu@@ 9
qualitatively 9
Extre@@ 9
rivals 9
circumcision 9
clear-@@ 9
individu@@ 9
graph@@ 9
underlie 9
expulsions 9
restaurants 9
entr@@ 9
kick 9
Lakes 9
stamping 9
Je@@ 9
dogmas 9
exceedingly 9
nic@@ 9
adulterated 9
alters 9
greening 9
cot@@ 9
diversion 9
See 9
scourges 9
aired 9
complicates 9
bon@@ 9
ga 9
-sharing 9
heinous 9
sentencing 9
LI@@ 9
infringing 9
year-olds 9
retailers 9
vets 9
gam@@ 9
animal-@@ 9
bilaterally 9
consular 9
Pil@@ 9
totals 9
Press 9
illo 9
groundless 9
forec@@ 9
collaborate 9
coordinates 9
Spe@@ 9
Jobs 9
abusers 9
imperfect 9
deluding 9
paralyse 9
rear 9
oler@@ 9
Fujimori 9
government-@@ 9
Oh 9
easing 9
dor@@ 9
appendix 9
Nairobi 9
Norwegian 9
stockpiles 9
sharks 9
mania 9
hosts 9
construed 9
overproduction 9
anis@@ 9
Welsh 9
journalistic 9
casu@@ 9
indefinite 9
aeronautical 9
certified 9
dreaming 9
sign@@ 9
bidding 9
mer 9
guarding 9
brokered 9
Budgeting 9
Taken 9
rob 9
honouring 9
saddled 9
fan@@ 9
qualms 9
lid 9
distribu@@ 9
ffs 9
quantify 9
Ak@@ 9
plo@@ 9
dual-use 9
collaborating 9
enlightening 9
Cal@@ 9
tings 9
belatedly 9
pipes 9
du 9
jet 9
[ 9
s-related 9
pornographic 9
preoccupied 9
ura 9
alcoholism 9
Philippines 9
comparatively 9
euro-zone 9
deductions 9
earnestly 9
citrus 9
pel@@ 9
dietary 9
Ap@@ 9
89/@@ 9
firm@@ 9
unprocessed 9
lofty 9
Anti-Fraud 9
cus@@ 9
Returning 9
pragmatically 9
ethos 9
vely 9
damning 9
measu@@ 9
handles 9
commentators 9
relocations 9
consensual 9
Tunis 9
sway 9
plundering 9
iss 9
nigh 9
anecdo@@ 9
mediators 9
bility 9
whistle-blowing 9
doc@@ 9
impediment 9
ske@@ 9
pros 9
Nov@@ 9
complainants 9
promotional 9
packaged 9
fattening 9
schoolchildren 9
that; 9
hurried 9
collegiate 9
pacts 9
accountants 9
pp@@ 9
Unanimity 9
sleeves 9
rewrite 9
deviation 9
thesis 9
cling 9
shipped 9
war-torn 9
palaces 9
override 9
all-round 9
pal@@ 9
Elections 9
long@@ 9
reckon 9
bombed 9
fuelled 9
best@@ 9
duce 9
dependants 9
ith 9
toward 9
accumul@@ 9
codetermination 9
Employees 9
break@@ 9
contradic@@ 9
Bakopoulos 9
paralysis 9
Teheran 9
sle@@ 9
dissolved 9
Def@@ 9
Union/@@ 9
compliant 9
Keppelhoff-Wiechert 9
tier 9
non-GM 9
147 9
depreciation 9
vel 9
Probably 9
Technically 9
radius 9
bud@@ 9
ishment 9
dim 9
nation@@ 9
0-@@ 9
overcrowded 9
privatising 9
tica 9
instant 9
A1 9
at-@@ 9
enquire 9
wireless 9
tonnage 9
abdic@@ 9
Per 9
Failing 9
dress 9
UNESCO 9
GUE 9
fuller 9
alties 9
selfishness 9
tle@@ 9
Though 9
broad-@@ 9
guarantor 9
viruses 9
slaughtering 9
OIE 9
SC 9
threefold 9
emperor 9
co-legislators 9
fashionable 9
Rail 9
dismayed 9
leukaemia 9
Fuels 9
Vol@@ 9
wealthiest 9
superstructure 9
tom@@ 9
pains 9
Consul@@ 9
donate 9
Q@@ 9
colonies 9
es-@@ 9
contests 9
prioritisation 9
Initial 9
human@@ 9
abrog@@ 9
part-@@ 9
unintended 9
bull 9
ECOWAS 9
Tigers 9
cessation 9
bo 9
youngsters 9
unequally 9
rewarding 9
tactic 9
grim 9
subsistence 9
pirate 9
Lloyd 9
revelations 9
ft 9
muscle 9
discontinued 9
breed 9
harvesting 9
eel 9
stretching 9
Significant 9
secretary 9
Street 9
naive 9
rearguard 9
deceptive 9
cool 9
preventable 9
non-smokers 9
Thankfully 9
third-generation 9
woolly 9
apologised 9
open@@ 9
Nine@@ 9
professionally 9
Roca 9
hindsight 9
uniquely 9
finan@@ 9
reaped 9
inti@@ 9
Carlsson 9
nomenclature 9
throws 9
Australian 9
discriminates 9
watering 9
lah 9
corridor 9
o' 9
disappearances 9
Doctor 9
Active 9
intrusion 9
Folias 9
9-@@ 9
Consensus 9
Italia 9
vic 9
Doris 9
Olivier 9
anomalies 9
stin@@ 9
eloquent 9
all-time 9
Compromise 9
Franco-German 9
laundered 9
sword 9
three-way 9
versity 9
reopened 9
Schori 9
mafias 9
segments 9
gle@@ 9
much-vaunted 9
dogmatism 9
ed-@@ 9
delude 9
Proposal 9
formalise 9
demonstrable 9
inaccessible 9
Economy 9
sives 9
grams 9
transpires 9
Fore@@ 9
Hollywood 9
vic@@ 9
annoying 9
paternity 9
decim@@ 9
intelligible 9
Intergroup 9
brutally 9
no-fly 9
eso@@ 9
not-@@ 9
inflict 9
Forty 9
Pen@@ 9
pre-emp@@ 9
flagship 9
bridged 9
ase 9
homage 9
erected 9
echoes 9
Olympics 9
orphans 9
triple 9
sin 9
interprets 9
Substantial 9
low-cost 9
vitro 9
sparse 9
cross-party 9
custodial 9
Mennea 9
fervently 9
ve-@@ 9
Sauquillo 9
Burun@@ 9
Bhutanese 9
Hindu 9
Nepalese 9
deplored 9
combatants 9
IAEA 9
array 9
cord@@ 9
teenagers 9
Klass 9
val 9
homeless 9
importer 9
ladder 9
Terrorists 9
monsters 9
theories 9
Il@@ 9
Att@@ 9
Prince 9
une 9
standardising 9
charitable 9
allegiance 9
pt 9
exploitative 9
orphanages 9
dispersed 9
twinning 9
rotten 9
per-@@ 9
teenth 9
statesmen 9
Tetovo 9
98/@@ 9
Reinforced 9
strangely 9
Engl@@ 9
the-@@ 9
stances 9
Euronews 9
Winter 9
Supervisor 9
Steering 9
apportioned 9
Inno@@ 9
mentally 9
sto@@ 9
attribu@@ 9
H 9
Chairmen 9
hormone 9
payers 9
commands 9
policeman 9
criminalising 9
happier 9
iously 9
naming 9
Palermo 9
appended 9
toned 9
han 9
ate; 9
Almeida 9
windows 9
syn@@ 9
uations 9
Garriga 9
high-profile 9
risking 9
magn@@ 9
help@@ 9
zeal 9
multifaceted 9
cautiously 9
arch@@ 9
multifunctionality 9
obscured 9
Nu@@ 9
edi@@ 9
aeroplane 9
specialisation 9
unprotected 9
p; 9
congress 9
ached 9
rubble 9
Medi@@ 9
organises 9
sities 9
wheat 9
non-State 9
Burma/Myanmar 9
poisoned 9
revolve 9
third-party 9
Bouteflika 9
Tel 9
Aviv 9
demise 9
standby 9
euthanasia 9
Argentin@@ 9
unmanageable 9
suckler 9
Zorba 9
gang@@ 9
Quisthoudt-Rowohl 9
protein-rich 9
Boudjenah 9
monks 9
1/2001 9
Rem@@ 9
Vaccination 9
invade 9
Built-In 9
angels 9
two-and-a-half 9
brokering 9
Gabon 9
Kalimantan 9
Orthodox 9
aeronautics 9
Trajkovski 9
Petersburg 9
Camisón 9
Arctic 9
quietly 9
co-ordination 9
synchronisation 9
Berbers 9
deep-sea 9
EU-Israel 9
EU-US 9
sunset 9
zoonoses 9
Pohjamo 9
pigswill 9
caste 9
Ruffolo 9
Lingus 9
AZF 9
Mubarak 9
whole-body 9
CMR 9
converters 9
condon@@ 9
Safiya 9
Karzai 9
Musotto 9
enclave 9
Biagi 9
140@@ 9
Reverend 9
110a 9
ISAF 9
MPA 9
boating 9
Prestige 9
iti@@ 8
no-smoking 8
country-@@ 8
afresh 8
layers 8
Projects 8
wel@@ 8
quotation 8
%; 8
ust 8
longstanding 8
impeding 8
pushes 8
tidy 8
invalidity 8
nation-states 8
overburdened 8
smen 8
wallet 8
rank 8
lightweight 8
repairing 8
wreak 8
frigh@@ 8
sixties 8
vit@@ 8
improperly 8
setting-up 8
though@@ 8
foisted 8
one-stop 8
Inspections 8
Total@@ 8
Tan@@ 8
States; 8
containers 8
reproduce 8
shipyard 8
neighbourly 8
state-of-the-art 8
on; 8
constrained 8
voltage 8
en-@@ 8
cubic 8
fire-@@ 8
abling 8
wood@@ 8
discer@@ 8
value-added 8
appro@@ 8
anonymity 8
holidaymakers 8
clean-up 8
eting 8
practicality 8
Kyrgyzstan 8
residing 8
posting 8
cab@@ 8
DGs 8
Cru@@ 8
traumatic 8
rumour 8
Cat@@ 8
imprecise 8
furnish 8
subscribes 8
whereupon 8
recalls 8
hefty 8
Golan 8
pitiful 8
sponsor 8
miserably 8
Multi-@@ 8
Gom@@ 8
academy 8
eluci@@ 8
crown 8
me-@@ 8
hom@@ 8
duplic@@ 8
resourced 8
lement 8
jurisdictions 8
heighten 8
feat 8
wand 8
Conferences 8
exportation 8
blin@@ 8
speculators 8
resonance 8
Over-@@ 8
keen@@ 8
separates 8
wit@@ 8
Fasc@@ 8
ater@@ 8
watershed 8
trivi@@ 8
instinct 8
mini 8
advancement 8
intervenes 8
embracing 8
counterbalance 8
Pos@@ 8
deliber@@ 8
rumoured 8
residency 8
ré@@ 8
pleases 8
Peat 8
horse-trading 8
richness 8
Rap@@ 8
ature 8
familiarity 8
preserves 8
wide-@@ 8
fibres 8
poet 8
tiresome 8
ground-breaking 8
ambul@@ 8
parameter 8
sanctioned 8
t-based 8
green@@ 8
esteem 8
scrap@@ 8
fooled 8
Fra@@ 8
ques 8
disciplines 8
bowed 8
non-Community 8
supranationalism 8
sta 8
extor@@ 8
deed 8
cers 8
misplaced 8
scapegoat 8
Gentlemen 8
mediaeval 8
collaborated 8
run@@ 8
xed 8
tailing 8
needy 8
bureaux 8
neighbourhood 8
consternation 8
scars 8
burner 8
reliant 8
chasing 8
ko 8
ck@@ 8
multiplier 8
upside 8
anti-racism 8
segregation 8
watchdog 8
nominated 8
Undoubtedly 8
dreamed 8
had@@ 8
za 8
ires 8
ped@@ 8
esse 8
hob@@ 8
ora 8
Lor@@ 8
comfortably 8
IC 8
six-year 8
wet 8
Turin 8
catch@@ 8
Compare 8
permissive 8
stag@@ 8
placement 8
Mother 8
flats 8
path@@ 8
Community-@@ 8
Ali@@ 8
lap@@ 8
bottle 8
straitjacket 8
filtering 8
wastage 8
Lis@@ 8
teen@@ 8
reformulate 8
closeness 8
spectacularly 8
obstructed 8
org@@ 8
designs 8
booked 8
reassessment 8
Coherence 8
Ten@@ 8
revolt 8
tear 8
stricken 8
cue 8
nipped 8
wastes 8
sum@@ 8
gifts 8
Modrow 8
tis@@ 8
sor@@ 8
tap 8
autonomously 8
smacks 8
nar@@ 8
ero@@ 8
blurring 8
Sud@@ 8
dissu@@ 8
Nicosia 8
arming 8
sil@@ 8
tribal 8
reds 8
foundered 8
Encouraging 8
liquidation 8
cared 8
ethnically 8
Kratsa-Tsagaropoulou 8
realms 8
presumptuous 8
undivided 8
Follow-up 8
enactment 8
ravaged 8
ushing 8
indulging 8
ethnicity 8
anew 8
matching 8
rationalised 8
borrowing 8
Knörr 8
denomin@@ 8
vative 8
transferable 8
paradise 8
scrupulous 8
ena 8
POL 8
sta@@ 8
omit 8
Atxalandabaso 8
elegant 8
lingu@@ 8
banknotes 8
flimsy 8
Appropriate 8
beds 8
deprives 8
frag@@ 8
mentary 8
interplay 8
Rhin@@ 8
oration 8
persecuting 8
Roure 8
graves 8
attends 8
Brovina 8
bi 8
Soares 8
correspondent 8
defendant 8
ransom 8
shamefully 8
spill 8
brunt 8
García 8
Vic@@ 8
stiff 8
methodological 8
diligent 8
distancing 8
accidentally 8
affordability 8
arily 8
hair@@ 8
franchise 8
lor@@ 8
oria 8
unstoppable 8
supermarket 8
Euskal 8
Herritarrok 8
revolution@@ 8
Briefly 8
demor@@ 8
fiction 8
pling 8
atic 8
eclip@@ 8
wis@@ 8
der-@@ 8
bla@@ 8
Technological 8
humankind 8
categorical 8
shell 8
councillor 8
insights 8
creditor 8
coping 8
helpless 8
has@@ 8
intensely 8
handicaps 8
inflexibility 8
short-lived 8
earners 8
Simplification 8
welling 8
US@@ 8
long-lasting 8
ulterior 8
Auditor 8
panels 8
temper@@ 8
Santiago 8
Belize 8
rampant 8
seamless 8
crust@@ 8
meticulous 8
Lechner 8
prestigious 8
cleaned 8
IP@@ 8
lax@@ 8
EC-@@ 8
selectively 8
contravening 8
anti-social 8
krone 8
sobering 8
E-commerce 8
theological 8
Mat@@ 8
expounded 8
Strangely 8
Indic@@ 8
impoverishment 8
unaccountable 8
Inspection 8
proportionately 8
deducted 8
timeframes 8
bureauc@@ 8
symbolise 8
summon 8
motivates 8
subjecting 8
govern@@ 8
stormy 8
Upon 8
dence 8
enjoyment 8
flavour 8
manship 8
Má@@ 8
Pereira 8
hotchpotch 8
obsessed 8
ins@@ 8
underlies 8
slogans 8
untouched 8
tas 8
Fr@@ 8
113 8
advertise 8
ecology 8
designations 8
bull@@ 8
148 8
fran@@ 8
blood@@ 8
Veron@@ 8
eco-labelling 8
appreciable 8
mover 8
cin@@ 8
particles 8
Hyland 8
siting 8
Tre@@ 8
exacerbates 8
sanitary 8
methane 8
millig@@ 8
oxides 8
Adoption 8
labouring 8
nitrate 8
spanner 8
mess@@ 8
Acidification 8
insert 8
amalgam@@ 8
thly 8
today; 8
zing 8
rudimentary 8
there@@ 8
invaded 8
dashed 8
blunt 8
recriminations 8
DP 8
sightedness 8
unimaginable 8
paedophiles 8
fourthly 8
coincided 8
Self-@@ 8
dissociate 8
ially 8
twelfth 8
foodstuff 8
van@@ 8
revived 8
elevated 8
untouchable 8
thermal 8
pretending 8
biodegradable 8
lungs 8
specifics 8
EU-China 8
predicament 8
congratulates 8
Getting 8
countries; 8
outweighs 8
adjoining 8
misinterpreted 8
disassociate 8
Excuse 8
shoes 8
MA@@ 8
stalling 8
house@@ 8
inno@@ 8
market-@@ 8
locomotive 8
affirms 8
Thursdays 8
interest@@ 8
decreed 8
materi@@ 8
aggravate 8
Botswana 8
cares 8
IS 8
curtailing 8
Iraqis 8
Satellite 8
ays 8
riches 8
bio-diversity 8
gli@@ 8
foresight 8
eous 8
ency 8
owning 8
opts 8
Ce@@ 8
tionality 8
plot 8
landmark 8
heart@@ 8
dum@@ 8
ensued 8
revoke 8
Mor@@ 8
aven@@ 8
noisiest 8
furthering 8
Bautista 8
immi@@ 8
lling 8
spec@@ 8
reconstruct 8
cites 8
posi@@ 8
provoking 8
horrifying 8
misconduct 8
expedient 8
inexhaustible 8
curse 8
Electricity 8
energy-saving 8
half-baked 8
routinely 8
tangled 8
spi@@ 8
commercialised 8
remembering 8
vent 8
sch@@ 8
ung 8
back-@@ 8
retaliatory 8
spin 8
rer 8
Finns 8
outlaw 8
photos 8
cents 8
mag@@ 8
tac@@ 8
safe@@ 8
sodium 8
alginate 8
intolerant 8
stein 8
succinct 8
outstrip 8
quotes 8
grind 8
misappropriation 8
inefficiencies 8
Dem@@ 8
weigh@@ 8
two-speed 8
e-economy 8
amazement 8
writes 8
class@@ 8
lear@@ 8
Exc@@ 8
negotiable 8
greedy 8
portray 8
refunded 8
reformists 8
superb 8
negatively 8
Frankenstein 8
kering 8
resultant 8
breeds 8
seemingly 8
past@@ 8
audi@@ 8
Dimitrak@@ 8
idealism 8
nearer 8
tiring 8
symmetry 8
lucid 8
CD@@ 8
compan@@ 8
asser@@ 8
unstinting 8
Six@@ 8
mine-clearance 8
South-Eastern 8
non-negotiable 8
Am 8
projec@@ 8
struc@@ 8
yard 8
ceme@@ 8
besieged 8
ys@@ 8
siege 8
gn 8
irritating 8
dil@@ 8
cost@@ 8
monuments 8
intercultural 8
Voluntary 8
evoke 8
Ecuador 8
au 8
Presumably 8
top-up 8
mill 8
starve 8
kidnappings 8
liners 8
humanitarianism 8
gentle 8
humour 8
med@@ 8
Chen 8
ras 8
Opening 8
auxiliary 8
crisis-@@ 8
yoghurt 8
disorders 8
skimmed 8
Exemption 8
upgrade 8
Club 8
lecturers 8
subversive 8
Liège 8
profiteers 8
francs 8
inasmuch 8
sabotaged 8
manoeuvres 8
Ben 8
Lev@@ 8
Anglo-@@ 8
Trains 8
canal 8
summarises 8
A2 8
photo@@ 8
Directors 8
tones 8
snapshot 8
bord@@ 8
interventionist 8
food@@ 8
painfully 8
shrunk 8
cies 8
Wherever 8
sy@@ 8
Dam@@ 8
urgencies 8
straits 8
1b 8
derail@@ 8
fringe 8
short-fibre 8
variant 8
enlarge@@ 8
thankfully 8
premia 8
hab@@ 8
tow@@ 8
triggering 8
whites 8
ae 8
confuses 8
ko@@ 8
striven 8
consecutive 8
meddling 8
Lack 8
Inte@@ 8
unlawfully 8
asses 8
UCLAF 8
prec@@ 8
knee-jerk 8
diagnostic 8
-year-old 8
four-year 8
alcohol-related 8
Proper 8
heavens 8
zer 8
cia 8
advising 8
Belfast 8
curbing 8
Differences 8
hur@@ 8
revitalising 8
Regulatory 8
RA 8
storing 8
conservatism 8
antagon@@ 8
steam 8
habitual 8
narrow-minded 8
floating 8
Deutschmark 8
Historically 8
cross-subsidies 8
sensibilities 8
overlooks 8
appropriated 8
Harare 8
Zimbabweans 8
communal 8
Spectrum 8
unreasonably 8
Pending 8
optimising 8
innovate 8
typing 8
pun@@ 8
prizes 8
totalitarianism 8
switched 8
capitalists 8
tribution 8
arities 8
Herald 8
interact 8
tat@@ 8
RUF 8
1950 8
disarm 8
tees 8
Singapore 8
dures 8
rivalries 8
sows 8
descent 8
60s 8
Usually 8
lit 8
intru@@ 8
ICAT 8
bran@@ 8
kit@@ 8
wards 8
María 8
IRA 8
temp@@ 8
habit@@ 8
cocaine 8
justifications 8
duck 8
allergic 8
subsidisation 8
smoked 8
to-air 8
bers 8
Glante 8
Accounting 8
build-up 8
Chemicals 8
prominence 8
TE@@ 8
Sports 8
cinemas 8
myths 8
disti@@ 8
SA 8
unchallenged 8
Tacis 8
unassailable 8
Van@@ 8
lian 8
slim@@ 8
windmills 8
armament 8
sca@@ 8
ÍÁÔÏ 8
dressed 8
tractors 8
marriages 8
lamenting 8
hypothesis 8
acks 8
Georgian 8
Krarup 8
P-@@ 8
revol@@ 8
111 8
earmarking 8
gens 8
Talking 8
communiqué 8
Observatory 8
assesses 8
bad@@ 8
refinement 8
oxygen 8
re-open 8
shouting 8
PO@@ 8
EI@@ 8
informa@@ 8
likened 8
destitution 8
anthem 8
briefed 8
coherently 8
Form@@ 8
Men@@ 8
prelude 8
anti-money 8
buffer 8
vanished 8
microphone 8
ack@@ 8
intergovernmentalism 8
Gaulle 8
sympathies 8
aiding 8
kle 8
arresting 8
Some@@ 8
upheavals 8
Broadly 8
tow 8
diagno@@ 8
level; 8
Wieland 8
nominations 8
disputing 8
contrived 8
pleas 8
doubly 8
sely 8
bun@@ 8
Higher 8
Mac@@ 8
airing 8
deferring 8
inventiveness 8
inventors 8
Crete 8
SPA 8
PCBs 8
fireworks 8
litany 8
Compar@@ 8
yellow 8
List 8
portal 8
ular 8
tele@@ 8
Stand@@ 8
Mel@@ 8
Moluccan 8
fig@@ 8
champions 8
infections 8
multidisciplinary 8
chew 8
tains 8
door@@ 8
eighty 8
144 8
adjective 8
Finuoli 8
elites 8
aning 8
Del@@ 8
wrapped 8
Capital 8
HIV-@@ 8
Strip 8
dread@@ 8
coo@@ 8
Avraham 8
Session 8
dings 8
greet 8
impro@@ 8
ish-@@ 8
Junker 8
alien 8
appreciative 8
bogus 8
Reas@@ 8
labyrinth 8
ads 8
World@@ 8
Cla@@ 8
irreplaceable 8
fellow@@ 8
leather 8
harming 8
Glase 8
Doping 8
Evaluation 8
gods 8
ridiculously 8
erect 8
priced 8
port@@ 8
liations 8
keepers 8
27/@@ 8
amicable 8
exaggerating 8
militia 8
Sit@@ 8
appearances 8
loser 8
rene 8
Crimin@@ 8
jigsaw 8
leng@@ 8
magazine 8
channelling 8
ign@@ 8
Export 8
vision@@ 8
Odysseus 8
Sixty 8
GDR 8
Risk 8
Europe-@@ 8
Sittings 8
nor@@ 8
15-metre 8
axles 8
François 8
caricature 8
Friedrich 8
scapegoats 8
tiv@@ 8
presuppose 8
unwavering 8
Fran@@ 8
kingdom 8
upbeat 8
progression 8
statistically 8
Wuermeling 8
demonstrably 8
rival 8
int 8
unting 8
sinister 8
a/@@ 8
pinpointed 8
omic 8
adultery 8
Controls 8
jury 8
SO@@ 8
Twenty-five 8
Angelilli 8
survivors 8
borrow@@ 8
cracks 8
defences 8
culprit 8
Mas@@ 8
alty 8
propagation 8
Bur@@ 8
purport 8
populous 8
constitutionality 8
Schum@@ 8
Openness 8
apo@@ 8
Virtually 8
190 8
B7-@@ 8
peti@@ 8
urg@@ 8
accumulate 8
keg 8
contagious 8
imaginable 8
POSEI 8
objected 8
contamin@@ 8
assignments 8
explode 8
scoring 8
supranationality 8
Martin@@ 8
top-down 8
retaliation 8
resilience 8
ually 8
Len@@ 8
cooper@@ 8
umbling 8
deregulated 8
Insofar 8
maxim@@ 8
withdrawals 8
Pope 8
flow@@ 8
glob@@ 8
bitterness 8
exiled 8
155 8
ishly 8
advis@@ 8
infinite 8
smokescreen 8
bent 8
ow 8
attractiveness 8
self-imposed 8
Seventy 8
ations; 8
unfairness 8
rub 8
resemble 8
overheating 8
corpses 8
unintentionally 8
Wars 8
audacious 8
asian 8
Commission@@ 8
bert 8
recast 8
comple@@ 8
mapping 8
Malcolm 8
militar@@ 8
physiological 8
brands 8
heartening 8
thor@@ 8
igh@@ 8
ugly 8
Happy 8
biotech 8
Maskhadov 8
TA@@ 8
accessories 8
Vatanen 8
2001-2002 8
Biotechnology 8
Titford 8
spar@@ 8
Document 8
stalls 8
tag@@ 8
builders 8
sn@@ 8
dissolution 8
Daily 8
pensionable 8
Danone 8
equipping 8
rem@@ 8
verifying 8
Courts 8
faxes 8
mortgage 8
Neil 8
indiscriminately 8
Pyongyang 8
DPRK 8
ck 8
washed 8
results-oriented 8
Minsk 8
2002-@@ 8
Mag@@ 8
Sánchez-Neyra 8
dys@@ 8
ans@@ 8
Intifada 8
betra@@ 8
Carlos 8
ta-@@ 8
writers 8
BLU 8
half-hearted 8
ey 8
televisions 8
rightholders 8
anticipates 8
stocking 8
Disability 8
amenable 8
hindrances 8
Stalin 8
deceit 8
autocratic 8
Naples 8
exhibition 8
writer 8
Baron 8
zoos 8
Väyrynen 8
uch@@ 8
herbicides 8
allergenic 8
reuse 8
Mountains 8
detec@@ 8
tine 8
Asensio 8
Sexual 8
chips 8
ori 8
Brundtland 8
Terr@@ 8
olives 8
9/2001 8
Parma 8
threw 8
dealer 8
horizons 8
sionary 8
journalism 8
Mayol 8
EASA 8
ecopoint 8
retardant 8
juices 8
Agboyibo 8
dt 8
proofing 8
RALs 8
Gotthard 8
12-mile 8
1373 8
Toxin 8
sulphur-free 8
Mauritanian 8
uba 8
tellers 8
Kralowetz 8
Undertaking 8
ida 8
clementines 8
zoonotic 8
Quartet 8
Likud 8
EEVC 8
ASPA 8
Owen 8
subvert 7
enacting 7
Genuine 7
respectfully 7
famili@@ 7
under-developed 7
dro@@ 7
patchwork 7
plunge 7
Reconciliation 7
Web 7
mann 7
spiralling 7
interpretative 7
ship-@@ 7
detecting 7
unfulfilled 7
tfulness 7
centralising 7
Lead@@ 7
flout 7
exposing 7
60/@@ 7
skir@@ 7
ABB 7
Alsthom 7
Ou@@ 7
Marine 7
Pollution 7
perfec@@ 7
degassing 7
strictness 7
any@@ 7
Cad@@ 7
mus@@ 7
State; 7
ighter 7
tan 7
trifling 7
sub-standard 7
struction 7
surge 7
225 7
Guidance 7
Margot 7
deci@@ 7
traumatised 7
wherewithal 7
reforestation 7
Stre@@ 7
potent 7
nom@@ 7
dable 7
adheres 7
discourtesy 7
permeate 7
departmental 7
Tajikistan 7
Istanbul 7
republics 7
prediction 7
exhor@@ 7
Compliance 7
cf 7
inexcusable 7
follow-@@ 7
foregone 7
Offic@@ 7
valve 7
delegating 7
engender 7
embe@@ 7
Fraud 7
overheads 7
gauntlet 7
acked 7
sme@@ 7
intransigent 7
hurts 7
preoccupation 7
dividend 7
Sharm 7
el-@@ 7
Sheikh 7
disappointments 7
Shar@@ 7
She@@ 7
agre@@ 7
Dare 7
initi@@ 7
Applicant 7
Cusí 7
materialised 7
sibly 7
ophobia 7
power@@ 7
perv@@ 7
Om@@ 7
loy@@ 7
orchestrated 7
re; 7
shad@@ 7
abstentions 7
fix@@ 7
X 7
proportionally 7
Nation 7
assassinations 7
Father 7
variables 7
circumvent 7
tough@@ 7
fortunes 7
Kreissl-Dörfler 7
pas 7
wit 7
Franco 7
inflammatory 7
hasten 7
countenance 7
riding 7
rab@@ 7
ousing 7
Den@@ 7
deri@@ 7
dispensing 7
demago@@ 7
Franc@@ 7
resurgence 7
dium 7
posturing 7
fragility 7
icity 7
hosp@@ 7
legitim@@ 7
prepares 7
sibilities 7
stranger 7
Partly 7
businesspeople 7
tolls 7
macrofinancial 7
UCK 7
Save 7
ALTENER 7
sna@@ 7
poisonous 7
vate 7
necessitate 7
hi-@@ 7
Speroni 7
monopolised 7
ba 7
discourse 7
1930s 7
resur@@ 7
als; 7
foul 7
upsurge 7
adherents 7
PR 7
copied 7
Decourrière 7
time-scale 7
downgraded 7
50-@@ 7
reck@@ 7
Actions 7
dow 7
collabor@@ 7
sixteenth 7
integra@@ 7
enrichment 7
stifling 7
break-up 7
reinvent 7
2000-2005 7
salvation 7
itting 7
millimetre 7
fs 7
re-read 7
lau@@ 7
fres@@ 7
sor 7
1994-1999 7
communitise 7
rela@@ 7
lining 7
diffuse 7
phr@@ 7
floodgates 7
thorn 7
shoddy 7
close@@ 7
tribu@@ 7
104 7
Rhine 7
borderline 7
basins 7
Drafting 7
inserting 7
gestation 7
Easter 7
electr@@ 7
A-@@ 7
warehouse 7
CS@@ 7
ès 7
hinted 7
equalisation 7
extraction 7
drunk 7
aying 7
hydrological 7
Lapland 7
perpetuated 7
parks 7
turing 7
break-@@ 7
gently 7
all-powerful 7
Decentralisation 7
fine-@@ 7
eries 7
literary 7
affirmation 7
deli@@ 7
Brit@@ 7
pol 7
Mul@@ 7
disgusting 7
refocus 7
$ 7
cane 7
Elf 7
physics 7
minus 7
curve 7
fifths 7
1960 7
ope 7
selfish 7
landmine 7
capsul@@ 7
ep 7
trans-@@ 7
neoliberal 7
reigns 7
Jan 7
Clar@@ 7
itories 7
cordi@@ 7
persecu@@ 7
Protestants 7
verging 7
re-admission 7
disquieting 7
embassy 7
ual 7
filing 7
hat@@ 7
entrenched 7
º 7
vetoed 7
turn@@ 7
Conditions 7
main@@ 7
Pon@@ 7
Nagor@@ 7
parag@@ 7
RA@@ 7
inauguration 7
associating 7
capitalise 7
deputies 7
after-@@ 7
emphases 7
affinity 7
pouring 7
normalisation 7
aggreg@@ 7
string@@ 7
una 7
ushers 7
Olle 7
ve; 7
exploded 7
Successful 7
countered 7
rubber 7
Luxembour@@ 7
geo@@ 7
repugnant 7
neutr@@ 7
wed 7
deploring 7
1929 7
abandonment 7
spying 7
pandemic 7
New@@ 7
unto 7
ric@@ 7
extern@@ 7
127 7
ancestors 7
wake-up 7
blacklist 7
disgust 7
dos 7
digging 7
PC 7
uttered 7
daughters 7
rep@@ 7
Bertel 7
disconcerting 7
LA 7
North-@@ 7
Grozny 7
shel@@ 7
Rus@@ 7
eu@@ 7
rocket 7
lea@@ 7
OC@@ 7
Use 7
shedding 7
representativeness 7
circular 7
inadvertently 7
ser 7
Gillig 7
amply 7
Dane 7
án 7
regretting 7
admired 7
AB@@ 7
Ir@@ 7
connecting 7
Sintra 7
radi@@ 7
confrontations 7
awa@@ 7
dding 7
associates 7
brigade 7
lined 7
peril 7
Meetings 7
intimately 7
motherhood 7
stereotypes 7
councillors 7
reviving 7
infer@@ 7
blankets 7
bereft 7
aided 7
Price 7
ment-related 7
persisting 7
observes 7
amb@@ 7
certi@@ 7
elapse 7
Reliable 7
diseased 7
Patric@@ 7
tale 7
centi@@ 7
Bearing 7
heeded 7
conserving 7
untreated 7
eff@@ 7
quickest 7
regained 7
Solutions 7
ods 7
vir@@ 7
Institution 7
expedite 7
Ries 7
irreversibly 7
Steps 7
aters 7
dispens@@ 7
symbolism 7
predominant 7
vastly 7
cyberspace 7
micro-enterprises 7
portfolios 7
Ci@@ 7
Anybody 7
Analy@@ 7
hec@@ 7
Investments 7
graduated 7
Kare@@ 7
2000-2001 7
Loyola 7
slow@@ 7
swifter 7
assignment 7
truism 7
Tackling 7
fish@@ 7
numbering 7
passively 7
indul@@ 7
Feder@@ 7
fools 7
duc@@ 7
ts@@ 7
Queiró 7
vege@@ 7
pretence 7
Loc@@ 7
Revolution 7
lumped 7
cruise 7
illusory 7
defensible 7
eagerness 7
forego 7
formers 7
Kozloduy 7
TO@@ 7
1999/@@ 7
Tro@@ 7
baff@@ 7
Eco-@@ 7
pulp 7
faction 7
cellulose 7
6-@@ 7
Objectives 7
ECE 7
furn@@ 7
aspi@@ 7
crowded 7
colli@@ 7
So-called 7
diest 7
breaching 7
nine-year 7
ti 7
fiftieth 7
infants 7
forbi@@ 7
deported 7
strife 7
rable 7
illuminating 7
suicides 7
thy 7
child-@@ 7
unch 7
self-satisfaction 7
prosaic 7
prides 7
philosopher 7
uel 7
Debates 7
le; 7
but@@ 7
imitation 7
logo 7
composting 7
diluted 7
Incre@@ 7
oughs 7
latent 7
displeasure 7
aternity 7
deep-rooted 7
ome@@ 7
incite 7
divorced 7
fingerprinting 7
chequer 7
surgeons 7
135 7
pair 7
renegotiate 7
global@@ 7
Union-@@ 7
Cabeza 7
colleges 7
coding 7
ink@@ 7
ago@@ 7
ically-@@ 7
suppressing 7
tarian 7
Habs@@ 7
injecting 7
4/2000 7
Aircraft 7
Diseases 7
containment 7
pseudo 7
unsettled 7
Alternative 7
secretly 7
tent 7
Border 7
crossings 7
sellers 7
tise 7
colon@@ 7
pen 7
dressing 7
hes 7
peas 7
free@@ 7
Ol@@ 7
Treasury 7
shire 7
AT 7
forestall 7
dead@@ 7
ests 7
fast-@@ 7
shaky 7
manoeuvring 7
Hushkits 7
differed 7
evading 7
Basin 7
disbursement 7
fati@@ 7
grated 7
owns 7
ans; 7
Supporting 7
Activity 7
07 7
Healthy 7
thrifty 7
plucked 7
year-@@ 7
itorial 7
rife 7
barred 7
Cau@@ 7
will@@ 7
5th 7
contravened 7
Well@@ 7
ington 7
emanates 7
consortium 7
ert 7
inviolability 7
citing 7
deceiving 7
Embr@@ 7
conser@@ 7
shameless 7
wine-@@ 7
broadens 7
paedophile 7
organism 7
ridic@@ 7
Parents 7
pimps 7
dem@@ 7
hem@@ 7
beautifully 7
trauma 7
ignorant 7
Respon@@ 7
lically 7
insistent 7
unchecked 7
unheard 7
ethyl@@ 7
Eth@@ 7
umbs 7
stomach 7
stores 7
139 7
Improvement 7
ite@@ 7
145 7
Set@@ 7
self-critical 7
ram 7
specul@@ 7
axes 7
Post@@ 7
monarchy 7
mornings 7
politely 7
SCR 7
faulty 7
Spinelli 7
dges 7
Gab@@ 7
passages 7
trustworthy 7
overhauled 7
informally 7
reallocate 7
voicing 7
untrammelled 7
iding 7
character@@ 7
modernity 7
Wol@@ 7
emanate 7
enterprising 7
dece@@ 7
amed 7
clichés 7
Anti@@ 7
Colon@@ 7
feeble 7
reproached 7
Banning 7
confiscate 7
tedness 7
dialysis 7
chron@@ 7
300@@ 7
Cabinet 7
Shetland 7
ong@@ 7
recapit@@ 7
reform@@ 7
cross-pollination 7
gamb@@ 7
thankful 7
pollen 7
organ@@ 7
Meat 7
whole-herd 7
at-risk 7
go-@@ 7
gau@@ 7
anisation 7
long-established 7
super-State 7
communists 7
uck 7
alley 7
overloading 7
pathogens 7
insure 7
Da@@ 7
Knowing 7
cutting-edge 7
indecent 7
gation 7
materially 7
Europh@@ 7
Envoy 7
congested 7
hacking 7
Emergency 7
sub-regional 7
tinkering 7
conting@@ 7
euphemis@@ 7
illed 7
longevity 7
old-age 7
Allowing 7
full-@@ 7
levying 7
curiosity 7
AC 7
moot 7
solvency 7
drives 7
bankers 7
French@@ 7
Meijer 7
practic@@ 7
legislated 7
cool@@ 7
imag@@ 7
militaristic 7
resolves 7
cont@@ 7
bail 7
separatist 7
presses 7
rigged 7
8th 7
Shui-bian 7
Democra@@ 7
226 7
Pesälä 7
Cutting 7
breakfast 7
nutri@@ 7
commissioner 7
leaflets 7
editors 7
plum@@ 7
circus 7
posure 7
sul@@ 7
nomin@@ 7
Pass 7
tail@@ 7
drifting 7
hailed 7
schedules 7
clean@@ 7
induced 7
Alitalia 7
Passengers 7
Airlines 7
mother@@ 7
secretari@@ 7
ambivalent 7
out-of-court 7
Speed 7
fast-moving 7
Industrial 7
ressing 7
undervalued 7
normality 7
Tonight 7
merging 7
Gaz@@ 7
SEK 7
appreci@@ 7
trademarks 7
Parallel 7
motivating 7
Shor@@ 7
stealing 7
deduced 7
bod@@ 7
ha 7
ace@@ 7
abolishes 7
amped 7
Process@@ 7
anchoring 7
hire 7
spurious 7
chip 7
bode 7
bishop 7
translators 7
Markus 7
cognisance 7
glaring 7
plaintiff 7
investig@@ 7
Brother 7
Expectations 7
sacking 7
pas@@ 7
Creutzfeldt-Jakob 7
t-and-@@ 7
gated 7
narrow@@ 7
valu@@ 7
exempts 7
270 7
aberration 7
squeeze 7
conju@@ 7
Churchill 7
Consolid@@ 7
inspecting 7
crashes 7
revitalisation 7
fundamentals 7
non-nuclear 7
radioactivity 7
amid 7
Elsewhere 7
techno@@ 7
swallowed 7
aw 7
fast@@ 7
Participation 7
Exchange 7
Mechanism 7
CP@@ 7
Policies 7
Canc@@ 7
MDC 7
power-@@ 7
lawlessness 7
servers 7
Law@@ 7
220 7
button 7
Sab@@ 7
Myanmar 7
auctioned 7
ami 7
unexpectedly 7
Desama 7
Trying 7
FR@@ 7
141 7
mas 7
nurse 7
Garaud 7
retabled 7
dig 7
transcri@@ 7
dispu@@ 7
uted 7
Town 7
thu@@ 7
ath@@ 7
sisters 7
chase 7
watertight 7
resuming 7
understatement 7
ampu@@ 7
cleverly 7
theast 7
smashed 7
north@@ 7
-minded 7
magazines 7
Charleroi 7
referee 7
handbook 7
drug-related 7
exempli@@ 7
procure 7
exaggerate 7
bacteria 7
126 7
shipowner 7
swim 7
millimetres 7
carpetshells 7
super 7
frighten 7
take-over 7
Bergamo 7
ú@@ 7
ht 7
Brie 7
uation 7
kicking 7
rea@@ 7
crow@@ 7
heroin 7
preposterous 7
adver@@ 7
mast 7
second-rate 7
consolidates 7
leaked 7
haunt 7
vol@@ 7
18/@@ 7
terrestrial 7
italisation 7
Traditional 7
caller 7
mobiles 7
wire 7
reintroducing 7
reflex 7
accountant 7
Sp@@ 7
Gyllen@@ 7
Der@@ 7
EE@@ 7
biogas 7
redirect 7
expended 7
signify 7
ghost 7
Restrictions 7
Across 7
Howard 7
Radicals 7
Hardly 7
Gusinsky 7
cam@@ 7
heavy-handed 7
meted 7
thes 7
downgrading 7
phon@@ 7
eye-@@ 7
disgu@@ 7
Facility 7
hesitated 7
fanatics 7
mirage 7
oci@@ 7
brevity 7
self-defence 7
teller 7
half-yearly 7
misfortune 7
proudly 7
Anita 7
framework-@@ 7
well-organised 7
poignant 7
compe@@ 7
shu@@ 7
monious 7
Small@@ 7
cohab@@ 7
aggravating 7
glim@@ 7
mers 7
Cha@@ 7
inv@@ 7
23@@ 7
IACS 7
flat-rate 7
sit@@ 7
Addiction 7
drug@@ 7
Treatment 7
multidimensional 7
bling 7
Activities 7
complainant 7
prudently 7
dict@@ 7
Lake 7
ho 7
boil 7
cow@@ 7
small-@@ 7
notaries 7
hoped-for 7
Nic@@ 7
menu 7
broad@@ 7
Mitterrand 7
Charles 7
Pasqua 7
ught 7
Interestingly 7
Tsvangirai 7
condemnations 7
aground 7
clandestine 7
EURO@@ 7
alogues 7
Louis 7
Private 7
ET@@ 7
rou@@ 7
hydroelectric 7
forgiven 7
tist 7
onic 7
quantum 7
revive 7
To@@ 7
iring 7
inception 7
one-sidedly 7
alluded 7
presumed 7
Senegalese 7
harmfulness 7
spearheaded 7
unleash 7
disrepute 7
calf 7
ories 7
Trade@@ 7
06 7
maj@@ 7
Watch 7
Enschede 7
case; 7
School 7
157 7
schooling 7
vis 7
Eurosceptic 7
pass@@ 7
with@@ 7
issues; 7
Modernisation 7
ast-@@ 7
decimated 7
sanctioning 7
146 7
turmoil 7
Buffet 7
demon@@ 7
curing 7
outlawed 7
irrit@@ 7
tol 7
Corporation 7
4-@@ 7
side-effects 7
headphones 7
shor@@ 7
interlocutor 7
hop@@ 7
thrombosis 7
edifying 7
reinvigoration 7
politicisation 7
Ju@@ 7
orphaned 7
relentlessly 7
Ah@@ 7
non-compulsory 7
DS 7
Ed@@ 7
vivid 7
prompting 7
optimist 7
formulas 7
hybrid 7
razed 7
viewers 7
chancell@@ 7
faiths 7
Arabic 7
enlightenment 7
textbook 7
victories 7
offend 7
pillaging 7
Order 7
Sprint 7
dispe@@ 7
ita 7
consen@@ 7
grandiose 7
clone 7
umbled 7
arer 7
ro 7
lawnmowers 7
ick 7
kerosene 7
clear@@ 7
noise-@@ 7
cler@@ 7
sportspeople 7
arouses 7
footballing 7
Cou@@ 7
Wal@@ 7
py@@ 7
pragmatism 7
calcul@@ 7
vil@@ 7
organ 7
Temelín 7
Nepal; 7
accuses 7
discernible 7
Mawdsley 7
á 7
ata 7
kidnapping 7
Tireless 7
ouse 7
ultimat@@ 7
cau@@ 7
folly 7
mediating 7
marathon 7
barrels 7
gate 7
seeker 7
friction 7
proph@@ 7
prop 7
Rs 7
attraction 7
Terrorist 7
murdering 7
them@@ 7
ration 7
pronouncement 7
job-@@ 7
12-@@ 7
reaffirming 7
aks 7
dissip@@ 7
Basques 7
ling@@ 7
taxable 7
wasteful 7
ashed 7
ranking 7
rejoin 7
backlogs 7
phasing-in 7
sper@@ 7
undisputed 7
Ori@@ 7
manag@@ 7
defiance 7
hearted 7
salaried 7
2002-2006 7
resear@@ 7
70s 7
elk 7
kitchens 7
27@@ 7
dless 7
expen@@ 7
averaging 7
expan@@ 7
ston@@ 7
enne 7
[...]
