#version: 0.2
t h
th e</w>
i n
r e
t i
a n
e n
o n</w>
o n
e r
i s</w>
t o</w>
o u
a r
o r
o f</w>
r o
e d</w>
i s
a t</w>
in g</w>
an d</w>
i n</w>
a l
e s</w>
i t
e r</w>
o m
s i
a t
ti on</w>
a l</w>
m en
l y</w>
l i
e c
h a
v e</w>
th at</w>
s t
T h
a n</w>
o r</w>
a c
p ro
i c
s u
n o
e s
w h
p o
e n</w>
i l
l e
c on
th is</w>
u s
f or</w>
b e</w>
d e
l e</w>
t s</w>
l d</w>
a tion</w>
men t</w>
ar e</w>
a s
w e</w>
a s</w>
b e
p e
r i
om m
p or
u r
no t</w>
r a
u n
o p
ti on
ou ld</w>
i t</w>
c i
e l
Th e</w>
a b
ha ve</w>
re s
a d
e x
a g
d i
f or
en t</w>
u ro
E uro
ou n
th e
er e</w>
C omm
c e</w>
u l
s h
i m
it h</w>
il l</w>
v er
l o
e m
w ill</w>
w ith</w>
si on</w>
t a
it y</w>
c om
n e
k e</w>
at e</w>
ic h</w>
wh ich</w>
si d
tion s</w>
ha s</w>
q u
Comm is
a y</w>
g h
us t</w>
s o</w>
Euro pe
v i
t er
Europe an</w>
o l
W e</w>
ou r</w>
m e
al l</w>
b y</w>
M r</w>
m e</w>
f f
t e
po s
b u
por t</w>
t r
t ed</w>
w or
u c
a r</w>
Commis sion</w>
th er</w>
m a
e v
re sid
a p
f i
m ust</w>
ti ve</w>
ou t</w>
p ar
i on</w>
s e</w>
w ould</w>
er s</w>
ti c
m o
P resid
al so</w>
re c
s e
s t</w>
sh ould</w>
t o
I t</w>
d s</w>
c h
an t</w>
em b
g e
al ly</w>
p l
re n
Th is</w>
o w
po li
g o
on e</w>
men ts</w>
Presid ent</w>
d is
a i
be en</w>
ab le</w>
es e</w>
st r
c oun
ro m</w>
p ec
U n
o u</w>
re g
f rom</w>
t ing</w>
es s</w>
c y</w>
li a
or e</w>
c o
at es</w>
P ar
w as</w>
a m
por t
c an</w>
c e
t er</w>
f e
ou r
t ur
ver y</w>
t ri
m ore</w>
an y</w>
y ou</w>
un d
I n</w>
lia ment</w>
a tions</w>
u m
gh t</w>
p er
Par liament</w>
d o</w>
pro pos
g r
bu t</w>
for e</w>
it s</w>
p res
c omm
re port</w>
k ing</w>
c er
u s</w>
S t
emb er</w>
no w</w>
li ke</w>
th ere</w>
th ese</w>
ar y</w>
t h</w>
v e
t u
s o
s a
d o
f in
g i
y e
a m</w>
c l
t w
d ing</w>
Un ion</w>
t e</w>
tion al</w>
on s</w>
m in
p re
us e</w>
t en
es s
C oun
k e
ci l</w>
si b
im port
s ti
Coun cil</w>
ti es</w>
su p
d uc
c h</w>
an ce</w>
re d</w>
v o
in g
p r
p u
h e
g e</w>
p e</w>
men d
d u
con t
ou s</w>
i r</w>
h i
ec on
l a
o ther</w>
t y</w>
ev er</w>
s om
ab out</w>
f u
at ed</w>
v es</w>
St ates</w>
g en
c re
n a
M ember</w>
wh at</w>
d ed</w>
the ir</w>
o b
f ac
po in
is su
wor k</w>
w i
j ec
m s</w>
the y</w>
r e</w>
ne ed</w>
d e</w>
re fore</w>
o d</w>
t ly</w>
m y</w>
p le
g u
Euro pe</w>
d ec
ci al</w>
n o</w>
' s</w>
men t
le g
is e</w>
re s</w>
import ant</w>
tri es</w>
at e
coun tries</w>
ff ic
ow ever</w>
g h</w>
m ar
ti me</w>
b ec
ar d</w>
p en
the refore</w>
m on
v el
s er
ag re
op le</w>
or d
ta ke</w>
on ly</w>
as t</w>
a in
ai d</w>
cl u
w el
u p</w>
d ay</w>
qu es
an s
pro b
in ter
c an
i c</w>
tic al</w>
i es</w>
w ay</w>
pe ople</w>
a re
poli cy</w>
de b
s el
st e
wi th
con cer
i r
t ra
il ity</w>
tur e</w>
fi r
e ve</w>
k s</w>
di rec
as e</w>
Th at</w>
b o
th ing</w>
g re
su b
al s</w>
prob le
en ce</w>
v er</w>
de vel
ma ke</w>
c es</w>
i f</w>
sup port</w>
is h</w>
sib le</w>
pro g
E U</w>
p on
a use</w>
an s</w>
na tional</w>
ne w</w>
p ri
c le
c r
a y
s ec
ac e</w>
si on
ag e</w>
h o
ce p
t ec
f o
ou gh</w>
W h
s pec
ol u
g n
for m
te e</w>
v ed</w>
em p
l ar
ad e</w>
o se</w>
un ity</w>
c ess</w>
in to</w>
p le</w>
wh o</w>
r s</w>
devel op
be li
a d</w>
ap pro
su re</w>
com e</w>
is h
re ad
v en
ar ly</w>
po si
Th ere</w>
a mend
deb ate</w>
ow n</w>
som e</w>
res pon
m ade</w>
l l</w>
m at
p li
op er
w ere</w>
s it
m an
en ti
ra p
issu e</w>
r on
be ing</w>
poin t</w>
e en</w>
0 0
c ri
st an
s ed</w>
a u
econ om
ur e</w>
Commis sion
propos al</w>
al l
gh ts</w>
ff ec
tw een</w>
v ing</w>
m any</w>
su ch</w>
v is
be tween</w>
concer n
ar s</w>
vi e
l in
pro duc
w e
th in
sti tu
ge t</w>
th an</w>
tr ans
ren t</w>
beli eve</w>
at ing</w>
poli tical</w>
it tee</w>
s y
ver n
Commission er</w>
ta k
u e</w>
es t</w>
e ment</w>
fir st</w>
can not</w>
bec ause</w>
in te
tic ul
ti c</w>
c us
the m</w>
u r</w>
ing s</w>
par ticul
on g</w>
al is
j ust</w>
b li
ar i
und er
mo st</w>
f ic
it e</w>
p a
h ere</w>
ac h</w>
t or
A s</w>
dec is
do es</w>
mar ke
e st
f ul
op e</w>
read y</w>
B u
w ant</w>
ment al</w>
ex t</w>
th ose</w>
qu i
ain st</w>
re l
to o</w>
wh en</w>
e y</w>
a v
c our
s ay</w>
su m
tr y</w>
ques tion</w>
thin k</w>
ag ainst</w>
ra m
me a
u ation</w>
bli c</w>
ar ds</w>
in v
su l
2 00
ta in
e f
p s</w>
v ic
tw o</w>
fac t</w>
ch an
ac cep
ri ght</w>
vo te</w>
I n
or i
b er</w>
ab l
i ons</w>
pos sible</w>
h um
p ly</w>
al ready</w>
n ec
ord er</w>
sti ll</w>
m il
o ver</w>
reg ul
H owever</w>
vie w</w>
g y</w>
dis cus
b as
ti ves</w>
ha d</w>
c ur
C on
M rs</w>
pu blic</w>
a in</w>
ri ghts</w>
uc h</w>
tak en</w>
bu d
ex am
d ra
c ould</w>
in cre
ff e
con sid
ye ars</w>
re as
res s</w>
e ffec
s aid</w>
pl ace</w>
d ic
lo w
s pe
sit uation</w>
sa me</w>
for m</w>
t re
prog ram
ou p</w>
ye ar</w>
ad op
vi ron
in form
go vern
su res</w>
cour se</w>
k now</w>
spec i
i ti
it ed</w>
d ly</w>
go od</w>
in ci
an is
th en</w>
cont in
fu ture</w>
ta in</w>
s en
str uc
c lo
ay s</w>
n um
h ope</w>
fu l</w>
wh y</w>
en s</w>
ev en</w>
olu tion</w>
with in</w>
or ity</w>
an k</w>
pec t</w>
oun d</w>
leg is
cle ar</w>
y ing</w>
direc tive</w>
lo w</w>
h ar
wh ere</w>
in clu
a st
m is
par t</w>
mea sures</w>
ho w</w>
to day</w>
v en</w>
h owever</w>
f ra
econom ic</w>
amend ments</w>
en cy</w>
m i
ac c
por te
wel l</w>
y our</w>
som e
oper ation</w>
fin an
di ffe
pro vi
rap porte
so cial</w>
proble m</w>
ac tion</w>
se e</w>
pro ce
posi tion</w>
e t</w>
ti z
ci tiz
marke t</w>
ac hi
m uch</w>
re e</w>
Bu t</w>
er al</w>
t en</w>
jec t</w>
as s
develop ment</w>
si ons</w>
re f
sh i
re qui
de mo
pres en
st s</w>
k ed</w>
c ase</w>
h is</w>
com pe
en viron
pro cess</w>
coun try</w>
I f</w>
b r
al ity</w>
om e</w>
hum an</w>
ic al</w>
e i
pr inci
pro tec
ac k</w>
im ple
m en</w>
i a</w>
en d</w>
in stitu
as k</w>
b le</w>
c u
e d
ou s
Comm unity</w>
ac t</w>
emp lo
re sul
mat ter</w>
num ber</w>
a f
th r
u m</w>
emb ers</w>
Comm ittee</w>
on g
m es</w>
comm on</w>
pu t</w>
o c
ve l</w>
gre at</w>
Wh at</w>
inv ol
inform ation</w>
si gn
ne e
ste m</w>
are a</w>
nec ess
at er</w>
1 9
rapporte ur</w>
bo th</w>
pres ent</w>
ma j
im pro
ter s</w>
e ar
is t</w>
co operation</w>
l ast</w>
und er</w>
j o
leg al</w>
tri bu
A n
ffic i
gi ve</w>
h e</w>
me ans</w>
citiz ens</w>
n ing</w>
so ci
in iti
l ation</w>
f ar</w>
issu es</w>
be fore</w>
e ver
ou se</w>
sy stem</w>
t al
ob jec
m ay</w>
m it</w>
proble ms</w>
r u
lar ge
por ts</w>
is m</w>
is ed</w>
lo o
c or
ate ly</w>
agre ement</w>
tur al</w>
il l
ren ce</w>
r ic
ac ti
p an
ap pli
a tive</w>
c en
propos als</w>
exam ple</w>
ab ility</w>
le vel</w>
sel f</w>
th er
au th
ma in
f und
Th ese</w>
ha p
A mend
se t</w>
wor ld</w>
f ur
c ed</w>
su r
a il
ic e</w>
Th ey</w>
th ank</w>
N o
ti s
t able</w>
us ed</w>
per i
i de
or g
emplo y
necess ary</w>
sa fe
ul es</w>
e l</w>
r is
finan cial</w>
N o</w>
op in
ven tion</w>
o f
t or</w>
b i
wh e
com ple
t le
in ce</w>
sib ility</w>
ful ly</w>
cont ro
s p
comm it
H ouse</w>
ser vic
w er</w>
sh all</w>
in du
fi c</w>
h el
bud get</w>
in e</w>
ag ain</w>
w ays</w>
with out</w>
particul ar</w>
el ec
wh o
inter national</w>
fi ed</w>
fur ther</w>
gi ven</w>
ou ra
c ol
t ter</w>
ou t
f t</w>
program me</w>
l ess</w>
d ate</w>
tec h
in ten
d one</w>
P ro
en sure</w>
legis lation</w>
en ts</w>
large ment</w>
or y</w>
con clu
c ar
ffic ul
si m
M ad
di fficul
s econ
con sum
F or</w>
li on</w>
un i
al th</w>
spe a
su c
diffe rent</w>
ori ties</w>
reg ard</w>
lo c
el l
hi gh
in t
ous ly</w>
are as</w>
some thing</w>
l ong</w>
or s</w>
u p
ac k
ter r
v al
n al</w>
en d
ser i
est abl
g o</w>
op port
decis ion</w>
res pect</w>
me ly</w>
a w
ke y</w>
go ti
opin ion</w>
r an
concern ed</w>
f ol
st ar
ac y</w>
19 9
s m
gen tle
fe w</w>
compe ti
agre e</w>
en largement</w>
org anis
Mad am</w>
w ish</w>
gr oup</w>
t -
thr ough</w>
at t
si ve</w>
ex pres
ne goti
c a
f un
cer tain</w>
gentle men</w>
princi ple</w>
R e
go ing</w>
re at
ad ies</w>
o ver
w ard</w>
ur ity</w>
particul arly</w>
prog ress</w>
la w</w>
f av
wel come</w>
ac h
d er</w>
propos ed</w>
bas is</w>
res t</w>
om en</w>
ever y
M embers</w>
no w
consid er
ou ght</w>
sel ves</w>
an im
shi p</w>
me work</w>
chan ge</w>
incre as
g es</w>
con tribu
res olution</w>
adop ted</w>
qu ite</w>
en tly</w>
whe ther</w>
em s</w>
w ards</w>
Un ited</w>
A f
str y</w>
secon d</w>
u d
ma in</w>
c all
fe rence</w>
r ules</w>
in de
safe ty</w>
d ure</w>
inte re
ro le</w>
ef for
in d</w>
F in
th ree</w>
us ti
c ra
contin ue</w>
l an
i d
ci es</w>
an n
poin ts</w>
be tter</w>
ma king</w>
cer tain
for ward</w>
appro ach</w>
re ly</w>
l ong
ac coun
d es
u es</w>
employ ment</w>
n ext</w>
st and</w>
f re
th ough</w>
c ap
con di
me di
ve ly</w>
ro w
per s
it er
lin e</w>
ad di
w omen</w>
d er
O n
h al
s ing</w>
ex c
cle arly</w>
g ed</w>
l l
institu tions</w>
ter ms</w>
at ten
ex tre
t es</w>
di d</w>
min is
c ul
st ri
E U
t ary</w>
fra mework</w>
nee ds</w>
he alth</w>
wor king</w>
who le</w>
S o</w>
ad d
sub ject</w>
de al</w>
re a
protec tion</w>
t un
comm ittee</w>
fav our</w>
sec urity</w>
se e
regul ation</w>
f ish
de fin
k ers</w>
achi ev
str ate
stan d
con f
re ally</w>
Amend ment</w>
An d</w>
g n</w>
C h
p ul
re presen
terr or
ar m
pen d
indu stry</w>
gu ar
respon sibility</w>
li c
s ince</w>
p ur
i on
our ces</w>
sid e</w>
O n</w>
rec o
A l
li m
l adies</w>
ti ci
m er
import ance</w>
a mental</w>
ur ing</w>
un ic
il e</w>
accep t</w>
d own</w>
e qu
me e
hel p</w>
resul t</w>
mil lion</w>
A t</w>
ro w</w>
environ mental</w>
man ag
bec ome</w>
b en
af ter</w>
vis ion</w>
sec tor</w>
speci fic</w>
e p
to wards</w>
cri min
an ts</w>
an other</w>
i l</w>
ac tu
p rec
ear ch</w>
e very</w>
ric ul
ap pe
t om
al ways</w>
it self</w>
appro pri
St ate</w>
amend ment</w>
ag ricul
gr at
ro s
soci e
a si
ish ed</w>
enti al</w>
ai r</w>
reas on</w>
Y ou</w>
ge ther</w>
int ro
gr ation</w>
i d</w>
T ur
b er
n at
f e</w>
do m</w>
In ter
di vi
Presid ency</w>
th ir
mon ey</w>
te ly</w>
fo od</w>
sh or
ex is
rec ei
ord in
maj or</w>
M in
i li
str ic
re form</w>
grat ul
ch ar
st ate</w>
T reat
du ce</w>
produc ts</w>
servic es</w>
fol low
concern s</w>
con gratul
v ari
j usti
Treat y</w>
proce dure</w>
es sion</w>
EU R</w>
hal f</w>
demo cra
k now
pro mo
opport unity</w>
F ir
difficul t</w>
A r
ra ther</w>
i fic
certain ly</w>
to gether</w>
demo cr
cur rent</w>
guar an
govern ment</w>
it al</w>
d es</w>
tion ed</w>
b al
ta king</w>
seri ous</w>
gen eral</w>
th ings</w>
ch o
loo k</w>
is t
ch il
ti m
fin d</w>
ste p</w>
cur ren
ques tions</w>
lo b
G o
ex ten
G r
l ec
ffic e</w>
extre mely</w>
invol ved</w>
en er
vo ted</w>
t n
t ting</w>
contro l</w>
incre ase</w>
clo sed</w>
reco gn
G re
do cu
g in
str u
ab ly</w>
b us
posi tive</w>
concer n</w>
gu e</w>
bas ed</w>
achi eve</w>
com pan
for tun
s c
o w</w>
tra de</w>
condi tions</w>
s olu
pec i
st ain
wor ds</w>
provi de</w>
c ess
c oura
as es</w>
g row
d re
re al</w>
L et</w>
d y</w>
gre ater</w>
h er</w>
Gr oup</w>
accoun t</w>
consid er</w>
b ack</w>
w s</w>
lin es</w>
ye t</w>
ter m</w>
res ources</w>
men tioned</w>
ar ity</w>
se qu
on ce</w>
atten tion</w>
tor s</w>
ou b
socie ty</w>
trans port</w>
de m
ess ential</w>
c all</w>
decis ions</w>
alis ation</w>
av ail
g g
res earch</w>
t le</w>
f y</w>
we e
or row</w>
o ff
d uring</w>
e ach</w>
of ten</w>
l ed</w>
competi tion</w>
sm all</w>
st ate
sim ply</w>
aw are</w>
initi ative</w>
dec i
o p</w>
b ro
al o
ment ation</w>
fund amental</w>
i an</w>
t y
lar ge</w>
com b
democra tic</w>
es peci
el ess</w>
auth orities</w>
negoti ations</w>
O ur</w>
especi ally</w>
comm unic
o re
ve st
` `</w>
pe ace</w>
con stitu
l es</w>
democr acy</w>
ai rs</w>
S econ
vari ous</w>
n on
le ad
cen tr
fic ation</w>
an d
accep table</w>
e -
abl ed</w>
vi ol
tic le</w>
cr u
pro m
le ast</w>
tom orrow</w>
ener gy</w>
ben ef
ve ment</w>
compan ies</w>
fo re
ag es</w>
bus in
ff airs</w>
ec h
for ce</w>
bu il
trans pa
ti mes</w>
le ag
an g
h on
alo gue</w>
effec tive</w>
st ly</w>
t ation</w>
Fin ally</w>
can di
e ly</w>
fe el</w>
avail able</w>
re duc
op en</w>
an y
st er
M y</w>
ris k</w>
conf lic
in stru
exc ell
e ld</w>
th s</w>
g lob
Min is
star t</w>
inter nal</w>
t ext</w>
com es</w>
under stand</w>
jec ts</w>
tur n</w>
pos e</w>
p er</w>
min d</w>
ha ps</w>
divi du
ac cess</w>
th eless</w>
cr is
d ence</w>
col leag
b est</w>
maj ority</w>
hi gh</w>
ag end
ful l</w>
de f
lo g
al low</w>
thir d</w>
par tn
l and</w>
pl es</w>
o th
effor ts</w>
s olution</w>
m om
ffici ent</w>
Th e
objec tive</w>
l it
sign ific
in dividu
mer ic
k es</w>
imple mentation</w>
ha s
A meric
tici p
pr ac
up on</w>
jo in
fortun ately</w>
ad minis
Secon dly</w>
re ports</w>
appli c
environ ment</w>
tech no
n ess</w>
E n
ai r
objec tives</w>
agend a</w>
reas ons</w>
excell ent</w>
sy st
I s
T o</w>
su stain
tic ally</w>
op en
mat ters</w>
strate gy</w>
actu ally</w>
respon sible</w>
a ffec
intro duc
al i
ag o</w>
Con vention</w>
poli cies</w>
intere sts</w>
no thing</w>
program mes</w>
pec ts</w>
i al</w>
ad v
inte rest</w>
b ility</w>
in f
mee ting</w>
imple men
gr ou
g ing</w>
reg ar
reg ions</w>
di alogue</w>
li ght</w>
for ms</w>
fi eld</w>
stan ces</w>
par lia
congratul ate</w>
tor y</w>
dre n</w>
qu ality</w>
b ur
ren g
hap pen
di es</w>
en ough</w>
econom y</w>
ment ary</w>
A ll</w>
as ed</w>
in -
' '</w>
st reng
ex peri
ex pl
co ordin
ti vely</w>
pos ed</w>
Ar ticle</w>
d oub
to t
S we
tech n
m an</w>
inclu ding</w>
f le
prom ise</w>
pro f
f arm
r y</w>
appropri ate</w>
mon it
p h
k ind</w>
lit tle</w>
emp has
h and</w>
de al
grou ps</w>
gen er
mi ght</w>
ha ving</w>
e dom</w>
me th
terror ism</w>
call ed</w>
ai m</w>
vi ous</w>
ti al</w>
re ach
po wer</w>
li ber
e p</w>
rec ent</w>
manag ement</w>
impro ve</w>
chil dren</w>
candi date</w>
O ffice</w>
do ing</w>
mom ent</w>
e ments</w>
ur al</w>
the m
p ay
st ed</w>
concern ing</w>
pa red</w>
me an</w>
agricul tural</w>
discus sion</w>
curren tly</w>
long er</w>
ver s
hap p
el l</w>
d en</w>
t abled</w>
stand ards</w>
h ol
f ree</w>
s ing
g a
f am
them selves</w>
c ases</w>
produc tion</w>
com ing</w>
ans wer</w>
A u
s ci
mo ve</w>
Go vern
s or
re com
oth ers</w>
fish er
p as
fi ght</w>
sup por
li fe</w>
a im
y s</w>
pre v
de ta
br ing</w>
a k
e duc
or m
in vest
200 0</w>
cre ate</w>
Tur key</w>
pers on
x i
be half</w>
N ice</w>
po pul
M ar
requi re
pr is
an ted</w>
achiev ed</w>
l ing</w>
inde ed</w>
re le
am oun
lo gy</w>
en coura
S o
pr acti
s ha
nee ded</w>
o ds</w>
is ation</w>
all en
t ar
ch allen
par ties</w>
par ticip
l ack</w>
fin al</w>
er ship</w>
mon ths</w>
bud ge
al low
it ing</w>
fun ds</w>
On e</w>
u al</w>
si a</w>
p ast</w>
W ith</w>
M E
ou gh
i gn</w>
b ri
li gh
fre edom</w>
im p
b an</w>
le ad</w>
C har
reg ion</w>
p resid
p lo
1 2</w>
so li
li g
1 1</w>
resul ts</w>
g in</w>
pri ority</w>
tic s</w>
le t</w>
f el
ap er</w>
l at
reg ion
ri ed</w>
sing le</w>
j u
con nec
cont ext</w>
ma kes</w>
P o
develop ing</w>
b il
R us
ap ply</w>
C our
le d
S um
R i
p i
to o
pri v
pl ac
de mon
consum ers</w>
ci vi
f ail
Cour t</w>
ur o</w>
sa tis
cris is</w>
b asi
Char ter</w>
uni ties</w>
pl ay</w>
dra w
m it
ili ties</w>
en ces</w>
con tr
L i
h is
cru cial</w>
P al
our selves</w>
0 0</w>
tr ue</w>
s es</w>
mil it
ide a</w>
s pen
Govern ment</w>
ob ser
ass ess
st ing</w>
du e</w>
c ing</w>
ti l</w>
i tion</w>
im mi
po w
pli c
con fi
dra ft</w>
com promise</w>
Sum mit</w>
addi tion</w>
w ast
effec t</w>
as ked</w>
communic ation</w>
d en
co sts</w>
t ask</w>
re main
an t
A c
ne ver</w>
ther more</w>
se ver
commit ment</w>
syst ems</w>
ing ly</w>
Presid en
m or
as pects</w>
b an
agre ements</w>
region al</w>
se en</w>
ren cy</w>
wh ile</w>
non -
ei ther</w>
de ter
1 0</w>
w ar
practi ce</w>
A ffairs</w>
la tive</w>
ci r
rel ations</w>
loc al</w>
st age</w>
pro jects</w>
F ur
e le
d ang
N e
ac tions</w>
e f</w>
cor rec
agre ed</w>
con struc
at ory</w>
c ha
ab solu
state ment</w>
spea k</w>
in- Office</w>
The refore</w>
vo ting</w>
con sul
peri od</w>
vi ously</w>
re stric
ou th</w>
in dic
of f</w>
n ed</w>
vis ions</w>
techn ical</w>
g ra
regar ding</w>
speci al</w>
er ing</w>
dra w</w>
sever al</w>
i ght</w>
consum er</w>
transpa rency</w>
sh are</w>
B r
log ical</w>
every one</w>
qu ic
No s</w>
sen se</w>
requi red</w>
ex clu
adop t</w>
Presiden t-
an ti
sub si
grow th</w>
govern ments</w>
en g
G er
chan ges</w>
President- in-Office</w>
us ing</w>
organis ations</w>
m embers</w>
C o
ref er
individu al</w>
200 1</w>
suc cess</w>
st ates</w>
ra ised</w>
bo dy</w>
hi m</w>
sustain able</w>
per haps</w>
con s
ros s</w>
con sequ
a tives</w>
he ar
demon str
contribu tion</w>
ple ased</w>
cr iter
t ent</w>
re main</w>
inclu de</w>
exis ting</w>
de si
conflic t</w>
D i
prev ent</w>
le a
res ol
H e</w>
oura ble</w>
i ly</w>
vi ties</w>
k ly</w>
milit ary</w>
se ems</w>
con tain
e uro</w>
v ation</w>
wast e</w>
in ing</w>
Is ra
pl an</w>
educ ation</w>
co he
imp act</w>
no te</w>
in c
he ld</w>
or ing</w>
Fur thermore</w>
suc cess
ques t</w>
de red</w>
dis crimin
represen ta
follow ing</w>
al y
l ab
un til</w>
O f</w>
th an
s ol
Wh en</w>
T O</w>
D ec
wor ks</w>
du res</w>
de man
princi ples</w>
acti vities</w>
F ren
ten ce</w>
respon se</w>
ne t
m ul
join t</w>
every thing</w>
Q u
legis lative</w>
contin u
bal ance</w>
im um</w>
proce dures</w>
is ing</w>
a vo
st a
so on</w>
re pe
re la
cri tic
a de
har mon
inclu ded</w>
glob al</w>
al e</w>
S tr
at ors</w>
M on
pro visions</w>
w a
Fren ch</w>
ke ep</w>
stan ding</w>
l s</w>
fund ing</w>
w ar</w>
rel ation</w>
re qu
gen cy</w>
acc ession</w>
b order</w>
ac tive</w>
guaran tee</w>
soli d
s ch
inde pend
Amend ments</w>
e vi
provi ded</w>
servic e</w>
comple tely</w>
colleag ues</w>
car ried</w>
y -
pre pared</w>
l u
pre par
c are
en ing</w>
add res
Pal est
sit ting</w>
ref lec
re quest</w>
regul ations</w>
k en</w>
id enti
wor kers</w>
signific ant</w>
l is
T o
Con ference</w>
pro ject</w>
Af ric
p ay</w>
fo c
d at
benef it</w>
ab o
p at
P e
men tion</w>
wee k</w>
vic ti
presen ted</w>
expres sed</w>
en tr
ade qu
doub t</w>
l ist</w>
tak es</w>
ist ance</w>
recei ved</w>
add ress</w>
B ar
y oun
marke ts</w>
fle xi
busin ess</w>
anim al</w>
in no
s po
Fir stly</w>
h u
pl ay
farm ers</w>
y l
w ater</w>
le ar
ex pec
B el
establ ished</w>
discus sed</w>
direc tion</w>
st ance</w>
connec tion</w>
G en
e ful</w>
basi c</w>
too k</w>
ta x
budge tary</w>
ta x</w>
ro ad</w>
recom mend
p tion</w>
establ ish
quic kly</w>
foc us</w>
sa ying</w>
am p
a tional</w>
Fir st</w>
deter min
ho ld</w>
ge ts</w>
S ch
w ise</w>
su fficient</w>
st ability</w>
civi l</w>
lan gu
ste ad</w>
ough out</w>
tal k</w>
shor t</w>
er ous</w>
us es</w>
tal king</w>
im e</w>
cri me</w>
fisher ies</w>
ri gh
c ause</w>
S ep
m ember</w>
u t
00 0</w>
b on</w>
ac ts</w>
struc ture</w>
h an
criter ia</w>
com ment</w>
Ri ghts</w>
amoun t</w>
inte gration</w>
cir c
no on</w>
reach ed</w>
st at
nat ure</w>
com ments</w>
reg re
sci enti
an aly
youn g</w>
ar gu
sh ow
le ar</w>
dis h</w>
b our
ar ound</w>
Bu d
j ob
ter nal</w>
p ing</w>
ne i
expres s</w>
as yl
deci ded</w>
re ach</w>
popul ation</w>
poin ted</w>
n er</w>
docu ment</w>
F un
h ind</w>
str ong</w>
f air</w>
b l
sign ed</w>
read ing</w>
coordin ation</w>
1 5</w>
initi atives</w>
H ow</w>
effor t</w>
dis t
de leg
I s</w>
tre at
sh ow</w>
discus s</w>
cl ari
jo b</w>
el s</w>
presid ency</w>
clo se</w>
thr oughout</w>
require ments</w>
pre vious</w>
institu tional</w>
inte gr
pur su
po st
in ed</w>
e m</w>
prac tical</w>
po ver
t ember</w>
att emp
Sep tember</w>
Re g
dat a</w>
p ite</w>
job s</w>
mit ted</w>
ex cep
d ays</w>
be hind</w>
Minis ter</w>
lo t</w>
uc lear</w>
promo te</w>
ac ross</w>
o od</w>
ic es</w>
he ad</w>
d ent</w>
un acceptable</w>
rele v
implemen ted</w>
anim als</w>
adv ant
re fu
ess es</w>
L is
increas ed</w>
alis ed</w>
increas ing</w>
val ues</w>
in a</w>
sh e</w>
o t
guaran te
gr ound</w>
ec e</w>
I r
al though</w>
an c
val ue</w>
hon ourable</w>
br ought</w>
techno logy</w>
f ound</w>
v ity</w>
sc ope</w>
li ve</w>
devel op</w>
absolu tely</w>
W or
Palest in
confi dence</w>
asyl um</w>
le vel
im medi
fun c
consider able</w>
th y</w>
s -
p ed</w>
ec h</w>
viol ence</w>
is ely</w>
gi c</w>
com p
reg ards</w>
ob lig
ne w
hum an
fore ign</w>
fi ve</w>
diffe ren
cont ent</w>
appli es</w>
pover ty</w>
No w</w>
199 9</w>
he ad
L a
res pec
ru le</w>
rec ently</w>
mo der
f -
ex er
u ly</w>
mo de
w anted</w>
m ess
equ al</w>
dis e
S ome</w>
d -
pri orities</w>
F r
o ffici
m y
f our</w>
Lis bon</w>
con si
any thing</w>
requi res</w>
tu res</w>
d am
consi dered</w>
circ um
E C
led ge</w>
comm unity</w>
2 0</w>
he ard</w>
direc t</w>
bec om
appli ed</w>
experi ence</w>
con fir
E ast</w>
n uclear</w>
me et</w>
deta il
establ ish</w>
docu ments</w>
u tion</w>
I rel
st ud
justi ce</w>
Irel and</w>
tra ining</w>
con cep
re li
re ality</w>
po ll
ne t</w>
mo tion</w>
P er
M ore
t on
con v
co st</w>
as soci
ex pect</w>
conclu sions</w>
Un fortunately</w>
pro per
imple ment</w>
e qui
b rea
adminis tra
g ent</w>
h en
ev ents</w>
alis t</w>
addi tional</w>
ad d</w>
su gg
fac e</w>
char ge</w>
bi o
ve red</w>
pro mis
fish ing</w>
sib ilities</w>
re duce</w>
immi gration</w>
discus sions</w>
dem and</w>
200 2</w>
ti tu
hu ge</w>
em is
victi ms</w>
instru ment</w>
Di rec
t ell</w>
su g
protec t</w>
is es</w>
gen u
discrimin ation</w>
assess ment</w>
am ong</w>
5 0</w>
tr ation</w>
refu ge
mar k</w>
indu stri
f ri
o ld</w>
ari an</w>
applic ation</w>
st u
ex ternal</w>
elec tr
M ed
w ron
se ly</w>
monit oring</w>
meth od</w>
ex tent</w>
al ter
More over</w>
solid arity</w>
remain s</w>
cul tural</w>
ag rap
Swe dish</w>
propos e</w>
conclu sion</w>
auth ority</w>
al most</w>
Rus sia</w>
po ten
gi es</w>
In de
st ra
d le</w>
consequ ences</w>
Fr ance</w>
B o
le ft</w>
govern mental</w>
s on</w>
re view</w>
cap ac
pres sure</w>
prec isely</w>
d ri
oc ca
level s</w>
em er
at s</w>
es ti
d om
consider ation</w>
seri ously</w>
relev ant</w>
adequ ate</w>
w r
u ary</w>
pow ers</w>
j ud
su per
o d
ven ess</w>
st ated</w>
effec ts</w>
res er
al one</w>
vie ws</w>
e th
cor por
comm er
acc or
ye ster
ra dic
L e
H e
yester day</w>
U N</w>
ex ac
circum stances</w>
ass istance</w>
accep ted</w>
mat er
gu ide
elec tions</w>
sub stan
ar ri
str ong
it em</w>
instru ments</w>
e an</w>
p ack
con dem
ra ise</w>
ligh ted</w>
e t
acc ord
opport unities</w>
go es</w>
ear li
bal an
Th ir
refer red</w>
parlia mentary</w>
ur ally</w>
crimin al</w>
Af ter</w>
reas on
pre hen
ori gin
us sel
ul ation</w>
c ros
p t</w>
ver s</w>
out side</w>
tis h</w>
Br ussel
re forms</w>
my self</w>
tot al</w>
r ate</w>
ra ti
ord ers</w>
Brussel s</w>
v ital</w>
is ts</w>
ev al
t op
re ference</w>
pl ans</w>
know n</w>
appro ved</w>
P or
s is</w>
u te</w>
priv ate</w>
ty pe</w>
n or</w>
be gin</w>
P aper</w>
f lo
st op</w>
lim ited</w>
sel f-
over all</w>
develop ed</w>
pr ice</w>
invest ment</w>
alter na
I tal
s ound</w>
dis tribu
m ech
la be
be gin
s la
mea sure</w>
d i</w>
comple te</w>
challen ge</w>
ref er</w>
pre ven
N or
B ri
Au stri
ur ge</w>
t ack
su ff
in ation</w>
a way</w>
h ard</w>
as pect</w>
al ong</w>
abo ve</w>
P s</w>
tu al</w>
pur pose</w>
gre at
ac ks</w>
spea king</w>
requ est
ur gent</w>
off er</w>
lab our</w>
guide lines</w>
capac ity</w>
am bi
tra di
iter ran
Med iterran
ti veness</w>
success ful</w>
Mediterran ean</w>
D o
wor d</w>
se par
poli ce</w>
me dic
Bel gi
B al
th us</w>
long -
satis fac
ro o
pro cess
administra tive</w>
ris ks</w>
avo id</w>
Wh y</w>
t ro
mess age</w>
car ry</w>
Inde ed</w>
Americ an</w>
righ tly</w>
gi ving</w>
direc tly</w>
sum mit</w>
produc t</w>
sor t</w>
re ply</w>
scienti fic</w>
g er</w>
fol low</w>
wi de</w>
na mely</w>
develop ments</w>
allow ed</w>
suppor ted</w>
happ en</w>
at h</w>
s k
de st
alis m</w>
S pan
M any</w>
K o
si mil
than ks</w>
ci li
m u
deman ds</w>
u tes</w>
recei ve</w>
earli er</w>
dis ast
direc tives</w>
sen si
s anc
re jec
mech anis
acc o</w>
sp i
ic ally</w>
To day</w>
Por tu
spe ech</w>
requi re</w>
par ty</w>
speci fic
discus sing</w>
li mit</w>
al ise</w>
S E</w>
rel ated</w>
fel low</w>
des er
commit ted</w>
cili ation</w>
J o
wron g</w>
si z
it arian</w>
en ter
v al</w>
tr ying</w>
poten tial</w>
na tion
def ence</w>
dec lar
deal ing</w>
com prehen
on d</w>
mode l</w>
effec tively</w>
S ec
r ac
ann ual</w>
Bri tish</w>
draw n</w>
ate g
S ince</w>
s ession</w>
pos sibility</w>
ju dic
S u
le gi
e ffici
ac ci
titu de</w>
rel ating</w>
su s</w>
Span ish</w>
C entr
buil ding</w>
O s</w>
vi a</w>
pro per</w>
it ure</w>
fe ren
bil lion</w>
l ater</w>
es tion</w>
agricul ture</w>
Afric a</w>
l ay</w>
k er</w>
end or
difficul ties</w>
comb at</w>
ar ran
U S</w>
3 0</w>
pre ci
po or</w>
esti g
un anim
sh own</w>
representa tives</w>
e theless</w>
vo c
exer c
ne g
liber alisation</w>
Inter net</w>
Dec ember</w>
to b
st oc
f er
ex plo
B e
ex ist</w>
al loc
ste ps</w>
inv estig
clo sely</w>
w ants</w>
er n</w>
Po li
sec tors</w>
reg ime</w>
organis ation</w>
ha m
bro ad
b orders</w>
Par ty</w>
mor ning</w>
inten ded</w>
commit ments</w>
ME Ps</w>
M ay</w>
vers ity</w>
com pli
bur g</w>
W TO</w>
On ly</w>
w ill
pend iture</w>
pen s
affec ted</w>
per spec
com pl
ai l</w>
loo king</w>
begin ning</w>
flo or</w>
cre ation</w>
aim s</w>
cre ated</w>
correc t</w>
M id
tr an
tain ed</w>
tob acco</w>
pa ti
mul ti
independ ent</w>
d on
our s</w>
un fortunately</w>
se tting</w>
he ar</w>
for ces</w>
em o
conv in
me t</w>
de ath</w>
y ond</w>
v ol
ur s</w>
pro vision</w>
out come</w>
deci de</w>
cri tical</w>
agrap h</w>
th re
M o
thin king</w>
st ress</w>
person al</w>
n e</w>
ex penditure</w>
con duc
ther wise</w>
sup ple
fam ili
e arly</w>
ll ing</w>
g al</w>
ar ms</w>
Palestin ian</w>
th reat
pl an
encoura ge</w>
defin ition</w>
amp ai
Wor ld</w>
oun ds</w>
en orm
e asi
res olu
pro duce</w>
for ced</w>
fin ally</w>
exac tly</w>
cros s-
Mid dle</w>
te dly</w>
solu tions</w>
plac ed</w>
concep t</w>
I ra
struc tural</w>
specific ally</w>
sch em
partn ers</w>
balan ced</w>
addres sed</w>
Isra el</w>
c ampai
treat ment</w>
streng th
some times</w>
simil ar</w>
provi des</w>
il legal</w>
as ks</w>
ther n</w>
prob ably</w>
particip ation</w>
M a
ob viously</w>
mo vement</w>
i gn
happen ed</w>
P at
Ir ish</w>
st af
si x</w>
min imum</w>
in spec
cap ital</w>
adminis tration</w>
staf f</w>
recogn ise</w>
re turn</w>
lea ve</w>
introduc ed</w>
f er</w>
ev ent</w>
co vered</w>
te red</w>
t an</w>
men d</w>
ex per
col lec
tot ally</w>
ff ic</w>
be yond</w>
pre vention</w>
main ly</w>
ion -
ch ed</w>
pl en
impro ved</w>
Ger many</w>
in corpor
dis charge</w>
bro ad</w>
bo ard</w>
r ing</w>
on es</w>
his tor
des cri
de pen
Pro di</w>
tra ffic</w>
o -
cre ating</w>
c are</w>
N ever
produc ed</w>
Never theless</w>
high ly</w>
el se</w>
wh ose</w>
tran si
subsi di
s mo
f all
equ ality</w>
am b
alis ts</w>
t ings</w>
inform ed</w>
busin esses</w>
Thir dly</w>
Ko so
s in
organis ed</w>
legi tim
h ome</w>
Koso v
pen al
it ation</w>
f all</w>
analy sis</w>
R ules</w>
D an
c ateg
o s</w>
inter pre
enti re</w>
ap preci
th ought</w>
re ject</w>
langu age</w>
B er
sub mitted</w>
stat us</w>
proper ly</w>
oper ate</w>
me an
g en</w>
dra f
sanc tions</w>
p aid</w>
l -
v ations</w>
to co
toco l</w>
lim ate</w>
c al
w on
sub stances</w>
expl an
P u
sug ge
Gre ece</w>
Af gh
c at
wee ks</w>
t est</w>
d ers</w>
con ciliation</w>
ag ed</w>
t an
spea kers</w>
o il</w>
e tary</w>
su spen
jo in</w>
g rap
Swe den</w>
shi ps</w>
rela tion
pres s</w>
accor ding</w>
see m</w>
refuge es</w>
En viron
streng then</w>
re mo
re -
increas ingly</w>
W i
man ner</w>
g s</w>
w at
regre t</w>
re ad</w>
human itarian</w>
deal t</w>
cl as
as y</w>
A s
y ed</w>
si an</w>
pack age</w>
happ y</w>
gi ves</w>
f a
ef ly</w>
decis ion-
Gen eral</w>
us eful</w>
show s</w>
implemen ting</w>
h er
actu al</w>
ti me
f oun
f ec
de li
con centr
H a
tr ust</w>
sy m
respon d</w>
pr ices</w>
b ack
li ving</w>
in es</w>
emphas ise</w>
e fficient</w>
call s</w>
A gre
Reg ulation</w>
w it
terr it
la un
inf lu
reduc tion</w>
chan ged</w>
becom ing</w>
sur ance</w>
pos es</w>
convin ced</w>
flexi bility</w>
fam ily</w>
f ish</w>
te en</w>
re mind</w>
contain s</w>
consul tation</w>
Minis ters</w>
E ven</w>
sc ale</w>
appe ar</w>
w ish
lan ds</w>
know ledge</w>
impro vement</w>
di men
ve ments</w>
mis sion</w>
dise ase</w>
ch ec
aw a
sa ys</w>
re new
j our
c limate</w>
Americ a</w>
un e</w>
u d</w>
his tory</w>
en ed</w>
en able</w>
U K</w>
So ci
R es
Ch ina</w>
ri t</w>
per fec
pa in</w>
dang erous</w>
d ru
Afgh anis
co ver</w>
a vi
Afghanis tan</w>
stud y</w>
sa fe</w>
an tly</w>
a head</w>
t in
nat ural</w>
cul ture</w>
ta tions</w>
partn ership</w>
high er</w>
en cies</w>
con sen
comp any</w>
subsidi arity</w>
spi rit</w>
long- term</w>
A n</w>
th ous
main tain</w>
200 3</w>
respon sibilities</w>
l ate</w>
genu ine</w>
contribu te</w>
colleag ue</w>
c el
in fra
cre te</w>
sup ports</w>
sensi tive</w>
gen ce</w>
emis sions</w>
clo s
amb iti
S er
struc tures</w>
h op
deleg ation</w>
D ev
re present</w>
parlia ments</w>
ast ly</w>
Kosov o</w>
B y</w>
qu e</w>
e asy</w>
be ar</w>
pres sion</w>
in stead</w>
finan cing</w>
enorm ous</w>
dam age</w>
ate ful</w>
f ron
con crete</w>
u fac
no ise</w>
medi a</w>
g er
f ying</w>
cre di
ann ed</w>
Y et</w>
un able</w>
reason able</w>
par ts</w>
inten tion</w>
fi gu
critic ism</w>
ambiti ous</w>
s en</w>
deb ates</w>
arran ge
Pro ce
B SE</w>
sum m
li es</w>
bo o
at titude</w>
F e
rapporte urs</w>
l ess
gr ateful</w>
auth or
we ap
inten d</w>
d r
pro por
decision- making</w>
b eral</w>
Direc tive</w>
Bal k
1 3</w>
- up</w>
om s</w>
wh at
accord ance</w>
L astly</w>
A C
or ies</w>
figu res</w>
care fully</w>
alterna tive</w>
man ufac
enti rely</w>
consen sus</w>
Pe ople</w>
B ank</w>
intere sting</w>
fra ud</w>
cross- border</w>
E x
t t
sid es</w>
re mar
benef its</w>
acti vity</w>
m as
intro duce</w>
cho ice</w>
Agre ement</w>
ul ture</w>
suc ce
re member</w>
op posed</w>
li ves</w>
inter vention</w>
im possible</w>
ch ance</w>
ad s</w>
P ri
M ac
we ak
as king</w>
appe ars</w>
Proce dure</w>
wel l-
under standing</w>
um -
r ise</w>
b ia</w>
li min
du ty</w>
differen ces</w>
di versity</w>
M or
A m
li ke
exten d</w>
con ference</w>
b ed</w>
aim ed</w>
state ments</w>
mee tings</w>
com pens
ca used</w>
bo dies</w>
ad ded</w>
it able</w>
ill ed</w>
el op
provi ding</w>
in ding</w>
ele ments</w>
conclu de</w>
anti -
subsi dies</w>
re in
fri en
bri efly</w>
S pain</w>
t asks</w>
relation ship</w>
ge tting</w>
beli ev
O r
N ations</w>
Dev elop
p ic
nat urally</w>
ack now
prac tic
ide as</w>
comprehen sive</w>
K y
net works</w>
in s</w>
evi dence</w>
ann oun
J an
Inter national</w>
te le
pay ments</w>
ma tic</w>
impro ving</w>
f ru
clos er</w>
centr al</w>
m ed</w>
justi fied</w>
gr ants</w>
f l
e y
Al though</w>
on a</w>
exerc ise</w>
comple x</w>
D emo
2 5</w>
de gre
ar ing</w>
achiev ing</w>
T rea
Pro g
Centr al</w>
suppor ting</w>
sec u
ol er
me rely</w>
immedi ately</w>
il it
as su
ari ly</w>
H um
un employment</w>
terror ist</w>
s cho
resolu tions</w>
expec ted</w>
contr ary</w>
L adies</w>
Ac cor
strong ly</w>
fo cus
Wi th
Demo cr
sur ing</w>
ist ent</w>
deta il</w>
S uch</w>
C y
represen ts</w>
recogn ition</w>
in s
fi f
a tic</w>
T ra
propos es</w>
perspec tive</w>
d ents</w>
Trea ties</w>
recogn ised</w>
pers on</w>
effici ency</w>
ca me</w>
Th ose</w>
F i
wor ked</w>
re alis
n i
go ods</w>
r ying</w>
our ism</w>
na me</w>
meth ods</w>
construc tive</w>
bi g</w>
b or
ac qu
thre at</w>
substan tial</w>
emplo ye
st re
pris es</w>
introduc tion</w>
il o
ex pen
cel ona</w>
b inding</w>
Jan uary</w>
Bar celona</w>
ru n</w>
rec or
our ce</w>
ac e
- called</w>
sequ ently</w>
resol ved</w>
ow n
oc c
invol ving</w>
invol ve</w>
fun d</w>
construc tion</w>
1 4</w>
on ic</w>
net work</w>
S outh</w>
sen d</w>
r un
posi tions</w>
a ti
Re public</w>
sup ply</w>
sim ple</w>
qu ali
So cial</w>
Ira q</w>
vo tes</w>
tar gets</w>
s ent</w>
mo di
fe ar</w>
vi g
to ld</w>
competi tive</w>
Th en</w>
Pat ten</w>
so -called</w>
establish ing</w>
call ing</w>
J une</w>
Austri a</w>
Accor ding</w>
repe at</w>
lo s
it ors</w>
h and
fo o
des pite</w>
char ac
no ther</w>
n er
il s</w>
attemp t</w>
af ter
A nother</w>
wor k
tra ffic
dis pu
degre e</w>
b ad</w>
Hum an</w>
Environ ment</w>
lead ing</w>
lead ers</w>
grow ing</w>
for get</w>
c k
Wh ite</w>
Fun d</w>
F und
s al
poll ution</w>
judic ial</w>
g l
appropri ations</w>
an ds</w>
Tur k
Develop ment</w>
tion ary</w>
tain ing</w>
r ural</w>
de lighted</w>
contro ls</w>
O c
wish es</w>
transpa rent</w>
cohe sion</w>
buil d</w>
Poli cy</w>
Balk ans</w>
resol ve</w>
re st
ob vious</w>
g ain</w>
disast er</w>
N A
y n
manag ed</w>
re feren
origin al</w>
ol s</w>
nei gh
industri al</w>
N G
recommend ations</w>
institu tion</w>
h y
de fic
No v
J usti
tr u
ti n</w>
declar ation</w>
con ven
Per haps</w>
la ws</w>
har m
c ent</w>
D o</w>
tion ing</w>
detail ed</w>
comb ating</w>
bu rea
advant age</w>
vol un
ex port</w>
ap pl
ad ap
t em
high light</w>
d am</w>
coun ter
cont radic
medi um-
ex change</w>
di o
b it
a ffairs</w>
R u
Pu blic</w>
Justi ce</w>
C ham
shor t
produc ers</w>
ne l</w>
l aid</w>
follow ed</w>
fin e</w>
dimen sion</w>
bri ef</w>
whe re
star ting</w>
ma x
ad ver
Oc to
Mar ch</w>
pu bl
dest ro
defin ed</w>
de lay</w>
R om
Nov ember</w>
F rom</w>
sp ent</w>
n orm
fe ed</w>
Octo ber</w>
Fund amental</w>
Dan ish</w>
Cham ber</w>
weap ons</w>
si vely</w>
op h
influ ence</w>
gr anted</w>
dis ap
ac king</w>
Str uc
rejec ted</w>
reg is
harmon isation</w>
challen ges</w>
us h</w>
u su
por ted</w>
nei ther</w>
lo st</w>
con c
chil d</w>
ar ies</w>
Struc tural</w>
u ations</w>
propos ing</w>
ing dom</w>
fail ed</w>
as h
rap id</w>
o logical</w>
diffe rence</w>
Turk ish</w>
sm an</w>
par agraph</w>
h ic
es tions</w>
desi re</w>
sim pli
satisfac tory</w>
o to</w>
o ffice</w>
lim its</w>
de la
commer cial</w>
H ere</w>
neg ative</w>
de pend
c al</w>
199 8</w>
se ts</w>
om ic</w>
ob st
star ted</w>
pen sion</w>
ffe red</w>
dang er</w>
Ky oto</w>
E con
tu ally</w>
shi p
eval uation</w>
burea uc
bour g</w>
Do es</w>
2 0
th or
mon th</w>
im plic
glob alisation</w>
U S
Str as
K ingdom</w>
y a</w>
ser ve</w>
see k</w>
practic es</w>
cre d
Stras bourg</w>
Prog ram
reduc ed</w>
proce ed</w>
ing ing</w>
de ad
adop tion</w>
sec ure</w>
se a</w>
r ound</w>
con ver
Ch ris
ty p
plen ary</w>
la w
k a</w>
intere sted</w>
h or
an a</w>
Fun ds</w>
pu tting</w>
prof es
obst ac
happen ing</w>
gr ounds</w>
fac ing</w>
ve hic
reduc ing</w>
f ar
N or</w>
s ex
inter ven
initi al</w>
grap h
Ger man</w>
te es</w>
strate gic</w>
labe lling</w>
fac tor</w>
er y</w>
Ch ech
i ve</w>
go al</w>
endor se</w>
any one</w>
a red</w>
Belgi an</w>
spe ed</w>
ro r</w>
op position</w>
ill u
expl ain</w>
ch e
att acks</w>
sol ve</w>
great est</w>
ele ment</w>
oblig ations</w>
cu t</w>
att le</w>
D es
ver si
qu ot
cons istent</w>
certain ty</w>
appe al</w>
inclu des</w>
e ded</w>
compe tence</w>
b ab
J uly</w>
prec au
mu tual</w>
integr ated</w>
wor th</w>
exam ples</w>
Isra el
C ol
4 0</w>
t ou
sta tis
rel ates</w>
n or
infra structure</w>
elec ted</w>
curren cy</w>
co -
ca uses</w>
200 4</w>
ra il
poli tici
max imum</w>
fail ure</w>
arrange ments</w>
al le
Portu gu
A gr
require ment</w>
mater ial</w>
compl ain
ad voc
O b
Agr ic
stand ard</w>
pro spec
op pos
neigh bour
fi gh
exis tence</w>
electr onic</w>
continu ing</w>
Portugu ese</w>
ver age</w>
st ood</w>
pas s</w>
particip ate</w>
gen e
for th
cen t
Program me</w>
under min
traffic king</w>
stan ds</w>
separ ate</w>
see king</w>
safe gu
No t</w>
who m</w>
p ha
like ly</w>
g ers</w>
employe es</w>
Econ omic</w>
open ing</w>
ll ed</w>
contribu tions</w>
tri ed</w>
tre ated</w>
ev ening</w>
S a
Inter governmental</w>
Des pite</w>
tack le</w>
promo ting</w>
T r
Cy pr
Am ster
val u
t al</w>
lin k</w>
conflic ts</w>
C A
uni vers
pre ad</w>
invol vement</w>
equi p
ag ing</w>
S e
wr it
realis tic</w>
on ia</w>
enter prises</w>
Europe ans</w>
suspen ded</w>
qu anti
p un
ep ing</w>
de signed</w>
Cypr us</w>
ver y
siz ed</w>
clari fy</w>
Rus sian</w>
NA TO</w>
La e
Amster dam</w>
tu re
n s</w>
ing u
i ans</w>
am ic</w>
E very
vic e</w>
por ting</w>
por ary</w>
man date</w>
form er</w>
fin ance</w>
c k</w>
at eral</w>
Lae ken</w>
In stead</w>
ri es</w>
gener ally</w>
f ail</w>
F or
wel com
play ed</w>
know s</w>
en suring</w>
c y
1 6</w>
happen s</w>
ga ve</w>
di gn
welcom ed</w>
offici al</w>
oc cu
lo gies</w>
hear t</w>
ec ause</w>
commit tees</w>
campai gn</w>
B ecause</w>
ori gin</w>
occa sions</w>
mo ving</w>
forth coming</w>
en ter</w>
constitu tion</w>
com ply</w>
Pri me</w>
ser ies</w>
im ag
cons is
1 8</w>
re alise</w>
will ing</w>
tar get</w>
st res
h und
de e
b loc
an ia</w>
poli tics</w>
op tion</w>
me at</w>
impro vements</w>
fir stly</w>
f are</w>
er ation</w>
appro val</w>
M ore</w>
si gn</w>
ran ge</w>
moder n</w>
com par
an ces</w>
vie w
sur pr
sum ed</w>
sugg est</w>
sit uations</w>
monit or</w>
medium- sized</w>
e ding</w>
constitu tional</w>
ans w
om e
non etheless</w>
exten ded</w>
ac ted</w>
ob tain</w>
m emb
ce ment</w>
br inging</w>
ast ern</w>
satis fied</w>
guarante es</w>
fac ilit
en jo
com plic
citiz en</w>
al co
v ative</w>
tr uly</w>
s ources</w>
quali fied</w>
person ally</w>
invol ves</w>
histor ic</w>
contin ues</w>
consum ption</w>
Pro tocol</w>
G M
s ou
le tter</w>
go t</w>
credi bility</w>
b ar
ac eful</w>
NG Os</w>
ther lands</w>
ta tive</w>
in surance</w>
flexi ble</w>
fac tors</w>
competi tiveness</w>
argu ment</w>
Ne therlands</w>
Bo th</w>
won der</w>
vis ed</w>
ur s
reach ing</w>
plan ning</w>
per man
P act</w>
Jo h
A ud
suff ering</w>
lin ked</w>
ff s</w>
establish ment</w>
e ing</w>
Z im
Ne w</w>
G i
C om
t led</w>
oc cur
guarante ed</w>
con vention</w>
ap pa
adop ting</w>
Sec urity</w>
perfec tly</w>
oblig ation</w>
mon o
He alth</w>
wor se</w>
stoc ks</w>
spo ke</w>
sib ly</w>
s ource</w>
reflec t</w>
pu bli
mechanis ms</w>
lo se</w>
fac ts</w>
be ings</w>
ad ly</w>
Gre en</w>
volun tary</w>
ul tim
thous ands</w>
some what</w>
ex emp
employ ed</w>
d ings</w>
bud sman</w>
S ol
F ra
200 6</w>
politici ans</w>
low er</w>
lear n</w>
ha gen</w>
exclu sion</w>
conduc t</w>
wa it</w>
t ex
sp ace</w>
pen sions</w>
in come</w>
exis ts</w>
continu ed</w>
and -
affec t</w>
af for
writ ten</w>
us h
penal ty</w>
in t</w>
figh ting</w>
ex ec
cu st
bur den</w>
On ce</w>
A d
vi r
t ourism</w>
gr ant</w>
exam ine</w>
emphas is</w>
dru gs</w>
compens ation</w>
c ally</w>
ac ting</w>
Qu estion</w>
Mac ed
D en
w in
plo y
l er</w>
d ates</w>
cri mes</w>
brea k</w>
F ood</w>
wi de
time table</w>
tal ks</w>
profes sion
pris on
offici als</w>
implic ations</w>
he al
fi g
ain ed</w>
Au th
Agric ulture</w>
z one</w>
se t
schem e</w>
ra il</w>
po l</w>
memb ership</w>
immedi ate</w>
ic s</w>
comm unities</w>
vis it</w>
t ren
recommend ation</w>
im pose</w>
er r
equ ally</w>
condi tion</w>
charac ter
at or</w>
ar t</w>
Y u
L am
pas sed</w>
ou ble</w>
go sla
es tim
cour t</w>
att ack</w>
alco ho
pli es</w>
om en
no ti
leg ally</w>
g one</w>
fac ed</w>
emb ly</w>
distribu tion</w>
consis ten
Yu gosla
Th urs
N i
Ber l
su ffici
struc tion</w>
spo ken</w>
sm all
re iter
pri l</w>
no ted</w>
ev en
W ill</w>
A pril</w>
roo m</w>
pl om
in stance</w>
Tr ans
precau tionary</w>
opin ions</w>
il ing</w>
expres sion</w>
b it</w>
assu me</w>
as sure</w>
acci dents</w>
Ital y</w>
Auth ority</w>
sen sible</w>
request ed</w>
ra ble</w>
h ouse</w>
fig ure</w>
elec tion</w>
detail s</w>
ar dis
D u
C an</w>
Aud itors</w>
u gh
tem porary</w>
tax ation</w>
respec ted</w>
manufac ture
ir man</w>
farm ing</w>
Zim bab
O m
th u
sign al</w>
emer gency</w>
appro ve</w>
ab il
1 7</w>
regul atory</w>
prec ise</w>
lin ed</w>
ke t</w>
dis tor
confir m</w>
chan ging</w>
c ou
ab ol
typ es</w>
ke pt</w>
famili es</w>
demonstr ate</w>
Thurs day</w>
E C</w>
Con sum
ten ces</w>
pas sen
b ly</w>
St ability</w>
tra ge
sec re
s ;</w>
lear ning</w>
co decision</w>
at u
ac i
H el
Den mark</w>
wel fare</w>
v an</w>
immi grants</w>
han ds</w>
enti tled</w>
di plom
P P
Ital ian</w>
G u
E m
19 8
pro ved</w>
pro of</w>
org an
n u
in adequate</w>
fir m
Wh ere</w>
remar ks</w>
promis es</w>
pow er
ploy ment</w>
n ation</w>
large ly</w>
langu ages</w>
ir a</w>
cra ft</w>
argu ments</w>
ag encies</w>
S to
Res earch</w>
Gre e
sugge sted</w>
publi c
in form</w>
ch es</w>
Min utes</w>
representa tive</w>
reli gi
pri m
pay ment</w>
p are</w>
p aper</w>
form ul
easi er</w>
ag ency</w>
V i
Ru le</w>
Euro pol</w>
A ra
spen ding</w>
so le
s port</w>
ple ase</w>
fe el
et c</w>
en de
demonstr ated</w>
x im
ur gency</w>
tur ned</w>
ordin ary</w>
oper ations</w>
ke eping</w>
illu str
i gh
gra du
gen tly</w>
experi en
exc es
br ings</w>
ach es</w>
Om budsman</w>
L an
C le
is tic</w>
ed oms</w>
deser ves</w>
d a</w>
coura ge</w>
Chris ti
Br it
th ly</w>
pur poses</w>
pres ence</w>
pers ons</w>
ish ing</w>
K ore
F ore
1 00</w>
ti ally</w>
ten ed</w>
tele vision</w>
supple mentary</w>
pl anned</w>
open hagen</w>
o therwise</w>
inten ds</w>
fisher men</w>
e limin
com pati
Joh ann
C openhagen</w>
represen ted</w>
re vision</w>
inno vation</w>
il st</w>
head ing</w>
dist inc
contain ed</w>
ch ing</w>
be ef</w>
announ ced</w>
w arm
strength ening</w>
st er</w>
im pression</w>
ende av
care ful</w>
after noon</w>
Israel i</w>
Fin land</w>
su rely</w>
prepar ing</w>
pre -
open ness</w>
man age</w>
m ing</w>
individu als</w>
ge ment</w>
f air
Bud gets</w>
v acc
stric t</w>
promis ed</w>
p ill
moder n
m a</w>
lan tic</w>
ic ity</w>
fi l</w>
conclu des</w>
con tain</w>
categ ory</w>
b ase</w>
appreci ate</w>
ag ue</w>
L ast</w>
tur ing</w>
pre pare</w>
min utes</w>
lat ter</w>
high -
determin ation</w>
deb t</w>
Le gal</w>
A gency</w>
sha red</w>
restric tions</w>
pro ve</w>
oppos ite</w>
ong st</w>
o logy</w>
li ability</w>
legitim ate</w>
eth n
encoura ging</w>
dign ity</w>
concentr ate</w>
am ongst</w>
a ment
Johann es
Chech n
C O
pursu e</w>
poin t
oper ators</w>
occa sion</w>
num erous</w>
mon etary</w>
f il
ex tr
es tic</w>
compli ance</w>
par t-
li ons</w>
co t
N on
L u
Johannes burg</w>
Fore ign</w>
Cle arly</w>
Chechn ya</w>
AC P</w>
techno logies</w>
renew able</w>
fund ament
func tion</w>
exten sive</w>
draw ing</w>
believ es</w>
sub stance</w>
re action</w>
produc tive</w>
p ass
oper ational</w>
mechanis m</w>
im posed</w>
alcoho l</w>
ad vice</w>
M e
under taken</w>
tru th</w>
or al</w>
negoti ating</w>
minis ters</w>
fel t</w>
contin ent</w>
consider ations</w>
Bud get</w>
ver sion</w>
to p</w>
protec ting</w>
protec ted</w>
o l</w>
n ations</w>
clas si
A re</w>
wa iting</w>
suffici ently</w>
occ o</w>
lat est</w>
conclu ded</w>
amoun ts</w>
S E
Gree k</w>
tis ing</w>
rac ism</w>
prec ed
norm al</w>
lead s</w>
dic t
ari a</w>
answ ers</w>
Zimbab we</w>
Tra de</w>
Or g
Mor occo</w>
univers al</w>
sel ec
promo tion</w>
off ers</w>
n ight</w>
l ap
equip ment</w>
descri bed</w>
under stood</w>
un ion</w>
tra ding</w>
qu o
ob li
mater i
i ed</w>
du m</w>
def end</w>
ch em
associ ation</w>
acti vely</w>
B ur
tur y</w>
pres er
perman ent</w>
on ing</w>
ed ings</w>
defin e</w>
cohe rent</w>
tra gic</w>
top ic</w>
th en
syst em
re v
pe op
pe aceful</w>
k i</w>
gu i
exper ts</w>
ex tra
ex ports</w>
c au
be ha
a k</w>
With out</w>
wor l
valu able</w>
s ory</w>
r ich</w>
min ority</w>
independ ence</w>
ill s</w>
hol ding</w>
f f</w>
expec tations</w>
en vis
d ro
com pared</w>
a verage</w>
V er
I I</w>
un less</w>
tra vel</w>
o red</w>
m outh</w>
l eng
consider ing</w>
condem n</w>
can d
Sto ck
D e
vehic les</w>
sex ual</w>
publ ished</w>
pu rely</w>
proce edings</w>
necess arily</w>
fir m</w>
decis ive</w>
confir med</w>
communic ations</w>
O therwise</w>
Maced onia</w>
Brit ain</w>
ur gently</w>
refer ring</w>
ra tic</w>
evi dent</w>
dom estic</w>
consider ably</w>
char ges</w>
acqu is</w>
the re
territ ory</w>
r oun
prim ary</w>
go als</w>
firm ly</w>
alloc ated</w>
ab use</w>
C ar
ty -
tradi tional</w>
process es</w>
peop les</w>
mo d
mo bility</w>
mar ily</w>
la d</w>
high est</w>
gi ble</w>
ethn ic</w>
cl aim</w>
ve re
signific ance</w>
sa w</w>
pill ar</w>
ne ws</w>
it ely</w>
en han
cap able</w>
applic ant</w>
S he</w>
succe ed</w>
si ght</w>
religi ous</w>
recor d</w>
re sumed</w>
oper ating</w>
modi fied</w>
mis take</w>
cen tury</w>
ad ju
un necessary</w>
tax es</w>
obstac les</w>
ad ing</w>
a tically</w>
Org anis
t oler
pul sory</w>
pri marily</w>
ne ver
g lad</w>
ful fil</w>
co de</w>
centr e</w>
ali ties</w>
x ed</w>
tex ts</w>
stan tly</w>
sor ry</w>
great ly</w>
awa ren
Ser bia</w>
Go then
Con sequently</w>
2 4</w>
ren tly</w>
poli tically</w>
o ffic
mi d
he av
form ing</w>
dis pos
d yn
back ground</w>
an ting</w>
P ol
Gothen burg</w>
As s
8 0</w>
ti mis
th res
rap i
plac es</w>
or ation</w>
har dly</w>
form al</w>
effec tiveness</w>
c ore</w>
wor ding</w>
sub jects</w>
statis tics</w>
sci ence</w>
rela tively</w>
pl ants</w>
hol m</w>
explan ation</w>
Stock holm</w>
S i
Al low</w>
vi our</w>
stu ffs</w>
exten sion</w>
di ff
a ff
z e</w>
p ra
h ours</w>
com pulsory</w>
appl ying</w>
amend ed</w>
absolu te</w>
abl es</w>
Afric an</w>
ter ing</w>
te sts</w>
pro hi
over come</w>
ou d</w>
never theless</w>
main tained</w>
h un
govern ance</w>
emb ar
con stantly</w>
buil t</w>
Soci alist</w>
D E</w>
C or
y er</w>
stu dies</w>
request s</w>
rec y
pro s
play ing</w>
ph en
mar ked</w>
high lighted</w>
di a</w>
dela ys</w>
au tom
Nor th</w>
Al ban
A F</w>
199 7</w>
ge o
electr icity</w>
desi rable</w>
de liber
at ure</w>
affec ts</w>
Non etheless</w>
An y</w>
2 2</w>
- European</w>
what ever</w>
t elec
safegu ard</w>
r ates</w>
li ghts</w>
k in
determin ed</w>
c ro
b arri
advant ages</w>
a po
W est
S im
GM Os</w>
Berl in</w>
2 3</w>
tion ally</w>
than king</w>
so vere
run ning</w>
qu ar
medic ines</w>
introduc ing</w>
en for
emphas ised</w>
c hap
beha viour</w>
I ts</w>
us ers</w>
t ari
sta ke</w>
sin ki</w>
s even</w>
quot as</w>
ful f
constitu te</w>
Hel sinki</w>
pi ece</w>
en ding</w>
br uary</w>
I G
H i
Fe bruary</w>
6 0</w>
trans fer</w>
strate gies</w>
se where</w>
qu al
me ant</w>
Th ank</w>
Presid ents</w>
Portu gal</w>
tur ning</w>
ref ers</w>
pat ent</w>
la red</w>
fre qu
easi ly</w>
de struction</w>
consid ers</w>
b lo
b ers</w>
at tr
air craft</w>
T ime</w>
Is l
x emb
w ent</w>
uni form</w>
st -
respec tive</w>
re d
oun d
obser vations</w>
o g
ger ia</w>
Lu xemb
Belgi um</w>
A sia</w>
ver se</w>
sub mit</w>
sp here</w>
s ligh
identi fied</w>
func tioning</w>
excep tion</w>
di ed</w>
cred it</w>
cont act</w>
co operate</w>
Ob viously</w>
Fra mework</w>
Fin an
incorpor ated</w>
comple ted</w>
US A</w>
S cot
Li beral</w>
Ha ving</w>
C F
B i
suff er</w>
sub sid
pros per
phen omen
pha se</w>
laun ched</w>
in ary</w>
awaren ess</w>
Luxemb our
L AF</w>
IG C</w>
D uring</w>
Commission ers</w>
2 1</w>
y es</w>
sym pa
sur vi
re move</w>
profession al</w>
post pon
ple a
par tly</w>
manufacture rs</w>
m oun
int el
fu el</w>
el ds</w>
Sol ana</w>
M al
F ri
C ri
tro l</w>
smo king</w>
regul ar</w>
invest ments</w>
indic ated</w>
fin ding</w>
es day</w>
el sewhere</w>
difficul ty</w>
D ut
ultim ately</w>
te sting</w>
prepar ation</w>
post al</w>
hop es</w>
ai ly</w>
1 9</w>
vo ice</w>
s cand
reser vations</w>
im ports</w>
f la
di g
de par
coun t</w>
c op
appro xim
who le
terror ists</w>
ter ri
si l
mar i
is ol
heal thy</w>
frien ds</w>
fall s</w>
dispos al</w>
con ce
complic ated</w>
cho ose</w>
c ar</w>
associ ated</w>
see ing</w>
referen dum</w>
produc ing</w>
process ing</w>
plea sure</w>
min orities</w>
mari time</w>
il e
econom ies</w>
dom in
comm un
allow s</w>
Organis ation</w>
usu al</w>
su red</w>
schem es</w>
restric ted</w>
rapi dly</w>
propor tion</w>
loo ked</w>
famili ar</w>
exam ined</w>
es sions</w>
deser ve</w>
cou ple</w>
ar re
W ell</w>
N at
Luxembour g</w>
I m
Dut ch</w>
sur roun
recy cl
prepar ations</w>
pat h</w>
lis ten</w>
fu els</w>
fortun ate</w>
f our
eth ical</w>
commer ce</w>
civi li
ar ding</w>
adv ance</w>
Y our</w>
Un der</w>
F is
EC H
we red</w>
und oub
ten ing</w>
t on</w>
spen d</w>
sion ers</w>
oph ob
op timis
er ies</w>
avi ation</w>
acci dent</w>
O LAF</w>
E -
Con stitu
B ro
trage dy</w>
ru ption</w>
jour n
exec u
dec l
b ing</w>
am es</w>
Sec re
wat ers</w>
tis ation</w>
ne ar</w>
materi als</w>
fron t</w>
e ty</w>
dise ases</w>
deb ating</w>
de als</w>
d aily</w>
bil ateral</w>
becom es</w>
Qu estions</w>
A t
ey e</w>
environ ment
depend ent</w>
depen d</w>
decl are</w>
compe tences</w>
compati ble</w>
ac cus
V ic
2 8</w>
undoub tedly</w>
super vision</w>
summ er</w>
recom mend</w>
pli ed</w>
op pose</w>
men ding</w>
ins ist</w>
fu sion</w>
form ed</w>
facilit ate</w>
depen ds</w>
correc tly</w>
ar ise</w>
acknow led
ach ed</w>
W omen</w>
S h
R o
tic les</w>
omm unic
o rest</w>
h om
fair ly</w>
exces sive</w>
a tion
The ir</w>
S lo
Finan cial</w>
wr iting</w>
vis i
techno logical</w>
st able</w>
s tic
in ely</w>
ar d
adver tising</w>
acknow ledge</w>
Yugosla via</w>
West ern</w>
T w
Mo st</w>
vis ory</w>
re construction</w>
po orest</w>
li beral</w>
foun d
follow -up</w>
fif teen</w>
f al
draf ting</w>
defin i
co ast
ac ked</w>
S ev
S ME
Mon etary</w>
F our
strength ened</w>
spea ker</w>
socie ties</w>
short com
prog res
mas sive</w>
m ur
identi fy</w>
eval u
cre ates</w>
cohe rence</w>
blo od</w>
ass ess</w>
Sa fe
stru gg
shortcom ings</w>
ou l
mor al</w>
main taining</w>
fe wer</w>
ex ce
contr acts</w>
basi cally</w>
b a</w>
Li ke</w>
Gi ven</w>
Em ployment</w>
199 6</w>
ul ner
stres sed</w>
preven ting</w>
pos sibly</w>
out standing</w>
op s</w>
ne u
in ev
g est</w>
avo i
ap art</w>
K ar
2 7</w>
v il
unanim ously</w>
re struc
re min
pe fully</w>
partn er</w>
inten tions</w>
govern ing</w>
fore most</w>
en ophob
defic it</w>
cha in</w>
budge ts</w>
all ing</w>
SME s</w>
E astern</w>
Ass embly</w>
7 0</w>
what so
sole ly</w>
sla ugh
s cen
remain ing</w>
ori al</w>
on e-
los s</w>
inno vative</w>
harm ful</w>
ga p</w>
frien dly</w>
eng en</w>
distribu ted</w>
cl ause</w>
b s</w>
allow ing</w>
V an</w>
Sch engen</w>
J ust</w>
Fis ch
C er
whatso ever</w>
wel comes</w>
transi tional</w>
shor t-
op tions</w>
defin itely</w>
ci pl
b ra
b all</w>
Safe ty</w>
Euro -
under ing</w>
th -
sol ved</w>
regul ated</w>
reco very</w>
pre fer
power ful</w>
justi fy</w>
i ous</w>
h im
fre edoms</w>
for um</w>
de p
bi gg
E very</w>
B ul
wi der</w>
v ulner
t- and-
see ks</w>
s si
prison ers</w>
ommunic ations</w>
marke ting</w>
issu ed</w>
inc in
genu inely</w>
g y
extr a</w>
ci g
car rying</w>
addres sing</w>
abl ing</w>
Fi f
C u
wit n
ti se</w>
ro ads</w>
investig ation</w>
interpre tation</w>
fle et</w>
employ ers</w>
emb r
dee ply</w>
ar ti
a side</w>
T a
0 s</w>
- scale</w>
wh ilst</w>
ver ing</w>
thor ough</w>
men ted</w>
l ying</w>
indic ators</w>
incre di
draf ted</w>
dis cipl
collec tive</w>
c ell
air ports</w>
H ar
G al
wide ly</w>
whole hear
v it
ta min
sec ution</w>
obser vation</w>
man i
low ing</w>
industri es</w>
fe der
ex pan
ei ght</w>
EC B</w>
Consum er</w>
x th</w>
warm ly</w>
too l</w>
sugg estion</w>
spe ech
signific antly</w>
min ute</w>
eng age</w>
ban ks</w>
worl d
scho ol</w>
s co
pre viously</w>
penal ties</w>
par liament</w>
o ffered</w>
le ase</w>
is on</w>
i g
gen der</w>
fra id</w>
fi elds</w>
deb ated</w>
compe tent</w>
ben e
a fraid</w>
a -
Nat urally</w>
ti gh
negoti ation</w>
mi gration</w>
jud g
j ur
j e
inclu sion</w>
identi ty</w>
heav y</w>
fo res
er ror</w>
dig ital</w>
cl arity</w>
b om
ab and
T un
Con trol</w>
3 1</w>
un ited</w>
t-and- mouth</w>
stri ke</w>
small er</w>
reflec ted</w>
rati fied</w>
rati fication</w>
hon our</w>
ha z
en ta
elec tor
deli ver</w>
campai gn
c ars</w>
b ound</w>
ab s
In du
stoc k</w>
re ven
pos sibilities</w>
part- session</w>
open ed</w>
inf r
in o</w>
him self</w>
ex plic
Y es</w>
La tin</w>
F ed
D A</w>
Bud ge
Americ ans</w>
x enophob
tren d</w>
top ical</w>
st ant</w>
speech es</w>
s wi
remo ved</w>
mil lions</w>
lar gest</w>
hol ds</w>
g as</w>
fi es</w>
ex ic
dep th</w>
d ouble</w>
cap it
are t
ab ilities</w>
Par lia
M exic
He ads</w>
CA P</w>
C ould</w>
Bu rea
3 7</w>
ul ed</w>
treat y</w>
tradi tion</w>
t ell
sti pul
sou thern</w>
rest ore</w>
num bers</w>
la undering</w>
j un
hel ping</w>
foun ded</w>
finan ced</w>
exclu ded</w>
en try</w>
do w</w>
der og
W ould</w>
En gl
B as
z er
ti vity</w>
ti tions</w>
success fully</w>
reiter ate</w>
mo re
me al</w>
k illed</w>
enti ally</w>
d own
clari fication</w>
are r</w>
a me</w>
T amp
PP E-
Fisch ler</w>
y m
world wide</w>
with draw</w>
war ning</w>
to w
telec ommunications</w>
tax pay
tal ked</w>
s cru
res pects</w>
pri or</w>
pl us</w>
feel ing</w>
far -
exten ding</w>
en tered</w>
constitu tes</w>
citiz en
as tic</w>
Wh ile</w>
PPE- DE</w>
M an
Christi an</w>
wor st</w>
wor rying</w>
siz e</w>
sh e
s em
regre t
pre fer</w>
mil k</w>
imag ine</w>
h a</w>
en ded</w>
ec ological</w>
congratul ating</w>
barri ers</w>
ate dly</w>
accord ingly</w>
ac cur
Mar ket</w>
Hi gh</w>
F re
F ish
ut most</w>
spec ies</w>
sligh tly</w>
pic ture</w>
passen gers</w>
foo t-and-mouth</w>
coordin ated</w>
conver gence</w>
com pon
cho sen</w>
chec k</w>
b ul
applic ations</w>
Vic e-
Tamp ere</w>
Palestin ians</w>
O ther</w>
Every one</w>
C a
A gen
sup posed</w>
ri d</w>
re ment</w>
more over</w>
im pe
hel ped</w>
dyn amic</w>
disast ers</w>
Burea u</w>
su itable</w>
scru tin
prosper ity</w>
p ped</w>
ou red</w>
obli ged</w>
ist an</w>
focus ed</w>
contro lled</w>
con tamin
cal cul
au d
ambi tion</w>
abs ence</w>
U N
P lease</w>
EU -
uni fication</w>
ul t</w>
tr ack</w>
ti ous</w>
surpr ised</w>
min al</w>
form ation</w>
f ast</w>
bene fic
agre es</w>
acc es
tw en
gu n</w>
explo itation</w>
cor respon
ar rest</w>
appe ared</w>
an ticip
Kore a</w>
Democr ats</w>
Budge tary</w>
m ach
dispu te</w>
de ep
cig aret
b re
attemp ts</w>
O ver</w>
M c
Engl ish</w>
will ing
view ed</w>
sustain ability</w>
restruc turing</w>
pro tocol</w>
pay ing</w>
lead ership</w>
condem ned</w>
b our</w>
arm ed</w>
Su rely</w>
R ec
Indu stry</w>
Agen da</w>
- based</w>
ó n</w>
willing ness</w>
vulner able</w>
satisfac tion</w>
g ol
fo ot
experien ced</w>
en lar
e uro
categ ories</w>
E ri
witn ess
thu si
s pread</w>
re ds</w>
person nel</w>
ori en
ir y</w>
interven e</w>
inspec tion</w>
hear ing</w>
harmon ised</w>
deman ding</w>
ap ers</w>
As soci
tu red</w>
scho ols</w>
repe atedly</w>
recycl ing</w>
play ers</w>
organ ise</w>
n one</w>
mas s</w>
je op
excep tions</w>
e ts</w>
dri ving</w>
dec lared</w>
cor ruption</w>
con solid
co vers</w>
ans wered</w>
ac ies</w>
viol ations</w>
unanim ity</w>
un fortunate</w>
sh oc
s pr
s low</w>
ri g
phenomen on</w>
on going</w>
legitim acy</w>
in sufficient</w>
in st
i re</w>
geo graph
ev a</w>
ess els</w>
deleg ations</w>
con ser
ap p
Gen eva</w>
G e
Austri an</w>
we ak</w>
v ings</w>
t ance</w>
sti mul
inter institutional</w>
en thusi
don e
do or</w>
citizen ship</w>
c le</w>
c ity</w>
ar ticle</w>
Rom ania</w>
J ap
E gy
ur ban</w>
secre t</w>
re vised</w>
r it
prospec ts</w>
pr oud</w>
over -
neu tr
li gence</w>
expen sive</w>
encoura ged</w>
doub ts</w>
d ol
coun ter</w>
con fusion</w>
cle arer</w>
ci vil
T i
Sim il
N ational</w>
Fish eries</w>
D P</w>
Bro k</w>
v essels</w>
un fair</w>
surroun ding</w>
st abil
sp ir
mo tions</w>
l acking</w>
inf lation</w>
gr anting</w>
destro yed</w>
cris es</w>
conf ron
b anned</w>
ab stain
In done
D S</w>
Associ ation</w>
5 00</w>
st ages</w>
sha res</w>
s ev
res h</w>
ref use</w>
ph y
mo ved</w>
ill ing</w>
hy po
fe ed
complain ts</w>
ad mit</w>
Wh o</w>
S ta
Re presen
M us
Inter nal</w>
Col om
An y
2 6</w>
transi tion</w>
sur ve
st ay</w>
see kers</w>
refuge e</w>
ra ises</w>
peri ods</w>
nation als</w>
n a</w>
li c</w>
f is
et tering</w>
do c
con vic
bureauc ratic</w>
bureauc r
alis ing</w>
affor d</w>
accoun ts</w>
ac tors</w>
Po ettering</w>
M u
Ir an</w>
Fri day</w>
En largement</w>
ECH O</w>
Cri minal</w>
Ac tion</w>
y r
tre a
to -
t a</w>
su m</w>
shor tly</w>
re place</w>
pu ts</w>
poin ting</w>
mean ing</w>
lin ks</w>
li ance</w>
i m</w>
fri end</w>
ei j
ad ic
Eri ka</w>
E qu
C an
un certainty</w>
s son</w>
regar ded</w>
r ant</w>
par alle
ne arly</w>
lig ion</w>
le y</w>
la me</w>
disap pointed</w>
dis cre
cha irman</w>
ch i
T E
S ome
P ak
N either</w>
ton n
occu p
histor ical</w>
em ed</w>
di vision</w>
cour ts</w>
ambi gu
W est</w>
H er
H ence</w>
Dec lar
wholehear tedly</w>
unanim ous</w>
thres hold</w>
there by</w>
t i</w>
ste in</w>
sk ills</w>
sec tion</w>
requ is
rele ase</w>
rel ate</w>
ob tained</w>
no body</w>
loo ks</w>
laun ch</w>
il ed</w>
fra g
fe a
f ers</w>
extre me</w>
ess entially</w>
consul ted</w>
bec ame</w>
atu res</w>
alloc ation</w>
adju st
M ol
B ush</w>
su ffered</w>
reser ve</w>
re ve
pre mi
per su
on -
hund red</w>
en h
z ens</w>
undermin e</w>
th ers</w>
terri ble</w>
st or
sovere ign
sign s</w>
set tle
rail way</w>
ra ising</w>
ha bit
emis sion</w>
determin e</w>
dead line</w>
d um
con ten
alterna tives</w>
ad es</w>
achiev ement</w>
ac qui
Tw o</w>
Soci alists</w>
Comm un
we alth</w>
un il
re ligion</w>
rail ways</w>
prof its</w>
prof it</w>
pos ing</w>
o t</w>
gene tically</w>
fund ed</w>
f ast
ce iling</w>
bu y</w>
Sh ould</w>
A SE
strong er</w>
per cent
neighbour ing</w>
lan d
l ingu
increas es</w>
il le</w>
ass ist</w>
Vice- President</w>
C ro
C ha
val ent</w>
ton om
sugge sts</w>
radic al</w>
ra di
poll u
phy si
legis lat
lat eral</w>
inter governmental</w>
fis cal</w>
dr in
de le
contro versi
con stant</w>
adap t</w>
ach ing</w>
S y
Reg arding</w>
Fe ira</w>
Declar ation</w>
restric t</w>
no tes</w>
int oler
her it
gener ation</w>
f resh</w>
expl ained</w>
enh ance</w>
distinc tion</w>
dic tion</w>
demonstr ates</w>
de v
contribu ted</w>
be long
aci o</w>
Par agraph</w>
A bo
z z
trea ties</w>
tou ch</w>
st op
sit e</w>
represen tation</w>
re m
pl ant</w>
mar ine</w>
ign ore</w>
ig no
er adic
diplom atic</w>
d t</w>
c am
be gun</w>
ö m</w>
wor thy</w>
str öm</w>
sovereign ty</w>
sh r
sa ke</w>
s low
reflec ts</w>
presen ting</w>
p ace</w>
out lined</w>
labe l</w>
conduc ted</w>
be long</w>
a ther</w>
Pal acio</w>
tonn es</w>
sug ar</w>
regret table</w>
it ems</w>
inten sive</w>
congratul ations</w>
confi d
as s</w>
Abo ve</w>
we ight</w>
vig or
tri al</w>
re tain</w>
re ci
mis sing</w>
medic al</w>
hel p
h our</w>
e ds</w>
du ties</w>
divi ded</w>
de plo
d ge</w>
b lame</w>
arri ved</w>
V it
F ol
2 9</w>
sympa thy</w>
per form
m ag
kin ds</w>
in al</w>
f loo
cro ps</w>
cl oning</w>
candi dates</w>
Simil arly</w>
Mexic o</w>
Ch in
B ol
trans fer
streng th</w>
sal es</w>
s ac
pro te
on al</w>
mono po
monit ored</w>
m al
leng th</w>
lar ger</w>
inf ec
h ori
far- reaching</w>
enjo y</w>
enfor cement</w>
el son</w>
des per
controversi al</w>
b ir
applic able</w>
With in</w>
Tun is
Se a</w>
Re gi
Pak istan</w>
I C
stic k</w>
sa ve</w>
proper ty</w>
fru it</w>
dec entr
col lab
b attle</w>
b ank</w>
P l
In dia</w>
tra vel
shi ft</w>
s cri
rec all</w>
propor tion
out set</w>
ne x</w>
join tly</w>
harmon ise</w>
fel ong</w>
fav ourable</w>
fac ilities</w>
ar my</w>
Sev ille</w>
D is
Chin ese</w>
to ols</w>
sugg estions</w>
point ment</w>
minis ter</w>
in e
follow s</w>
dist ingu
comb ined</w>
bureaucr acy</w>
bor ne</w>
ad jour
Jo int</w>
Gre ens</w>
0 -
wi des
vacc ination</w>
tre at</w>
trans l
tar ge
some one</w>
reli able</w>
recei ving</w>
r ou
qu iry</w>
preven ted</w>
pre limin
po sts</w>
neighbour s</w>
ke en</w>
jur is
jeop ardis
ing -
incorpor ate</w>
f at</w>
expen se</w>
er gy</w>
desi red</w>
brea k
bio technology</w>
approxim ately</w>
Cro ati
wides pread</w>
under stand
tr ace
t ability</w>
succe eded</w>
su spec
regul ate</w>
prelimin ary</w>
offic es</w>
min im
jun c
ha n</w>
fa ith</w>
ex ha
embr y
ed less</w>
author ised</w>
appa rent</w>
ac compan
a p</w>
Nor thern</w>
ME DA</w>
Ac c
visi ble</w>
val id</w>
under taking</w>
under take</w>
under lying</w>
thous and</w>
show ing</w>
secu tor</w>
p il
l or
incin eration</w>
hund reds</w>
gradu ally</w>
extre mis
el der
elder ly</w>
dri vers</w>
consisten cy</w>
ci ties</w>
chec ks</w>
au tonom
at lantic</w>
Trans port</w>
Four thly</w>
E M
Bul g
2 00</w>
uni que</w>
paralle l</w>
or ino</w>
lis tened</w>
li e</w>
help ful</w>
h ous
fe d
fed eral</w>
de ep</w>
comm it</w>
com mend</w>
be low</w>
abstain ed</w>
Vit orino</w>
Gre at</w>
E L
Do ha</w>
Comm on</w>
v ast</w>
usu ally</w>
strugg le</w>
stre am
sit es</w>
sha pe</w>
pres cri
occur red</w>
mar ks</w>
lar s</w>
k ra
it ably</w>
import antly</w>
he u
hand ling</w>
g an</w>
fron ti
fi re</w>
cust om
chan n
air lines</w>
advoc ate</w>
U kra
Parlia mentary</w>
Co operation</w>
A I
199 5</w>
w in</w>
um n</w>
tw o-
tak ings</w>
roo ts</w>
rele ased</w>
per mitted</w>
m ere</w>
ke stein</w>
judg ment</w>
inv est</w>
inspec tions</w>
infr in
hi c</w>
herit age</w>
every body</w>
declar ations</w>
cont acts</w>
c ast
as h</w>
ab or
Ti be
S w
Pol and</w>
Mon day</w>
Euro- Mediterranean</w>
Con ser
Bol kestein</w>
vis ited</w>
un de
stric tly</w>
s ought</w>
s cep
res istance</w>
ref used</w>
re conc
negoti ated</w>
negoti ate</w>
im per
g row</w>
explan ations</w>
enlar ged</w>
do ssi
com pu
b lin
a mend</w>
Ver heu
H au
Al geria</w>
3 5</w>
w ing</w>
viol ation</w>
v is</w>
stud ents</w>
ru p
regis ter</w>
pres sive</w>
pos t</w>
perform ance</w>
new sp
min or</w>
ma il</w>
ey es</w>
enhan ced</w>
en e</w>
educ ational</w>
dispu tes</w>
com it
c ils</w>
al -
Verheu gen</w>
B on
under takings</w>
tribu te</w>
tre pre
safe guar
re ti
re placed</w>
prospec t</w>
promo ted</w>
pre requis
pl ays</w>
obser vers</w>
mean ing
k able</w>
in cen
hop ed</w>
fre ight</w>
en gin
e ar</w>
be gan</w>
addi tives</w>
Ni elson</w>
victi m</w>
rati fy</w>
presen tation</w>
pre dic
occ ur</w>
oc ol
min es</w>
li cen
journ alists</w>
ic k</w>
ga be</w>
exclu sively</w>
excep tional</w>
estim ated</w>
dis abled</w>
critic ised</w>
cent res</w>
al ed</w>
Mu gabe</w>
Jap an</w>
G row
Fol lowing</w>
En ergy</w>
1 4
xenophob ia</w>
won der
st one</w>
sch ed
sa vings</w>
pursu ed</w>
pres sing</w>
mo b
mob ile</w>
mar gin
lea ves</w>
inform al</w>
i ved</w>
hon est</w>
direc ted</w>
differen tly</w>
de pl
cu ts</w>
b lack</w>
appro aches</w>
add am</w>
ab sur
a mending</w>
W at
S addam</w>
9 0</w>
sur plus</w>
sub sequently</w>
sp ic
pro test</w>
presid ent</w>
perfec t</w>
pen sioners</w>
lingu istic</w>
justi fication</w>
im m
ic als</w>
hori z
f it</w>
dis tur
dis agree</w>
consequ ence</w>
cl aims</w>
campaign s</w>
broad er</w>
att ached</w>
S har
R ome</w>
Li ber
L ab
K ur
Grow th</w>
Direc tor
C z
trace ability</w>
ti l
tain s</w>
res p
post -
percent age</w>
jud ge</w>
fin ish</w>
fall en</w>
exam ination</w>
effici ently</w>
ed n
connec ted</w>
atten d</w>
affec ting</w>
W edn
Scot land</w>
Lab our</w>
Isl amic</w>
Centr e</w>
Be fore</w>
A T</w>
t ough</w>
spr ing</w>
sol di
sin ce
rou te</w>
ra d</w>
obser ve</w>
no tic
lis ts</w>
l en
incen tive</w>
clas s</w>
bor n</w>
bigg est</w>
as sum
T ai
B yr
y our
your self</w>
with drawn</w>
w an</w>
qual ific
preven tive</w>
p ain
nor thern</w>
n esses</w>
less ons</w>
la sting</w>
hol ders</w>
foot ball</w>
fo rec
fl ag
environment ally</w>
en trepre
dru g</w>
contr act</w>
b es</w>
Byr ne</w>
Al so</w>
200 5</w>
threat s</w>
te sted</w>
tan gible</w>
t ten</w>
sy n
reven ue</w>
pa ren
p ush</w>
multi lateral</w>
k y</w>
inno ck</w>
extra ordinary</w>
e- commerce</w>
di e</w>
di an</w>
deter i
den y</w>
de a
cir cul
assess ments</w>
adjour ned</w>
acces sible</w>
Vi e
Th us</w>
Slo v
K innock</w>
Bar ón</w>
AI DS</w>
19 7
war rant</w>
us se
ti v
resul ting</w>
resp o</w>
re ported</w>
per pe
per mit</w>
mo vements</w>
li ked</w>
it es</w>
inci dent</w>
i k
head s</w>
geograph ical</w>
four th</w>
feed ing
even tually</w>
eng aged</w>
ch ocol
associ ations</w>
ar ch
ain ing</w>
Wedn esday</w>
Ukra ine</w>
Represen tative</w>
E ach</w>
C respo</w>
A z
vi able</w>
stand ardis
since rely</w>
s ly</w>
recogn ises</w>
re porting</w>
re act</w>
pursu ant</w>
proce d
ilo s
ho pefully</w>
g ri
e able</w>
dec ades</w>
ca using</w>
an xi
H is</w>
F er
under line</w>
trans fers</w>
threat ened</w>
t us</w>
substan tially</w>
ship ping</w>
on ed</w>
mean time</w>
loc ation</w>
li f
int ell
intell ec
inc enti
ide al</w>
gu il
exper tise</w>
ex p
equi valent</w>
don ors</w>
credi ble</w>
contradic tion</w>
G DP</w>
For tun
where by</w>
surpr ise</w>
stat ute</w>
short- term</w>
re yer</w>
n ers</w>
monopo ly</w>
join ing</w>
h es
f arms</w>
de tri
com promises</w>
clari fied</w>
civili an</w>
chem icals</w>
car ri
boo st</w>
auth or</w>
ard ous</w>
adequ ately</w>
W all
L I
Fortun ately</w>
E P
C iti
4 5</w>
4 2</w>
y ers</w>
ti tion</w>
thir d-
t ac
sha dow</w>
ins is
i de</w>
fir ms</w>
execu tive</w>
er t</w>
diff er</w>
Y or
Vie tn
Bulg aria</w>
versi ties</w>
stra ight</w>
sh aring</w>
priv ile
pris on</w>
ph ilos
o m</w>
noti ce</w>
lea ving</w>
incenti ves</w>
haz ardous</w>
h s</w>
gre en
en shr
dra matic</w>
criter ion</w>
com men
cer ti
b acking</w>
avoi ded</w>
author isation</w>
ari ties</w>
a z
T ali
R ural</w>
H usse
An gol
y i
ter inary</w>
t ally</w>
sil ence</w>
s outh</w>
restric tive</w>
re plied</w>
re di
proced ural</w>
perspec tives</w>
parlia ment
it ly</w>
im age</w>
fulf illed</w>
est er
comit ology</w>
coast al</w>
cho ices</w>
beli ef</w>
and a</w>
Ne edless</w>
Euro just</w>
- General</w>
viol ent</w>
um s</w>
tw ice</w>
ti vation</w>
taxpay ers</w>
system atic</w>
sub scri
repe ated</w>
qu es</w>
or i</w>
off ences</w>
n ar
lead er</w>
inv ite</w>
inter nation
h ence</w>
graph y</w>
g ained</w>
fi able</w>
ester day</w>
chocol ate</w>
be ls</w>
ar bit
appa rently</w>
Y esterday</w>
S ever
Pe titions</w>
tack led</w>
t umn</w>
sa d</w>
res tim
particip ating</w>
objec tions</w>
ni er</w>
mi d-
li felong</w>
ing redi
go tten</w>
func tions</w>
en em
econom ically</w>
cy cle</w>
classi fication</w>
accur ate</w>
Sever al</w>
Husse in</w>
Ge or
D R</w>
Croati a</w>
Citi zens</w>
w age</w>
tw el
targe ted</w>
se ar
ough ly</w>
n ings</w>
mo bil
inter im</w>
inten si
indic ate</w>
envis aged</w>
e u
c attle</w>
b y-
autom atically</w>
at ell
ari ans</w>
apo log
adv an
V C</w>
Shar on</w>
Indone sia</w>
20 10</w>
tra in</w>
resul ted</w>
poli es</w>
p in
p ays</w>
impe tus</w>
i um</w>
h ne</w>
f low
excep t</w>
es ;</w>
er -
dist ance</w>
coun tr
con fin
co vering</w>
co d</w>
c li
b ound
accep tance</w>
Tali ban</w>
T ob
Qu ite</w>
K al
Bur ma</w>
Bar nier</w>
A p
ta r</w>
sym bo
sched uled</w>
res ear
rein force</w>
ra dio
r ul
pri me</w>
por no
mis sed</w>
inst all
incredi bly</w>
in ts</w>
h it</w>
feeding stuffs</w>
enthusi as
dead lines</w>
conv ince</w>
cont ra
au tumn</w>
all y-
aim ing</w>
a str
Un til</w>
O l
Cz ech</w>
Cor be
Colom bia</w>
Bo s
vig il
v atives</w>
trans atlantic</w>
soldi ers</w>
red und
prom p
prohi b
pris ing</w>
p harm
multi -
juris diction</w>
ish ment</w>
is ion</w>
integr ate</w>
gener ous</w>
for gotten</w>
fe els</w>
endeav our</w>
en ds</w>
elimin ate</w>
do ors</w>
den ied</w>
compar ison</w>
cl a
chap ter</w>
ch ers</w>
arri ve</w>
arbit r
al ia</w>
agrap hs</w>
Yor k</w>
Th r
Regi onal</w>
- to-
with draw
vi c</w>
v olu
volu me</w>
territ ories</w>
tack ling</w>
str ing
sen ding</w>
se i
scrutin y</w>
rejec tion</w>
o dy</w>
non- governmental</w>
imper ative</w>
green house</w>
fe ature</w>
fail ing</w>
e li
democr acies</w>
de tec
cle an</w>
cl aimed</w>
chem ical</w>
broad ly</w>
ast ro
ass ment</w>
ar der</w>
absur d</w>
ab uses</w>
In vest
Ha arder</w>
Constitu tional</w>
th i
st ations</w>
se x</w>
plac ing</w>
oc k</w>
mat ure</w>
ir ing</w>
fi xed</w>
fe ars</w>
es cap
dict at
de dic
conven tions</w>
comm od
c ast</w>
as sets</w>
W e
Pro cess</w>
Mus li
J e
Bas que</w>
witness ed</w>
vest ock</w>
ve ge
ti mely</w>
su ms</w>
ster n</w>
rein forced</w>
quo te</w>
ques tion
quar ters</w>
m ac
inv ited</w>
inev itably</w>
in d
i ties</w>
hun ger</w>
gra de</w>
fre ely</w>
finan ces</w>
feren ces</w>
far m</w>
destro y</w>
dang ers</w>
crimin als</w>
cat ch</w>
cat astro
c o</w>
c in
bloc k</w>
bi an</w>
ain s</w>
Y ear</w>
US D</w>
Si xth</w>
Ira q
Cu ba</w>
At lantic</w>
3 00</w>
1 5
un it</w>
trans -European</w>
sp ite</w>
regul arly</w>
re a</w>
ra tion
ong side</w>
od a</w>
ob oda</w>
n ine</w>
mono polies</w>
lear ned</w>
every where</w>
depar t
dec ade</w>
de lic
ci ally</w>
che ap</w>
ar ticles</w>
an ge</w>
an en</w>
al ongside</w>
Sw oboda</w>
M er
L E
Cha irman</w>
A D
work place</w>
wh ol
we stern</w>
show ed</w>
ol der</w>
obser ved</w>
im plies</w>
high lights</w>
gener ations</w>
gene tic</w>
euro s</w>
ep tion</w>
dis man
deli vered</w>
d atory</w>
conven i
contain ing</w>
consisten tly</w>
believ ed</w>
assu red</w>
St at
Sch reyer</w>
S P</w>
Egy pt</w>
C am
3 3</w>
3 2</w>
ul ous</w>
trans actions</w>
the tic</w>
ter ial</w>
tain ly</w>
su spic
sk i</w>
settle ment</w>
sequ ent</w>
se as</w>
s l
re pu
pro ven</w>
pres sed</w>
prepar atory</w>
pr ud
physi cal</w>
philos oph
nu tri
li vestock</w>
is tics</w>
ingredi ents</w>
im port</w>
g han</w>
expres sly</w>
exemp tion</w>
exc use</w>
counter fe
clo sure</w>
buil dings</w>
boo k</w>
am s</w>
ag g
accompan ied</w>
W he
Tai wan</w>
P en
O r</w>
H ague</w>
Cer tainly</w>
CF P</w>
Af ghan</w>
vari ety</w>
unde restim
struc k</w>
st ory</w>
sem in
se tt
s y</w>
re p
p ping</w>
op ou
modern isation</w>
mit ting</w>
mee ts</w>
l ar</w>
ir regul
intel ligence</w>
igno red</w>
h t</w>
ga me</w>
fru str
frequ ently</w>
f ought</w>
dri ven</w>
differen ti
d ated</w>
col lap
b one</w>
ambi tions</w>
ace u
abol ished</w>
Co ton
B us
where ver</w>
w om
ten d</w>
te am</w>
summ its</w>
string ent</w>
stric ter</w>
spec tr
sign ing</w>
se l</w>
ri fic
recommend ed</w>
re mit</w>
radi o</w>
quot a</w>
p raise</w>
off ering</w>
of -
necess ity</w>
min e</w>
lis ted</w>
is ms</w>
in quiry</w>
in appropriate</w>
fic ations</w>
fall ing</w>
expres sing</w>
dom ain</w>
defin ing</w>
d on</w>
compli ed</w>
collab oration</w>
ber g</w>
be aring</w>
V AT</w>
P VC</w>
I P
H o
Coton ou</w>
tre mend
s qu
re ver
ra tional</w>
pursu ing</w>
princi p
prerequis ite</w>
ph one</w>
pass ing</w>
inno cent</w>
indic ation</w>
in ess</w>
g ust</w>
fo od
explic itly</w>
elector al</w>
di c</w>
den tally</w>
delic ate</w>
conser vation</w>
b reach</w>
b acks</w>
arre sted</w>
ar ises</w>
al leg
S peci
M ay
Commun ist</w>
withdraw al</w>
v on</w>
twel ve</w>
trans lation</w>
ton ight</w>
sustain ed</w>
sub sequent</w>
scen ari
sc ore</w>
sac rific
ran ging</w>
produc er</w>
preser ve</w>
porno graphy</w>
pack aging</w>
medi um</w>
m as</w>
los ses</w>
l ad
em pl
defini tions</w>
de pri
cus sions</w>
cha m
b y
b adly</w>
Slov ak
Every thing</w>
um b
ta ire</w>
system atically</w>
sub jec
st a</w>
si x
sh oul
self- employed</w>
referen ces</w>
priv a
pr ise</w>
postpon ed</w>
par agraphs</w>
p ush
out break</w>
opou lo
mul tin
mac ro
ma y
is land</w>
invest ors</w>
intellec tual</w>
im posing</w>
fail s</w>
f as
exper t</w>
equi voc
enter ing</w>
dossi er</w>
def ending</w>
collec tion</w>
character ised</w>
ban king</w>
at en</w>
acc el
a uc
Palest ine</w>
H un
G od</w>
G M</w>
E S
Ara fat</w>
wor ried</w>
wom an</w>
vir tually</w>
v a</w>
uc k</w>
tro ops</w>
su me</w>
speci fied</w>
port ation</w>
par tici
pan ts</w>
ik anen</w>
grap hic</w>
fea sible</w>
d den</w>
chap ters</w>
blin d</w>
accep ting</w>
S ou
Li ikanen</w>
Iraq i</w>
w on</w>
vis ing</w>
tradi tions</w>
tion ality</w>
ter ror</w>
t t</w>
super visory</w>
secon d
reflec tion</w>
re mark</w>
rac ist</w>
pharm aceu
pati ents</w>
obstac le</w>
o v</w>
notic ed</w>
ll er</w>
interpre ted</w>
guil ty</w>
gre en</w>
fore sts</w>
f ran
experi ences</w>
commun au
att ach</w>
appreci ation</w>
an -
accus ed</w>
Tunis ia</w>
Secre tar
Re port</w>
O S
v ague</w>
th ou
t ables</w>
stric ht</w>
slaugh ter</w>
si t</w>
re conciliation</w>
min ds</w>
m its</w>
large -scale</w>
inspec tors</w>
initi ally</w>
har m</w>
exam ining</w>
er a</w>
en ever</w>
dec line</w>
de voted</w>
critic isms</w>
communau taire</w>
bio diversity</w>
assess ed</w>
appl au
app alling</w>
a stricht</w>
W ar</w>
P a
Ma astricht</w>
ME P</w>
M ilo
Any one</w>
ven ture</w>
un ions</w>
u l</w>
st ation</w>
st ain</w>
se vic</w>
s ale</w>
reti rement</w>
re viewed</w>
re productive</w>
r out
promis ing</w>
post p
postp one</w>
popul ations</w>
ord ingly</w>
on er</w>
mat ch</w>
mar gin</w>
led ge
initi ated</w>
i or</w>
found ation</w>
fac ility</w>
f em
emer ged</w>
e astern</w>
divi de</w>
d il
cul tures</w>
critic ise</w>
co inci
an ks</w>
abol ish</w>
Milo sevic</w>
Acc ordingly</w>
199 3</w>
wit ness</w>
toler ance</w>
th row
st y</w>
resear chers</w>
remain ed</w>
prev ail
partici pants</w>
no tion</w>
lo ans</w>
ir responsible</w>
in- depth</w>
in spi
in ing
har assment</w>
ess or</w>
ess ence</w>
dri ve</w>
dictat or
de ad</w>
d less</w>
col on
char ter</w>
ar gue</w>
addres ses</w>
a pe
Wall ström</w>
T ourism</w>
Invest ment</w>
H as</w>
Democr at</w>
- year</w>
y- General</w>
we b
stra igh
soci o-
quanti ties</w>
pro p
p ion
ow s</w>
mer gers</w>
mar king</w>
man datory</w>
horiz on
g all
fur thermore</w>
flow s</w>
explan atory</w>
entrepre ne
deman ded</w>
d ged</w>
coordin ate</w>
con stra
comb ination</w>
accep ts</w>
Secretar y-General</w>
Kal ining
G ra
F I
EL DR</w>
y ;</w>
wor th
tor ture</w>
swi f
so le</w>
simpli fy</w>
scienti sts</w>
s li
s ity</w>
rev olution</w>
prac tically</w>
pil lars</w>
perpe tr
p apers</w>
open ly</w>
medic inal</w>
m ir
h ur
gi r
g matic</w>
co ali
ar ising</w>
ambigu ous</w>
ad ding</w>
T im
Secon d</w>
R O
M ic
Kalining rad</w>
E I
7 5</w>
y outh</w>
w ars</w>
un equivoc
t less</w>
sup plies</w>
safegu ards</w>
s pon
remar kable</w>
rec ru
qualific ations</w>
o eu
oeu v
n it
mit tedly</w>
manag ing</w>
man oeuv
m em
it ations</w>
inter f
inci dents</w>
imm unity</w>
he avi
er ships</w>
en ted</w>
don or</w>
dev ast
dam aging</w>
bo t
avail ability</w>
at er
ar m</w>
ap pointed</w>
acknowled ged</w>
Stat ute</w>
R ather</w>
Democr acy</w>
B ö
Au gust</w>
Ara b</w>
A g
zz o</w>
where as</w>
vehic le</w>
ti tle</w>
sub stitu
stop ped</w>
ste el</w>
soli d</w>
roo t</w>
rig or
re unification</w>
radio active</w>
pur cha
origin ally</w>
mo tor
li tion</w>
it ative</w>
ir respective</w>
investig ations</w>
internation ally</w>
ho st</w>
fif th</w>
exclu de</w>
ex act</w>
e at</w>
dis gr
democra tically</w>
dea ths</w>
cu tting</w>
chann els</w>
atten ded</w>
arm ing</w>
ape u
accoun ting</w>
S up
P re
M uch</w>
Hun g
Har bour</w>
Gre en
Ch il
ASE M</w>
tremend ous</w>
thin ks</w>
the -
t abling</w>
sign als</w>
s me
s car
resid ence</w>
reli ef</w>
r he
rhe tor
quanti ty</w>
prof ile</w>
pre- accession</w>
parliament arians</w>
mis takes</w>
l a</w>
irregul arities</w>
id es</w>
guarante eing</w>
gradu al</w>
fundament ally</w>
fin dings</w>
fe atures</w>
d ur
cust oms</w>
consequ ently</w>
compon ent</w>
cle an
cla uses</w>
cigaret tes</w>
character istics</w>
bro ken</w>
ass es</w>
arrange ment</w>
ar -
apolog ise</w>
anis m</w>
S ci
Mon ti</w>
L o
CF SP</w>
whol ly</w>
wh el
uni versities</w>
tou ched</w>
techn i
spectr um</w>
slow ly</w>
sev ere</w>
sa ving</w>
s w
rec ital</w>
pro secution</w>
popul ar</w>
o ci
n ar</w>
mess ages</w>
less on</w>
investig ate</w>
horizon tal</w>
hel ps</w>
enthusias m</w>
deci ding</w>
contamin ation</w>
con ve
con fine</w>
ce le
awa it</w>
at ori
at mo
achiev ements</w>
Mad rid</w>
F atu
D em
Co he
Can ad
Az nar</w>
A N</w>
4 8</w>
199 0</w>
w ai
vis a</w>
tur ns</w>
tr ic
thou ghts</w>
ther apeu
second ary</w>
s essions</w>
re verse</w>
ph r
p ity</w>
p ilo
over whel
optimis tic</w>
occu pi
n ish</w>
mod est</w>
lis tening</w>
ic ing</w>
fac es</w>
f ate</w>
enshr ined</w>
dis par
convic tion</w>
coali tion</w>
be ars</w>
as ser
Thir d</w>
Slovak ia</w>
Re form</w>
Pro tec
Fatu zzo</w>
Corbe tt</w>
CO 2</w>
C E</w>
Al liance</w>
z en</w>
v ill
tell ing</w>
t our
survi ve</w>
supple ments</w>
so ld</w>
simpli fication</w>
ser ves</w>
sen tence</w>
se es</w>
res ource</w>
res or
remo te</w>
presen ts</w>
pl ur
mor atori
know ledge
ke ts</w>
integr al</w>
im ported</w>
id ance</w>
human ity</w>
g a</w>
fra me</w>
fast er</w>
fa ult</w>
contr ast</w>
comprehen sible</w>
co oper
catastro p
ad mi
accoun tability</w>
Wh ich</w>
No thing</w>
H ome</w>
Geor gi
Alban ian</w>
v ans</w>
unil ateral</w>
tri c</w>
thor oughly</w>
te ach
t ably</w>
su n
s cre
remin ded</w>
priva tisation</w>
passen ger</w>
on to</w>
no y
infrin gement</w>
in vo
hon est
gener ated</w>
fores e
food stuffs</w>
f lights</w>
explo it</w>
en na</w>
di ver
depend ence</w>
d a
confi dent</w>
centr alised</w>
Vietn am</w>
Tibe t</w>
E D
w is
threat ening</w>
ter min
soci ally</w>
sim pl
sec tions</w>
respon ses</w>
resol ving</w>
ref un
proportion ate</w>
mode ls</w>
mea sured</w>
mani pul
lo sing</w>
law yers</w>
junc tion</w>
j -
intoler able</w>
inter ference</w>
grow n</w>
for war
focus ing</w>
experien cing</w>
exac er
exacer b
ear marked</w>
derog ation</w>
dela yed</w>
de sign
contin uation</w>
cons ists</w>
ban ning</w>
ast s</w>
arti fic
T it
Ri o</w>
I M
Fed eral</w>
F ran
EI B</w>
Angol a</w>
A part</w>
y le</w>
vic tory</w>
v an
transfer red</w>
third- country</w>
therapeu tic</w>
swif tly</w>
she ep</w>
ser ved</w>
ri gi
restric tion</w>
regar dless</w>
rec y</w>
re turned</w>
re me
our ing</w>
oun ded</w>
neg lec
min ent</w>
meaning ful</w>
low -
lig ent</w>
infra structures</w>
in sul
found ations</w>
f r
f lu
ex posed</w>
emp ty</w>
dre am</w>
defini tive</w>
cr y
cor ner
be au
as surance</w>
air port</w>
Wat son</w>
T A</w>
S en
Pro secutor</w>
Mo sco
Li thu
Ha ve</w>
A gain</w>
A R
3 8</w>
us al</w>
so oner</w>
sec recy</w>
respec ting</w>
reason ably</w>
re alised</w>
pun ished</w>
pri ori
ous ness</w>
oper ability</w>
op pon
objec tion</w>
ob ject</w>
neutr al</w>
n ia</w>
mis sible</w>
mer it</w>
ma kers</w>
jour ne
indic ates</w>
in ven
in put</w>
il ings</w>
gra ve</w>
fin ished</w>
dre w</w>
coura ge
conveni ence</w>
conc essions</w>
comm o
co st-
co sme
charac ter</w>
as pi
ar ance</w>
W o
T V</w>
Mal ta</w>
M i
F ree</w>
3 4</w>
wide -
up hold</w>
u ally</w>
ta ke
t ful</w>
statis tical</w>
reduc tions</w>
provi ders</w>
program ming</w>
process ed</w>
prefer red</w>
pre judic
partn erships</w>
par ad
out line</w>
occupi ed</w>
moratori um</w>
man n</w>
is sion
integr ity</w>
ho sp
gen oci
fal se</w>
er ated</w>
ed y</w>
dro p</w>
dis pens
dis astr
descri be</w>
demon stra
defic i
concep ts</w>
con junction</w>
compe te</w>
cl es</w>
c ope</w>
benefic ial</w>
attr active</w>
ad he
T u
Lam y</w>
Kur dish</w>
Fre edom</w>
E vans</w>
C ulture</w>
An nex</w>
3 6</w>
1 0
vis ual</w>
under -
u til
transi t</w>
ther to</w>
territ orial</w>
ten sion</w>
stri kes</w>
simpli fied</w>
sh ar
scand al</w>
s pre
ri dic
re ty</w>
quic k</w>
prop ag
pharmaceu tical</w>
organis ms</w>
mo ther</w>
low est</w>
le -
interven tions</w>
ill -
ide ological</w>
ho od</w>
g ress</w>
form ally</w>
exclu sive</w>
ev ol
es cal
disastr ous</w>
dio x
de ple
contribu tes</w>
complain t</w>
com mend
cele br
as ing</w>
anti bio
abo lition</w>
Th anks</w>
R ob
Pl an</w>
N ext</w>
D ef
4 00</w>
y s
w ished</w>
un satisfactory</w>
u gg
twen ty</w>
sup ran
stor age</w>
soli date</w>
socio- economic</w>
represen ting</w>
preced ent</w>
plan et</w>
pl at
noy e</w>
l iter
jud gement</w>
in equality</w>
f low</w>
expan sion</w>
en force</w>
en abling</w>
e ;</w>
d ness</w>
d ;</w>
con solidate</w>
bio logical</w>
ari ous</w>
ag eing</w>
acqui re</w>
S te
R oth
R ap
Po s
Ob jec
Lan noye</w>
L on
L ef
I S</w>
199 2</w>
wonder ful</w>
un g</w>
un clear</w>
twen ty-
t- wing</w>
t emp
sear ch</w>
rit z</w>
renew ed</w>
rea ff
re per
pun ishment</w>
pro -
paren ts</w>
organ ic</w>
join ed</w>
in side</w>
in ju
hy gi
f ill</w>
dis advant
desi gn</w>
defin ite</w>
cul tivation</w>
countr y
carri ers</w>
cam ps</w>
c ard</w>
broad cast
br ut
benefic i
belong s</w>
b acked</w>
air line</w>
ag en
advan ced</w>
ad ed</w>
Whe ther</w>
T err
Ol ym
Fin nish</w>
E duc
Cohe sion</w>
C hi
0 /
weak nesses</w>
war m</w>
ten s</w>
t ted</w>
suc c
sm ugg
s ad
re lative</w>
re jects</w>
re forming</w>
ra w</w>
per secution</w>
pe tition</w>
pe ace
optimis m</w>
op t-
illustr ates</w>
heavi ly</w>
h in
gra titude</w>
fru it
fil m</w>
evalu ate</w>
en abled</w>
eij ing</w>
ei gh
doc tors</w>
discipl ine</w>
d ay
coun ts</w>
correspon ding</w>
ce ilings</w>
cau ght</w>
be it</w>
b ol
assess ing</w>
ak is</w>
ad ays</w>
Su b
Speci al</w>
Some times</w>
O ver
Nor dic</w>
N ic
Gen o
Fer ber</w>
Fed eration</w>
Ex ternal</w>
Educ ation</w>
Constitu tion</w>
Bel ar
B eijing</w>
AD E
- related</w>
z ed</w>
worth while</w>
wat ch</w>
understand able</w>
ru pt</w>
re r</w>
r ace</w>
posi tively</w>
pen ding</w>
own ers</w>
om in
o do
mer its</w>
ma tically</w>
le z</w>
hypo cris
hous es</w>
genoci de</w>
gener ate</w>
ep ide
enti rety</w>
engin e
ear th</w>
discre pan
di verse</w>
deliber ate</w>
condi tional</w>
bus es</w>
bl in</w>
bio fuels</w>
ass embly</w>
ar ritz</w>
ar is
ap s</w>
ab road</w>
V al
Tu esday</w>
Fur ther</w>
Fif teen</w>
F u
Environ mental</w>
En g
Du blin</w>
wh enever</w>
war nings</w>
trans portation</w>
tow n</w>
top ics</w>
thre e-
thir ty</w>
t ;</w>
ro g
reper cussions</w>
reaff ir
re actions</w>
quo ted</w>
progres sive</w>
pre mature</w>
o we</w>
nor th</w>
lo ading</w>
lin ing</w>
li fe
le f
in struc
in he
in direct</w>
ill ance</w>
hypocris y</w>
human e</w>
hor ri
hom o
hal t</w>
gir ls</w>
floo ds</w>
fem ale</w>
exer t</w>
ex pi
ex changes</w>
estim ates</w>
er o
enta il</w>
dum ping</w>
dis covered</w>
conven tional</w>
contro lling</w>
contradic tory</w>
com for
boo ks</w>
be l
aris en</w>
any where</w>
any way</w>
al arming</w>
adjust ment</w>
Un less</w>
Lon don</w>
Gal ile
E uro</w>
Bi arritz</w>
Belar us</w>
5 5</w>
4 3</w>
3 9</w>
199 4</w>
wr ite</w>
we igh
up date</w>
travel ling</w>
t ina</w>
surve illance</w>
supple ment</w>
str ange</w>
si de
run s</w>
recor ded</w>
pra gmatic</w>
op t</w>
op ing</w>
off ence</w>
norm ally</w>
n t</w>
n ames</w>
m er</w>
k es
it ted</w>
in dispens
indispens able</w>
in di
ga u</w>
foo t</w>
feel ings</w>
f at
exp and</w>
endor sed</w>
en forced</w>
embry os</w>
disap pointment</w>
dis placed</w>
democra tisation</w>
constitu ency</w>
autonom y</w>
ass ist
argu ed</w>
Wo gau</w>
N ob
M s</w>
I V</w>
G h
F o
E st
Bal tic</w>
5 -
wide- ranging</w>
vis ion
tr ac
the me</w>
ten tion</w>
tele phone</w>
sk y</w>
ship building</w>
sel l</w>
s /
ris ing</w>
refun ds</w>
ref usal</w>
re consider</w>
pris ons</w>
per ce
mo tiv
isol ation</w>
inter -
ing ton</w>
i p
hygi ene</w>
formul ated</w>
focus es</w>
fla g</w>
discrimin atory</w>
d '</w>
comple ment</w>
collap se</w>
civili ans</w>
char ged</w>
cep tion</w>
cell s</w>
c er</w>
attemp ting</w>
al beit</w>
aband on</w>
T ech
Su stain
P i
Alban ia</w>
4 4</w>
1 50</w>
zer o</w>
u li
tr ouble</w>
threat en</w>
the ory</w>
st ating</w>
s an
rel uc
prev ail</w>
philosoph y</w>
persu ade</w>
mid- term</w>
lim itations</w>
le t
knowledge -based</w>
k -
is sion</w>
im men
ho li
fo ld</w>
finan cially</w>
disadvant aged</w>
derog ations</w>
consul t</w>
compon ents</w>
comple tion</w>
any body</w>
all -
al u
adver se</w>
adap ted</w>
Sy ri
P ur
O p
Me an
Georgi a</w>
D avi
C ur
A sian</w>
A mon
à -
vis -
ver i
un like</w>
ul f</w>
ten d
t one</w>
sur prising</w>
summ ary</w>
subsid y</w>
subscri be</w>
subjec ted</w>
sub -
ste ad
sol ving</w>
sel t</w>
s pli
spli t</w>
s inc
sinc ere</w>
reme dy</w>
relev ance</w>
re stra
proble matic</w>
priv acy</w>
per mission</w>
par tial</w>
orm ick</w>
op tim
l acks</w>
inter operability</w>
install ations</w>
harmon ising</w>
h ou
fundament alism</w>
evi l</w>
enta ils</w>
ec o
drin king</w>
defic its</w>
d ating</w>
consolid ation</w>
civil isation</w>
ce ase</w>
can cell
ben ch
Thr ough</w>
S el
Protec tion</w>
Pos selt</w>
Ni geria</w>
Mo z
Galile o</w>
G lob
Def ence</w>
Consum ers</w>
Con gress</w>
Co sta</w>
C ormick</w>
B ra
Ar ticles</w>
Ag ainst</w>
8 /
à- vis</w>
vis- à-vis</w>
under way</w>
trans position</w>
titu des</w>
ter re
ta pe</w>
su r</w>
stabil isation</w>
spea ks</w>
shoul der</w>
sa fer</w>
ric h
remo val</w>
p es
organis ing</w>
mom en
manoeuv re</w>
la ys</w>
k new</w>
k il
inev itable</w>
in habit
hi therto</w>
gui ding</w>
g ged</w>
for is</w>
e ast</w>
disap pointing</w>
deteri or
d ges</w>
contribu ting</w>
conf used</w>
comb ine</w>
ati foris</w>
al ter</w>
ac compl
abor tion</w>
S ing
Per s
Mer co
K atiforis</w>
In stitu
In iti
In formation</w>
I S
I CA
Go e
Geno a</w>
Eng land</w>
Dem oc
200 0-
xi de</w>
x es</w>
un employed</w>
transl ated</w>
to x
ten ance</w>
stre am</w>
straigh t
st e</w>
secon dly</w>
s atell
respon ded</w>
regis tration</w>
reas sure</w>
re fra
r um
pic k</w>
mis leading</w>
mi xed</w>
le ge</w>
lap ses</w>
il li
hes it
gen ous</w>
ge ments</w>
dis appeared</w>
courage ous</w>
counterfe iting</w>
cons ent</w>
confin ed</w>
con sci
che aper</w>
brea king</w>
analy se</w>
all ed</w>
al together</w>
ad here</w>
Tob in</w>
To gether</w>
Nob ody</w>
Merco sur</w>
Ma aten</w>
E ur
D el
Bos nia</w>
Ar men
z ing</w>
wa ke</w>
ultim ate</w>
tren ds</w>
thi op
tan e
sch e
s cr
reg n
rec eption</w>
pro ving</w>
pilo t</w>
pat ri
p ure</w>
p p
mis s</w>
me t
l y-
it en
hop ing</w>
high- quality</w>
hand led</w>
gui ded</w>
ger ian</w>
fore stry</w>
fal us
exce eded</w>
emphas ises</w>
discipl inary</w>
dem ic</w>
d est</w>
d ar
consul tations</w>
brea ks</w>
bound aries</w>
bas es</w>
an o</w>
adjust ments</w>
accoun table</w>
ac ce
Mac Cormick</w>
Lam falus
Hau g</w>
G ö
E thiop
Coun cils</w>
B lo
199 1</w>
work force</w>
weak en</w>
war n</w>
ve to</w>
ve terinary</w>
tow ns</w>
to m</w>
t ling</w>
swi ft</w>
survi val</w>
sum mar
su ic
stres ses</w>
st ers</w>
sha me</w>
sec tor
safeguar ding</w>
s enti
rhetor ic</w>
rec ti
prof ound</w>
premi ums</w>
per form</w>
ob taining</w>
o zone</w>
mis sions</w>
minis terial</w>
log ically</w>
jud ged</w>
it als</w>
initi ate</w>
hou se
for th</w>
flag s</w>
exha us
ex pe
en sured</w>
emer ge</w>
desper ate</w>
den oun
dec re
contra ven
constra ints</w>
concentr ation</w>
compar able</w>
com position</w>
cigaret te</w>
chan ge
cha ir
b un
aud it</w>
W ash
Th ree</w>
Pe ace</w>
P SE</w>
Olym p
Objec tive</w>
Mean while</w>
G 8</w>
Bu iten
9 5</w>
wee k
viol ated</w>
v y</w>
us er</w>
tend ency</w>
techn ically</w>
sett led</w>
se at</w>
s ch</w>
pro active</w>
pre text</w>
poten tially</w>
peri ph
pat ents</w>
m ic
licen ces</w>
inhabit ants</w>
im prison
i ka</w>
ho o
gu idance</w>
govern ed</w>
g aining</w>
forec asts</w>
es h</w>
enti ality</w>
enter prise</w>
emer ging</w>
e- mail</w>
der i
depar ture</w>
den ly</w>
coordin ating</w>
compu ter</w>
clo sing</w>
cau tious</w>
cap abilities</w>
b al</w>
ag u
a est
Wash ington</w>
T S</w>
Par tn
Lamfalus sy</w>
Ar gen
Ad minis
vo ters</w>
ur ch</w>
undermin ed</w>
th al
techni ques</w>
t ty</w>
si xth</w>
sensi tivity</w>
secu ted</w>
re pression</w>
per cent</w>
p regn
p ir
our e</w>
mur der</w>
k is</w>
hi de</w>
gu ard</w>
g ases</w>
err ors</w>
emp ha
distingu ish</w>
dis advantage</w>
dio visual</w>
dictator ship</w>
detri ment</w>
depl ore</w>
de emed</w>
corpor ate</w>
confid entiality</w>
circul ation</w>
b ill</w>
awa iting</w>
autom atic</w>
att aches</w>
as sa
ar z
al ert</w>
ag ement</w>
aff ir
a me
Mor oc
M it
Kore an</w>
Gu ine
Co de</w>
z e
wor ry</w>
we g</w>
uni versity</w>
ul tural</w>
ul l</w>
tu m</w>
thr ust</w>
te en
su it</w>
separ ation</w>
selec tion</w>
s ports</w>
s porting</w>
ron t</w>
rigi d</w>
rejec ting</w>
re sume</w>
re formed</w>
pl ed</w>
phr ase</w>
ph thal
pati ence</w>
ligh ting</w>
lear nt</w>
isol ated</w>
illustr ate</w>
han ded</w>
g ross</w>
for d</w>
for cing</w>
f light</w>
e di
dimen sions</w>
der ing</w>
deli very</w>
confir ms</w>
chec ked</w>
can cer</w>
attemp ted</w>
ambi que</w>
al tar</w>
To o</w>
Str ate
S ö
N ep
Moz ambique</w>
H ul
F l
E ch
CO M</w>
A S</w>
- of-
- free</w>
web site</w>
weak ness</w>
w ood</w>
vi l</w>
vi ation</w>
val id
u t</w>
trans mission</w>
supran ational</w>
su d
straight forward</w>
spre ading</w>
si gh
se emed</w>
scenari o</w>
s plen
resor t</w>
ren der</w>
regul ating</w>
public ly</w>
prote in</w>
pro ves</w>
nutri tion</w>
nar row</w>
l end</w>
justi fiable</w>
jud ges</w>
incredi ble</w>
hand le</w>
gr ass
fronti ers</w>
f ai
elector ate</w>
dra matically</w>
demonstra tions</w>
continu ally</w>
co ins</w>
bre eding</w>
at titudes</w>
at ever</w>
an cies</w>
al ing</w>
advoc ated</w>
administra tions</w>
a sion</w>
Yugosla v</w>
Wh atever</w>
Un i
Tur ning</w>
S wit
Poli tical</w>
Mon terre
Lithu ania</w>
Democ ratic</w>
D e</w>
Canad a</w>
, 000</w>
week end</w>
vigil ant</w>
un preced
unpreced ented</w>
un known</w>
un certain</w>
ul ar</w>
ter most</w>
sud denly</w>
st ad
so f
reve aled</w>
rec our
phthal ates</w>
overwhel ming</w>
ou termost</w>
oppon ents</w>
oper ates</w>
nu ts</w>
newsp aper</w>
medic ine</w>
leng thy</w>
it e
inter medi
integr ating</w>
int ent</w>
in directly</w>
im pressive</w>
g ly</w>
fruit ful</w>
expres ses</w>
explo ited</w>
evalu ated</w>
epide m
el on</w>
du plic
dol lar</w>
distor tions</w>
dis appear</w>
depen ding</w>
deep er</w>
dedic ated</w>
de vote</w>
de ar</w>
car bon</w>
c ards</w>
bor g</w>
ate -General</w>
a ma
Rom a</w>
RO M</w>
R E
Pro duc
P lat
Olymp ic</w>
Monterre y</w>
Liber als</w>
Buiten weg</w>
B l
A b
w o
w ind</w>
vic es</w>
v ary</w>
u ght</w>
th row</w>
symbo lic</w>
spe edy</w>
sor ts</w>
short age</w>
sei ze</w>
requ iring</w>
recour se</w>
reconc ile</w>
re tained</w>
ra c</w>
quar ter</w>
protec tion
ple as
p hon
p ages</w>
ow ski</w>
obser v
min ing</w>
men ds</w>
main tenance</w>
loc k</w>
lo tted</w>
lo op
l ag
jeopardis e</w>
interf ere</w>
intel ligent</w>
in correct</w>
ic ed</w>
h ec
h at
gui de</w>
fores een</w>
fle ets</w>
f ed</w>
envis age</w>
ell a</w>
eij s</w>
du le</w>
distur bing</w>
demonstr ation</w>
contradic tions</w>
bar bar
ban an
arz emb
applau d</w>
am ed</w>
aest ors</w>
ad vis
Wh ilst</w>
T AC
Swit zer
Sci enti
S al
Par is</w>
P eijs</w>
J arzemb
I N
H ol
G ar
Fre edoms</w>
Ech elon</w>
Dec ision</w>
A rea</w>
- and-
ver sions</w>
ur ged</w>
tis m</w>
thres holds</w>
the red</w>
ter ly</w>
tari ff</w>
tari at</w>
t z</w>
struc tured</w>
sta ke
si c</w>
sche dule</w>
s le
rigor ous</w>
re rs</w>
qual itative</w>
promo tes</w>
produc tivity</w>
princip al</w>
premi um</w>
po l
pi gs</w>
o te</w>
noti fication</w>
no -
mo ves</w>
may be</w>
inhe rent</w>
im peri
form ity</w>
exemp t</w>
distor tion</w>
de fe
country side</w>
conclu ding</w>
con ferences</w>
be st
b bels</w>
b ans</w>
au diovisual</w>
arbitr ary</w>
ar ded</w>
al ous</w>
ad ul
acc um
Switzer land</w>
Sustain able</w>
So vie
Slo ven
S ak
Pers on
Pat ent</w>
PP E</w>
Mon it
Jarzemb owski</w>
Goe bbels</w>
Director ate-General</w>
Conser vative</w>
Con ciliation</w>
Co x</w>
Bon n</w>
1 /
z i
wi den
w est</w>
vis as</w>
un realistic</w>
tun nel</w>
ther ing</w>
ten sions</w>
teach ers</w>
t mas</w>
sup pli
stre t
satis fy</w>
s h</w>
ridic ulous</w>
ri ties</w>
remo ving</w>
regis tered</w>
recei ves</w>
prohib ited</w>
prohi bi
oppos ing</w>
opoulo u</w>
occup ation</w>
multi annual</w>
mil est
lo gic</w>
k o
in ations</w>
ho pe
he l</w>
gr as
foo ting</w>
fir st-
exec ution</w>
every day</w>
eli gible</w>
e ase</w>
dis regard</w>
determin ing</w>
dee ds</w>
decentr alisation</w>
d ently</w>
d able</w>
correc ted</w>
confid ential</w>
concentr ated</w>
conc ur</w>
con science</w>
co co
cau tion</w>
care er</w>
bas sad
banan as</w>
b a
assist ants</w>
arti sts</w>
appropri ately</w>
ann ually</w>
al lotted</w>
al lies</w>
agg res
acqui red</w>
V ery</w>
Strate gy</w>
Secre tary</w>
Ru i
R el
Pu tin</w>
Moroc can</w>
Ho pefully</w>
Gö te
Cy pri
Chris tmas</w>
A id</w>
6 5</w>
5 1</w>
y right</w>
wis dom</w>
vege table</w>
unic ip
splen did</w>
sh el
s hap
s adly</w>
rev ise</w>
reach es</w>
pr icing</w>
p sy
orien tation</w>
no tably</w>
newsp apers</w>
moun tain</w>
meth odo
mea su
ma d</w>
m ass
invest ed</w>
inju red</w>
immen se</w>
id en
explic it</w>
escap e</w>
dis abilities</w>
democr ats</w>
de z</w>
de regulation</w>
de ployment</w>
conflic ting</w>
condem nation</w>
comple mentary</w>
communic ate</w>
ce l</w>
atmo sphere</w>
ast on
appro ving</w>
anxi ous</w>
anticip ated</w>
Sing le</w>
Pro f
Partn ership</w>
Monit oring</w>
Israel is</w>
Göte borg</w>
G A
F Y
Equ al</w>
yi eld</w>
wh ite</w>
vit am
under stands</w>
un desirable</w>
threat ens</w>
stream ing</w>
smo kers</w>
sen tences</w>
s par
ro les</w>
repe ating</w>
produc es</w>
presid ential</w>
prefer able</w>
plen ty</w>
ob struc
neutr ality</w>
nation ality</w>
n dez</w>
n ally</w>
lif ted</w>
k land</w>
it ment</w>
investig ated</w>
h em
fulf illing</w>
fre e
fla x</w>
f righ
en ables</w>
decentr alised</w>
conten ts</w>
condem ning</w>
con i</w>
co verage</w>
co stly</w>
circ le</w>
cal m</w>
ban k
aw arded</w>
ass oure</w>
artific ial</w>
appro aching</w>
analy ses</w>
an cy</w>
al liance</w>
ag ents</w>
after wards</w>
aff air</w>
ad visory</w>
ab sent</w>
Terr or
Sovie t</w>
Musli m</w>
Mi gu
Lam assoure</w>
Hung ary</w>
Guine a</w>
FY ROM</w>
EM U</w>
Ca uc
Blo kland</w>
B ou
A G
9 9</w>
x ity</w>
war ran
w anting</w>
w al
w ages</w>
ur an
uran ium</w>
tt on</w>
tra ined</w>
tic ism</w>
throw n</w>
su ited</w>
stri ve</w>
standardis ation</w>
sovere ign</w>
sh o
sev e
request ing</w>
reg im
re tro
re plies</w>
ra rely</w>
quanti tative</w>
public ation</w>
prof ession</w>
proce eding</w>
on ian</w>
mid dle</w>
mani fe
ma p</w>
m unicip
loc ated</w>
li ft</w>
la field</w>
it ting</w>
in stances</w>
in security</w>
in ery</w>
in comprehensible</w>
identi fication</w>
hal f-
fronti er</w>
fo ster</w>
fe eding</w>
exce ed</w>
eth ics</w>
endeav ours</w>
en sive</w>
employe e</w>
emplo y</w>
embar go</w>
do va</w>
diff ering</w>
di min
deple ted</w>
cop y</w>
co ld</w>
co ast</w>
ation als</w>
an e</w>
air space</w>
V el
Ta ke</w>
Sel lafield</w>
Sa har
S port</w>
S pe
S C</w>
OS CE</w>
Lef t</w>
K u
J er
Conser vatives</w>
Chi rac</w>
ä n
well- known</w>
vo ices</w>
vigor ous</w>
unil ater
tt ably</w>
tour ist</w>
suppor ters</w>
stu died</w>
separ ately</w>
sen ds</w>
se ed</w>
rout es</w>
reser ved</w>
rem un
pursu it</w>
propag anda</w>
promp tly</w>
prof itable</w>
po ore
poore r</w>
pl ying</w>
parad o
par amount</w>
p act</w>
over due</w>
op ted</w>
offici ally</w>
mis understanding</w>
mic ro
legislat ors</w>
l ers</w>
is ted</w>
inv itation</w>
ill on</w>
gra ti
fran kly</w>
frag ile</w>
formul a</w>
fo rest</w>
fi ve
f ash
fash ion</w>
exemp tions</w>
ess ing</w>
dest abil
cre ative</w>
change over</w>
bir th</w>
balan ces</w>
b loo
at ro
an ian</w>
ag on
ac u
S A
Person ally</w>
Pen sioners</w>
Mor illon</w>
Gi br
G on
Co lo
C i
C I
B 5-
z o
un its</w>
th o
t ant</w>
suic ide</w>
shi f
sen ten
secon d-
s cour
rul ing</w>
regim es</w>
reason ing</w>
psy cho
pro vision
pre ference</w>
pre condition</w>
po sure</w>
plat form</w>
orien ted</w>
na vig
modern ise</w>
men tioning</w>
like wise</w>
law yer</w>
k illing</w>
j- We
j-We gg
j-Wegg en</w>
in sti
im balance</w>
iden tical</w>
ha ke</w>
ha b
go od
exc iting</w>
ex ported</w>
evi dently</w>
equip ped</w>
enorm ously</w>
encoura ges</w>
empl ary</w>
dra ws</w>
distinc t</w>
dist ant</w>
deliber ately</w>
d or
custom ers</w>
cosme tics</w>
cop yright</w>
co w</w>
c as
bot tom</w>
beau ti
be red</w>
back wards</w>
appreci ated</w>
ap pointment</w>
an ci
ai j-Weggen</w>
accor d</w>
ac commod
aband oned</w>
S m
P ap
Mic hel</w>
Mc Car
M aij-Weggen</w>
LE ADE
Kar as</w>
In ci
E l
E co
Con cer
4 7</w>
vigor ously</w>
us al
ur tz</w>
underestim ate</w>
uc h
to ys</w>
suspec t</w>
surve y</w>
success es</w>
stimul ate</w>
seve rely</w>
sec uring</w>
repu tation</w>
pro cu
preced ence</w>
pos s
port er</w>
obser ver</w>
multin ationals</w>
momen tum</w>
mach inery</w>
lor ries</w>
li ved</w>
less ly</w>
is ting</w>
is c
inspi red</w>
in stability</w>
g lo
fe es</w>
f ram
expec ting</w>
ex emplary</w>
enjo yed</w>
ener gies</w>
e th</w>
diplom acy</w>
deplo yed</w>
deleg ates</w>
defici encies</w>
contamin ated</w>
cha ir</w>
ce re
catastrop he</w>
c a</w>
benefici aries</w>
anticip ate</w>
ai ds</w>
advoc ates</w>
adv ise</w>
ac a
ab stain</w>
W urtz</w>
Tim or</w>
Th ings</w>
Se attle</w>
M ul
Jer usal
Chil dren</w>
Chech en</w>
Cer tain</w>
C ateg
Argen tina</w>
ö r
z ones</w>
work able</w>
v ina</w>
up per</w>
unequivoc al</w>
trans national</w>
time -
ti ed</w>
te aching</w>
stri king</w>
sh ed</w>
set tle</w>
ser v
selec ted</w>
se ats</w>
scand alous</w>
ris en</w>
reci pi
radic ally</w>
pl as
par ti
pan -European</w>
on tain
offic ers</w>
occur ring</w>
n y</w>
mass ac
lo ts</w>
let ters</w>
in cur
i v
high lighting</w>
func tional</w>
fra me
fin ds</w>
f in</w>
expen ses</w>
exis ted</w>
exces sively</w>
er ly</w>
epidem ic</w>
ec o-
e ote</w>
dr astic</w>
disman tling</w>
dis rup
dis appe
destro ying</w>
counter -
constitu ents</w>
concer ted</w>
coco a</w>
clu bs</w>
ch ose</w>
cat ches</w>
break through</w>
bigg er</w>
auth ors</w>
arch y</w>
alloc ate</w>
all s</w>
ad ds</w>
a sus</w>
Ser bian</w>
Scienti fic</w>
S und
Res olution</w>
M ill
M ari
LEADE R</w>
Jerusal em</w>
Green s/
Gon z
Gal eote</w>
Ethiop ia</w>
Cauc asus</w>
Ac t</w>
4 9</w>
zi o-
zio- Plat
zio-Plat h</w>
vo iced</w>
vir tu
un usual</w>
u sted</w>
th es
ta il</w>
sub mitting</w>
st yle</w>
satell ite</w>
safeguar ded</w>
s wit
s ca
ro b
respon ding</w>
ren dt</w>
ref using</w>
recom mends</w>
re alities</w>
ra tions</w>
ra ft</w>
publ ish</w>
pain ful</w>
op pression</w>
o st
mis taken</w>
manufacture r</w>
main streaming</w>
lob b
lim iting</w>
lic ence</w>
legis late</w>
in spir
in compatible</w>
id able</w>
ha ul</w>
ge red</w>
for ce
excell ence</w>
eradic ate</w>
er red</w>
empha tically</w>
dis play</w>
depart ments</w>
dec omm
d ens</w>
coun cils</w>
br an
bloc ked</w>
bal lot</w>
b on
assum ption</w>
as best
ant opoulou</w>
and zio-Plath</w>
am an
ab sor
V e
R andzio-Plath</w>
Qu aestors</w>
Pe ter
Le g
K au
Inter institutional</w>
G or
F ontain
Con sid
C R</w>
5 3</w>
4 6</w>
4 1</w>
á lez</w>
wish ing</w>
wel coming</w>
w il
tw o
suspen d</w>
stre ets</w>
sta ff
st ore</w>
speci fy</w>
smugg ling</w>
sel ling</w>
s we
s even
rest ored</w>
reiter ated</w>
pu is</w>
pres sures</w>
poli c
pleas ant</w>
oun dly</w>
milest one</w>
mi d</w>
men tions</w>
laun ching</w>
journe y</w>
iti s
issu ing</w>
inten se</w>
har sh</w>
gr ound
farm er</w>
ex ag
exag ger
embar r
el ap
du al</w>
dis agreement</w>
cr ates</w>
corner stone</w>
conf use</w>
comple xity</w>
comp are</w>
collec ted</w>
co existence</w>
chan nel</w>
bri dge</w>
bo x</w>
bo ats</w>
atten ding</w>
ass ing</w>
am antopoulou</w>
alis tic</w>
al es</w>
adhe red</w>
ad vised</w>
S an</w>
O EC
N one</w>
M at
Inci dentally</w>
Gonz ález</w>
Gibr altar</w>
Gh ent</w>
Fontain e</w>
Europe -
E TA</w>
Du puis</w>
Di amantopoulou</w>
Ch ile</w>
Categ ory</w>
B asi
Al gerian</w>
9 /
8 5</w>
200 7</w>
wor ded</w>
under lined</w>
tun e</w>
sur ances</w>
ste pped</w>
sid ed</w>
relation ships</w>
refra in</w>
recogn ising</w>
re medi
r is</w>
question able</w>
plur alism</w>
ow ing</w>
ni um</w>
modi fication</w>
mag n
lim itation</w>
li a</w>
ific ation</w>
hol es</w>
ho sti
h o</w>
ge ly</w>
ful ness</w>
feder ation</w>
f ell</w>
emphas ising</w>
du ly</w>
dil em
depri ved</w>
deb ts</w>
consul ting</w>
co al</w>
civil ised</w>
cha os</w>
cen tu
bul k</w>
bo tt
ban ana</w>
at om</w>
antibio tics</w>
an a
addi tionality</w>
ac ute</w>
Y outh</w>
Syri a</w>
Sloven ia</w>
S av
S adly</w>
Roth -
Roth- Be
Re ding</w>
R ad
Over all</w>
Mol dova</w>
Me a
H ai
Eco fin</w>
Bö sch</w>
Bl air</w>
Bel grade</w>
199 0s</w>
1 7
z id
weap on</w>
wat er
w rec
u res</w>
tre ating</w>
trans posed</w>
tr e</w>
tal a</w>
sym p
st ones</w>
sou th-
seri ousness</w>
scen e</w>
reser ves</w>
re vising</w>
pul l</w>
pre dec
periph eral</w>
per mits</w>
over view</w>
o live</w>
now adays</w>
ne o-
mo tor</w>
min ded</w>
macro economic</w>
mach ines</w>
is lands</w>
interpre t</w>
insis ted</w>
indi genous</w>
in effective</w>
il legally</w>
ide ology</w>
honest y</w>
hom es</w>
fam ous</w>
f its</w>
extremis ts</w>
exc ise</w>
ev es</w>
er ate</w>
enhan cing</w>
ele ven</w>
e dly</w>
dispar ities</w>
descri ption</w>
demonstr ators</w>
demo graphic</w>
deliber ations</w>
d oping</w>
continu ous</w>
connec tions</w>
commend able</w>
co operating</w>
certi fic
ce ly</w>
calcul ated</w>
bu s</w>
bo ld</w>
b ought</w>
atten d
asbest os</w>
an nex</w>
ali ke</w>
ab used</w>
a to</w>
a be
S om
OEC D</w>
Mar t
Lan gu
La w</w>
L om
K or
I ran
Hau tala</w>
Greens/ European</w>
F orm
F ar</w>
Comm unic
C au
B ang
Au str
An n
witness ing</w>
wast ed</w>
view ing</w>
vi ate</w>
ut terly</w>
us e
under lines</w>
tri als</w>
tell s</w>
taxpay er</w>
tari ffs</w>
suspic ion</w>
suspec ted</w>
sur face</w>
substan tive</w>
star ts</w>
sh ot</w>
scand als</w>
ri ous</w>
respon sibly</w>
resolu tely</w>
renew al</w>
recru itment</w>
qui ries</w>
pro v
prejudic e</w>
pe titions</w>
pati ent</w>
p ical</w>
p has
ot ti</w>
or able</w>
od d</w>
occur s</w>
mo tives</w>
mis si
minim al</w>
milit ar
men ting</w>
manufac turing</w>
main tains</w>
lo y
lo ad</w>
len ec
lan der</w>
is ations</w>
ir s</w>
ge ared</w>
g aps</w>
flu ous</w>
f ly</w>
exten ds</w>
exerc ised</w>
exclu ding</w>
ex posure</w>
enem y</w>
dis advantages</w>
decomm ission
deal ers</w>
dat ab
counter parts</w>
coun ting</w>
cooper ative</w>
con g
compati bility</w>
cho o
bur dens</w>
bott lenec
bl ack
bi d</w>
at ories</w>
aspi rations</w>
as sumed</w>
announ cement</w>
am p</w>
Un like</w>
T om
Sund ay</w>
R ü
May be</w>
Ma es</w>
L uc
H at
EC SC</w>
8 00</w>
198 9</w>
y ards</w>
wa ve</w>
w ro
wro te</w>
vi ability</w>
trans ported</w>
tra ins</w>
ti sed</w>
ti an</w>
the mes</w>
te ams</w>
super fluous</w>
ster ling</w>
stake holders</w>
spo kes
so far</w>
sim ul
sil ent</w>
sigh ted</w>
sen ior</w>
sc rap
re turning</w>
profes sions</w>
proce eds</w>
pro vo
pr on
plac ement</w>
pat ter
par tially</w>
own -
n ice</w>
moder ate</w>
mis ery</w>
min ors</w>
m ation</w>
li able</w>
legislat or</w>
law ful</w>
la u
inform ing</w>
in ti
head way</w>
for wards</w>
fl ying</w>
domin ant</w>
dis semin
dis played</w>
des p
def ended</w>
d ying</w>
consolid ated</w>
compli ment</w>
compl ying</w>
cin em
c ite</w>
brut al</w>
ash man</w>
ar ma
ann ex
St en
Leg is
L ud
K ong</w>
In dian</w>
H ong</w>
Fi ori</w>
Eur atom</w>
Egy p
EC O
Col lege</w>
C ashman</w>
Berl us
7 /
ä r
ye ar-
w ine</w>
vers al</w>
un ch</w>
ti lation</w>
syn thetic</w>
ste pping</w>
stad t</w>
spec tac
small -scale</w>
shoc king</w>
senten ced</w>
scr up
sal mon
reci pro
push ing</w>
pron oun
prom pt</w>
procu rement</w>
pro li
pre sum
particip ated</w>
own- initiative</w>
ordin arily</w>
noti fied</w>
no where</w>
navig ation</w>
nation alism</w>
n ic
mo des</w>
m uch
lob by</w>
lo ve</w>
k ill</w>
j k</w>
ing -up</w>
imp unity</w>
identi fying</w>
hoo lig
h rendt</w>
excep tionally</w>
establish es</w>
engine ering</w>
e z</w>
dyn am
dor f</w>
docu mentation</w>
di jk</w>
dest ination</w>
depl orable</w>
dec ides</w>
de -
dam aged</w>
convin cing</w>
con vers
compl ain</w>
centu ries</w>
c row
c ash</w>
bu tter</w>
beauti ful</w>
avoi ding</w>
ass ent</w>
appe als</w>
aman ou</w>
ali gn
adv ances</w>
ad mitted</w>
ad just</w>
U l
Tom orrow</w>
Tit ley</w>
Nep al</w>
Mart í
Man n</w>
Lo o
Kar amanou</w>
J ack
Hul ten</w>
Hai der</w>
For um</w>
ED F</w>
Ad mittedly</w>
6 2</w>
3 /
2000- 2006</w>
är m</w>
zid akis</w>
ze go
zego vina</w>
weak ened</w>
vers y</w>
up held</w>
t ment</w>
t esti
suspen sion</w>
sup plied</w>
spec tive</w>
so ft</w>
smo o
sit tings</w>
self- regulation</w>
scour ge</w>
restric ting</w>
res ist</w>
redund ancies</w>
re acted</w>
proli fer
pi g</w>
p age</w>
own ership</w>
op ens</w>
on ym
l uck</w>
individu ally</w>
hat red</w>
gall ery</w>
frame works</w>
forese eable</w>
fe et</w>
fat al</w>
expl ains</w>
es o</w>
en large</w>
ech o</w>
ear n</w>
discre tion</w>
deli vering</w>
dec reas
d read
d in
d ants</w>
coun tered</w>
contro versy</w>
co des</w>
challen ging</w>
be have</w>
agre eing</w>
agen dijk</w>
a th
Vel zen</w>
UN H
U E
T an
So crates</w>
Sev eso</w>
S r
Prof essor</w>
O thers</w>
Minis try</w>
Med ina</w>
Mc K
McK enna</w>
Lud ford</w>
L agendijk</w>
Jack son</w>
Is lands</w>
Inde pend
Her zegovina</w>
Hat zidakis</w>
H on
Glob al</w>
F ärm</w>
Euro control</w>
Concer ning</w>
Berlus coni</w>
Amon g</w>
1 20</w>
é s</w>
toler ate</w>
tim ately</w>
st ay
spec ul
simul tane
simpli fying</w>
sh op</w>
separ ated</w>
se as
salmon ella</w>
sa ved</w>
s am
rep air</w>
redund ant</w>
qui et</w>
pro stitu
privile ge</w>
pre z</w>
postpon ing</w>
postpon ement</w>
pollu ter</w>
po or
pi ec
par ame
p in</w>
occa sion
ne sty</w>
n ity</w>
mom ents</w>
liber alised</w>
le vy</w>
lab or
judic i
j o</w>
ite head</w>
in ated</w>
il -
i ds</w>
hous ing</w>
fre e-
fin alised</w>
extra ordinarily</w>
en sures</w>
em i
dur ation</w>
discrimin ate</w>
discrepan cies</w>
diox in</w>
devast ating</w>
detri mental</w>
desper ately</w>
commod ity</w>
co- decision</w>
cl aiming</w>
bu ying</w>
benef ited</w>
belong ing</w>
autonom ous</w>
ash ed</w>
as k
am ing</w>
acknowled ges</w>
achiev able</w>
a ven
Wh itehead</w>
Val en
UNH CR</w>
The ato</w>
Tech n
Scot tish</w>
S an
Roth-Be hrendt</w>
Pur vis</w>
Prog ress</w>
Mea sures</w>
M y
M org
Lom é</w>
L at
In cre
I z
Govern ments</w>
Fi j
F lo
F A</w>
Equ ally</w>
De prez</w>
B an
A R</w>
A L</w>
3 0
è re</w>
x ing</w>
w all</w>
v es
under pin
un necessarily</w>
un likely</w>
un ambiguous</w>
thir ds</w>
the ore
ta ught</w>
sul ph
soci alist</w>
smoo th</w>
slaugh tered</w>
sch i
scep tical</w>
respon ds</w>
rec over</w>
re ha
re board</w>
r uled</w>
qui er
quier do</w>
pre m
pra is
por ters</w>
pa tional</w>
on i</w>
ol l</w>
mu tually</w>
mis use</w>
mir ac
liber ty</w>
inter mod
incorpor ating</w>
hum ili
ha ble</w>
gu es</w>
grati fying</w>
gras p</w>
frustr ation</w>
foun ding</w>
fea sibility</w>
fas c
ex tradition</w>
estim ate</w>
engin es</w>
emp t</w>
elap sed</w>
e ast
dro pped</w>
draf t
deteri oration</w>
den tal</w>
decommission ing</w>
decis i
dec ent</w>
conve y</w>
conduc ting</w>
certi fication</w>
can ts</w>
c ross</w>
bun al</w>
broadcast ing</w>
bi ous</w>
begin s</w>
be l</w>
appli cants</w>
ang le</w>
alleg ations</w>
ali ve</w>
accus ations</w>
ab und
Wor k</w>
Sch ul
Reg ul
P ack</w>
M en
M ag
Le ban
L or
Iz quierdo</w>
Gre ater</w>
Fin ance</w>
Europe- wide</w>
Est onia</w>
Com petition</w>
Ci vil</w>
Be sides</w>
Ad di
7 1</w>
6 /
5 6</w>
z u</w>
vis itors</w>
vir us</w>
vic i</w>
ves sel</w>
ve dly</w>
univers ally</w>
und ec
un reasonable</w>
un qualified</w>
un ite</w>
um es</w>
tra -
t ress</w>
supple mented</w>
substitu te</w>
sub ordin
stipul ates</w>
stipul ated</w>
spec ulation</w>
some where</w>
shor ter</w>
shoc k</w>
sha re
sector al</w>
s light</w>
resid ents</w>
resid ent</w>
regre ts</w>
privile ged</w>
presid encies</w>
pre tty</w>
pha sing</w>
perpetr ators</w>
pe ac
ow ed</w>
ost lander</w>
organis ational</w>
on do</w>
new ly</w>
n -
moun t</w>
manufac ture</w>
less ness</w>
l am
ing dorf</w>
infec ted</w>
in sight</w>
in k</w>
hum ans</w>
hosp ital</w>
gl adly</w>
fore ver</w>
fif ty</w>
ex cess</w>
entreprene urs</w>
employ er</w>
ell ed</w>
ef e</w>
dr on</w>
domin ated</w>
disgr aceful</w>
dele ted</w>
d are</w>
coun cil</w>
correc tion</w>
car go</w>
au l</w>
att acked</w>
an i</w>
abol ishing</w>
W ater</w>
V arious</w>
Terror ism</w>
St ate
O ostlander</w>
N apo
Mosco vici</w>
Mol uc
Langu ages</w>
K ab
I vo
Gra efe</w>
Fif th</w>
EP P</w>
E ar
D urban</w>
Cau dron</w>
Cam bo
Bo ard</w>
Bar ingdorf</w>
Balk an</w>
B5- 0
Al most</w>
7 00</w>
5 2</w>
v ine</w>
un er</w>
ugh es</w>
typ ical</w>
tox ic</w>
tor ies</w>
tion ;</w>
ti le</w>
ti ght</w>
thes is</w>
suppli ers</w>
strong est</w>
st ure</w>
spo t</w>
se ment</w>
scar cely</w>
s cap
re tar
re placing</w>
rac ial</w>
prof oundly</w>
pro secutor</w>
preven ts</w>
pr in
point ments</w>
plan e</w>
pers istent</w>
perce ived</w>
per secuted</w>
per forming</w>
par am
param ilit
p ac
occu pational</w>
much -
motiv ated</w>
mo stly</w>
mem ory</w>
magn ific
li ve
inter action</w>
indic ations</w>
in comes</w>
impro ves</w>
high- level</w>
expl aining</w>
ever -
es sive</w>
end ers</w>
en i
elimin ating</w>
du bious</w>
der ived</w>
curren cies</w>
cons ist</w>
cong estion</w>
conf isc
colon ial</w>
ch ron
b ord
are ly</w>
an ese</w>
adju sted</w>
adap tation</w>
accor ded</w>
aca demic</w>
a ren
Sta uner</w>
Sta es</w>
Sol bes</w>
Par ticul
N P</w>
Musli ms</w>
L anc
Isl am</w>
ICA O</w>
H ughes</w>
Go od</w>
Form er</w>
Egyp tian</w>
E lec
Christi ans</w>
Ch an
Bang lad
6 3</w>
5 8</w>
5 7</w>
wor ries</w>
win d
vis its</w>
tim ing</w>
tigh ten</w>
summar ise</w>
stat u
st ag
si di
si ans</w>
sh ops</w>
righ t-wing</w>
res sing</w>
reha bil
qu in</w>
psycho logical</w>
pro secu
pre sup
pl ing</w>
pic tures</w>
phon es</w>
pen ing</w>
p al
over ri
one- sided</w>
mu tilation</w>
mobil ise</w>
methodo logy</w>
medium- term</w>
manipul ation</w>
land scap
l er
is en
isen berg</w>
influ en
industri alised</w>
independ ently</w>
ind ul
illustr ated</w>
ho le</w>
her self</w>
hear t
ga ther</w>
g ains</w>
frag mented</w>
fra ud
f stadt</w>
escal ation</w>
environment ally-
elimin ated</w>
electr ical</w>
earli est</w>
e ating</w>
di versi
continu ity</w>
contin en
congratul ated</w>
commo date</w>
co tton</w>
ch et</w>
ch e</w>
certain ties</w>
c yn
c ure</w>
c ue</w>
be an</w>
bassad or</w>
auc tions</w>
ang er</w>
accum ul
ac commodate</w>
Ver ho
V alle
T or
Sup port</w>
Sav ary</w>
S pec
S met</w>
Ri ght</w>
Pa ul
P A</w>
Nor way</w>
Ma ur
Lanc ker</w>
Ky i</w>
Iran ian</w>
I T</w>
I II</w>
G ames</w>
G NP</w>
Fij i</w>
Ex peri
Dan i
Cypri ot</w>
Ca tho
Bus quin</w>
B AN</w>
A ir</w>
2 50</w>
widen ing</w>
well- being</w>
vill ages</w>
up dated</w>
un reser
unreser vedly</w>
tw are</w>
ten e
tene gr
t ough
t abo
st up
speci alist</w>
sla very</w>
shoc ked</w>
see ds</w>
secu rities</w>
s s
run -up</w>
rest oring</w>
regul ators</w>
ration ale</w>
prolifer ation</w>
prohibi tion</w>
prof it
pro xim
point less</w>
play er</w>
perman ently</w>
over looked</w>
optim um</w>
omen -
omen- Rui
omen-Rui j
omen-Ruij ten</w>
no is
medi ation</w>
labe lled</w>
la ying</w>
investig ating</w>
introduc es</w>
in sofar</w>
hi er
fu ge
fron ts</w>
fo ssi
fo ref
fac to</w>
f illed</w>
f ats</w>
f ana
en cry
distor t</w>
de gra
cro p</w>
cour ses</w>
contr acting</w>
confron ted</w>
compu ters</w>
coinci dence</w>
ch -
c um
as surances</w>
ad ult</w>
ad o</w>
ab ide</w>
ab duc
Verho fstadt</w>
Ve terinary</w>
TE N
Su u</w>
Re fuge
Po os</w>
O omen-Ruijten</w>
Mon tenegr
M il
Fif thly</w>
Du isenberg</w>
Con go</w>
Communic ation</w>
Basi cally</w>
y t
win dow</w>
we b</w>
we ather</w>
vit ally</w>
valu ed</w>
undermin ing</w>
tro ika</w>
trans late</w>
tr act</w>
time tables</w>
symp tom
sup porter</w>
statu tory</w>
speci ally</w>
sp are</w>
sor ship</w>
sof tware</w>
si mis
selec tive</w>
sco reboard</w>
ro ll
rehabil itation</w>
re pressive</w>
re patri
r are</w>
publ ishing</w>
provision al</w>
pri de</w>
preser vation</w>
pos edly</w>
poor ly</w>
po c
ple dge</w>
ple a</w>
pl ain</w>
pas sive</w>
over look</w>
on wards</w>
ne z</w>
magnific ent</w>
loop holes</w>
live li
l uc
journ alist</w>
ir rever
invest ing</w>
intoler ance</w>
infrin gements</w>
illustr ation</w>
hy dro
hi dden</w>
hes itation</w>
head ed</w>
gg ing</w>
ga thering</w>
fri end
formul ate</w>
for give</w>
fil ms</w>
ffici al</w>
fe ared</w>
fav ours</w>
exacerb ated</w>
es -
en countered</w>
emb rac
dio xide</w>
dilem ma</w>
di fication</w>
der man</w>
constitu tions</w>
ci a</w>
cham ber</w>
c í
b and</w>
atro cities</w>
as tically</w>
anci ent</w>
U R
Schul z</w>
S au
Paul sen</w>
P -
Montenegr o</w>
Mal m
LI LE
LILE O</w>
LI F
L ul
Ko st
H ow
GA LILEO</w>
F arm
ECO FI
E l</w>
Banglad esh</w>
Alban ians</w>
ASE AN</w>
A ir
6 7</w>
20 15</w>
1 2
xenophob ic</w>
vis iting</w>
view point</w>
ver n</w>
ur ches</w>
und eni
trans formation</w>
teen th</w>
symbo l</w>
sup posedly</w>
sugge sting</w>
subsid ised</w>
sha me
sex u
settle ments</w>
secu red</w>
sal aries</w>
reser vation</w>
rec ur
re vol
purcha se</w>
progres sing</w>
pro voc
pes simis
pen al</w>
peace keeping</w>
opt- out</w>
oblig atory</w>
mur dered</w>
mi x</w>
mer ger</w>
k no
judg ments</w>
it ec
is tic
is s</w>
inter nally</w>
instruc tions</w>
ing ;</w>
im minent</w>
im ages</w>
ill nesses</w>
hon oured</w>
hol der</w>
h ome
go vern</w>
fr ank</w>
fossi l</w>
fore mentioned</w>
fav oured</w>
fa ther</w>
f ant
ex pects</w>
eradic ation</w>
er als</w>
environmentally- friendly</w>
encoura gement</w>
embr ace</w>
dread ful</w>
dis proportionate</w>
desp air</w>
depart ment</w>
def ec
d au
confir mation</w>
concep tion</w>
compens ate</w>
chi efly</w>
char ging</w>
categ or
c as</w>
by- products</w>
be fore
attr act</w>
attend ance</w>
at ur
announ ce</w>
an te</w>
al um
affor dable</w>
advoc ating</w>
acces sibility</w>
a forementioned</w>
a er
Wor king</w>
Ul timately</w>
U p</w>
T R
Sö derman</w>
S ud
R ac
Per spective</w>
Maur it
Mar in
Man agement</w>
M é
M AG
Le hne</w>
J en
Ivo ire</w>
Gar cí
G a
Farm ers</w>
F O
EM AS</w>
ECOFI N</w>
E P</w>
C s</w>
A ung</w>
6 00</w>
-to- day</w>
ô te</w>
y ard
weak er</w>
vill age</w>
vigil ance</w>
vers ary</w>
up dating</w>
undermin es</w>
undec lared</w>
ti a</w>
thir teen</w>
staff ing</w>
so il</w>
simpl er</w>
shi pow
sh op
secre tariat</w>
ru b
restra int</w>
rest oration</w>
ren ation
rem em
remem bered</w>
re war
prostitu tion</w>
practic able</w>
pr int</w>
ple dged</w>
pen e
parame ters</w>
or um</w>
o tic</w>
o sity</w>
minim ise</w>
min erals</w>
mid t</w>
mi grants</w>
me at
mal aria</w>
mach ine</w>
liber alising</w>
leg acy</w>
justi fies</w>
itis m</w>
it y-
istic ò</w>
insti g
in tr
in land</w>
in justice</w>
in equ
in complete</w>
im ply</w>
her bal</w>
habit ats</w>
gn e</w>
gen e</w>
ge sture</w>
ga thered</w>
frequ ent</w>
forwar d-
fl our
experi ments</w>
exhaus tive</w>
exerc ising</w>
ex cus
e g
disgr ace</w>
detec ted</w>
day -to-day</w>
dau gh
da c</w>
d well</w>
cont empl
confron t</w>
condem ns</w>
comple ting</w>
classi fied</w>
cere als</w>
capac ities</w>
c ell</w>
c ab
bom b</w>
bo at</w>
arran ge</w>
arch itec
alleg ed</w>
ad mittedly</w>
a qu
T em
T e
Sch mid</w>
S ac
Rec ently</w>
Ne t
Ne goti
N isticò</w>
N eves</w>
Lul ling</w>
Indone sian</w>
IM F</w>
IC C</w>
GM O</w>
Euro dac</w>
D G</w>
C ôte</w>
Ber g</w>
B 5</w>
An d
Ac cess</w>
A viation</w>
6 6</w>
4 /
2 1
wor ker</w>
vir tual</w>
valid ity</w>
ush ed</w>
understand ings</w>
underestim ated</w>
un founded</w>
tri um
th ri
ten der</w>
stup id</w>
sor ted</w>
smo oth
sh ut</w>
serv ants</w>
ri e</w>
ren d
rec itals</w>
re think</w>
qu orum</w>
protec tive</w>
pro minent</w>
prevail ing</w>
pre me</w>
popul ated</w>
pion e
pas sion
par aly
p tions</w>
ow is</w>
oura bly</w>
on y</w>
multin ational</w>
mar ri
level led</w>
legis l
landscap e</w>
judici ary</w>
inspir ation</w>
ins ists</w>
incorpor ation</w>
inci dence</w>
in ter</w>
in cl
imprison ed</w>
horri fic</w>
hor mon
ho t</w>
har der</w>
ham ed</w>
h r
glob ally</w>
gl ass</w>
foref ront</w>
fla me</w>
fair ness</w>
facilit ating</w>
fa thers</w>
enthusi astic</w>
e- Europe</w>
e ps</w>
drin k</w>
dr astically</w>
dev ise</w>
demonstr ating</w>
dar k</w>
dam ages</w>
cu rious</w>
conce iv
co financing</w>
cl in
chil d
ce as
capit alist</w>
capit a</w>
c ited</w>
bloc ks</w>
before hand</w>
b low</w>
as set</w>
arri ving</w>
appropri ation</w>
al tered</w>
al arm</w>
Techn ical</w>
Ta king</w>
TE R
TER RE
TERRE G</w>
TAC IS</w>
T O
R oc
P ir
P H
Op port
N uclear</w>
LIF E</w>
IN TERREG</w>
E EC</w>
Di alogue</w>
D id</w>
Catho lic</w>
C at
B owis</w>
Austr alia</w>
An im
Adminis tration</w>
A ids</w>
wron gly</w>
win ter</w>
win ners</w>
ver ification</w>
ven cy</w>
up -to-
unic a</w>
un democratic</w>
um p</w>
tri alogue</w>
the matic</w>
sy ner
su peri
stud ying</w>
stipul ate</w>
ste dt</w>
smo ke</w>
self- evident</w>
s men</w>
rig our</w>
re viewing</w>
re sign
re actors</w>
r ush</w>
push ed</w>
profession als</w>
poll ut
ple dges</w>
pl ain
peac e-
over haul</w>
oun g</w>
oul ouse</w>
ol l
od ds</w>
neg ligence</w>
mon thly</w>
manag ers</w>
man kind</w>
m ar</w>
ll es</w>
liter ally</w>
lic al</w>
le vi
le ts</w>
lag ging</w>
know ing</w>
ke eps</w>
ish es</w>
ir o</w>
inti mid
intensi fy</w>
intensi fied</w>
imag in
holi day</w>
har ov</w>
har dt</w>
har d
grass -
gr and
gen es</w>
fo ol
floo ding</w>
fail ures</w>
fac tory</w>
extremis t</w>
extremis m</w>
explo sion</w>
ex porting</w>
ex -
envis ages</w>
endeav oured</w>
em itism</w>
elimin ation</w>
e ous</w>
do g
distor ted</w>
distingu ished</w>
dis gu
denoun ce</w>
de vised</w>
de tention</w>
d led</w>
convic tions</w>
conver sion</w>
contro ll
conce al</w>
con dol
chi ef</w>
chec king</w>
che ap
ch equ
car ries</w>
bil lions</w>
bi ome
barri er</w>
at tribu
as hamed</w>
arma ment</w>
ap pointments</w>
ann i
adul ts</w>
ad missible</w>
Y oung</w>
W ales</w>
T oulouse</w>
Rec ent</w>
Pri ze</w>
P é
P res
Leban on</w>
Lat via</w>
Kost unica</w>
J our
H is
Experi ence</w>
Comm unities</w>
A L
2 /
-and- bone</w>
ö stedt</w>
we al
wat ch
vitam ins</w>
visi bility</w>
uni fied</w>
un resolved</w>
un justified</w>
tt i</w>
tro pical</w>
transfer ring</w>
tor ily</w>
to ken</w>
ti ll</w>
ti -
theore tical</w>
th ough
tan kers</w>
t- up</w>
su ffice</w>
strugg ling</w>
sti c</w>
smooth ly</w>
se g
s is
roll -
recti fy</w>
re alism</w>
ra y</w>
pun ish</w>
prohi bit</w>
pregn ant</w>
predic table</w>
pi g
pe t</w>
out breaks</w>
ou tri
op ting</w>
nor th-
neigh bour</w>
modern ising</w>
moder ation</w>
mis understandings</w>
meat -and-bone</w>
lif ting</w>
liber ties</w>
land mines</w>
junc ture</w>
j östedt</w>
it t</w>
is ers</w>
in capable</w>
i -
hor rend
head quarters</w>
h us</w>
gri ps</w>
grat ory</w>
gen ic</w>
expan ding</w>
eval uations</w>
enti ty</w>
endor ses</w>
encry ption</w>
en ligh
em an
ef s</w>
dri ver</w>
di visions</w>
di r
dele te</w>
construc tively</w>
confron tation</w>
compe ting</w>
cle ared</w>
clari fying</w>
cl asses</w>
chan ces</w>
ch urches</w>
ch ic
cat aly
cancell ed</w>
can cel</w>
bench marking</w>
be sides</w>
as sed</w>
arran ged</w>
ar rog
answ ering</w>
an der</w>
ag no
ag a</w>
affor ded</w>
adap ting</w>
acqu is
Sr i</w>
Sm all</w>
Sch midt</w>
S jöstedt</w>
Rec ital</w>
Opport unities</w>
Institu te</w>
IM O</w>
H u
D over</w>
D ay</w>
Colo gne</w>
C as
Bur g</w>
Bra z
Be ren
Al ba</w>
Agric ultural</w>
worl d-
wonder ing</w>
wh is
v aries</w>
ur ship</w>
tra tions</w>
tr oub
toler ated</w>
to vers</w>
tin ent</w>
ta ste</w>
t s;</w>
standardis ed</w>
spe edi
some how</w>
simultane ously</w>
shar p</w>
satisfac torily</w>
safe ly</w>
s ounds</w>
rum in
reve al</w>
resolu te</w>
resign ation</w>
res cue</w>
regis ters</w>
rec k
r é
preser ving</w>
prescri bed</w>
pre feren
preferen tial</w>
pp i</w>
poli cing</w>
phenomen a</w>
person ality</w>
pen alised</w>
pen alise</w>
pass port</w>
outri ght</w>
out lines</w>
oun ding</w>
off ensive</w>
mi gratory</w>
meaning less</w>
margin s</w>
lobb ying</w>
life -
insis ting</w>
indic ative</w>
in ity</w>
in consistent</w>
in ability</w>
immi grant</w>
hypo critical</w>
hu gely</w>
house hold</w>
hol son</w>
hol dings</w>
heart felt</w>
guar dian</w>
grass- roots</w>
gr ass</w>
good will</w>
fundament alist</w>
forward- looking</w>
feder alism</w>
er able</w>
em e
e x</w>
decre ase</w>
de vices</w>
contradic t</w>
continen tal</w>
conf using</w>
concentr ating</w>
competi tors</w>
comfor table</w>
collec t</w>
choo sing</w>
challen ged</w>
cat ering</w>
c oup</w>
bro ke</w>
bloc king</w>
bir ds</w>
b low
b bean</w>
b at
at orial</w>
associ ate</w>
ari bbean</w>
aren a</w>
anxi ety</w>
alum i
UR BAN</w>
Sak harov</w>
Sahar a</w>
S M
R a
Pir ker</w>
Peter s
P ow
P aci
Mosco w</w>
Moluc cas</w>
Migu el</w>
Malm ström</w>
M ü
Loo king</w>
L alumi
L O</w>
Kau ppi</w>
Je wish</w>
H er</w>
G ulf</w>
For ce</w>
E r
E E
Davi d</w>
D ue</w>
Colom bian</w>
Ch urch</w>
C aribbean</w>
Bi o
21 st</w>
war ned</w>
v als</w>
u ps</w>
tri p</w>
traffic kers</w>
te ga</w>
su stain</w>
stead y</w>
st amp</w>
speci alised</w>
sole te</w>
sk illed</w>
she et</w>
shap ing</w>
sha d
self- determination</w>
s port
ro ad
rev olu
retar dants</w>
remin der</w>
reflec ting</w>
re organisation</w>
ra k
qu a
purcha sing</w>
priv ati
priori tise</w>
presup poses</w>
preser ved</w>
prec eded</w>
piec es</w>
per taining</w>
pe ti
pan ic</w>
over ly</w>
on ess</w>
ob solete</w>
o sis</w>
mon y</w>
modi fications</w>
met res</w>
lef tovers</w>
le m
la stly</w>
it or</w>
it ary</w>
ir re
inequ alities</w>
inclu sive</w>
inci dentally</w>
ill iter
igno res</w>
horrend ous</w>
home work</w>
ho c</w>
hier archy</w>
heal th
ham per</w>
grow ers</w>
gra v
four teen</w>
fore ign
fin itely</w>
fav ourably</w>
expan ded</w>
ex ter
eng ine</w>
en e
embar k</w>
ear th
dis tric
di et</w>
deplo y</w>
defin es</w>
defe at</w>
cy cles</w>
cur b</w>
cul tiv
cul min
coun tless</w>
consul tative</w>
con cen
comb ated</w>
clu b</w>
clean er</w>
cinem a</w>
calcul ation</w>
c ows</w>
busin ess
break down</w>
benef iting</w>
barbar ic</w>
bank rup
b re</w>
anni versary</w>
agend as</w>
acti vis
acci dental</w>
Tunis ian</w>
TEN s</w>
Rac ism</w>
Per ry</w>
Or tega</w>
Nic holson</w>
Mari time</w>
Mar tin</w>
Lalumi ère</w>
Je ws</w>
How itt</w>
G az
Equ atorial</w>
E lles</w>
Coun try</w>
Bul l
Bar oness</w>
B our
9 6</w>
year- old</w>
ve -
v ent</w>
util isation</w>
tradi tionally</w>
tigh tened</w>
tem per
techn ic
suppor tive</w>
sup pose</w>
sulph ur</w>
succ essive</w>
spir al</w>
some body</w>
sligh test</w>
six -
share holders</w>
sh ore</w>
s and</w>
s add
reli ability</w>
refer r
recor ds</w>
read ily</w>
prud ent</w>
prud ence</w>
promp ted</w>
prem ise</w>
predec essor</w>
poss ess</w>
pollu ting</w>
pe at</w>
pat en
p ho
over coming</w>
origin s</w>
ordin ation</w>
on- going</w>
ob s
neglec ted</w>
na kis</w>
n on</w>
n ai
mu sic</w>
ment arity</w>
macro -
lic it</w>
leg ality</w>
lan ges</w>
labe ls</w>
it orial</w>
irrever sible</w>
imag ination</w>
im poses</w>
illi ers</w>
hem p</w>
han dic
h re
gr y</w>
g au
fam ine</w>
expres sions</w>
expl ore</w>
execu ted</w>
ell '</w>
el sson</w>
ed er
earth qua
ear ning</w>
e up
e ag
draft sman</w>
don ation</w>
direc tor</w>
di agno
deri vatives</w>
de duc
datab ase</w>
cre w</w>
condol ences</w>
conceiv able</w>
com promised</w>
c ow
c has
bur den
bottlenec ks</w>
bom bing</w>
ay an
ayan nakis</w>
avo idable</w>
asyl um-
ass emb
as si
argu ing</w>
anti- personnel</w>
ambigu ity</w>
alloc ating</w>
alle viate</w>
al li
acce de</w>
a ver
Vi enna</w>
Valen cia</w>
V illiers</w>
Tob acco</w>
T ro
Rap id</w>
R ed</w>
R econ
Pap ayannakis</w>
Negoti ations</w>
NG O</w>
Lor d</w>
L oc
L in
Kab ul</w>
Independ ent</w>
IC T</w>
IC E
I LO</w>
Gu ar
G B
Dani elsson</w>
D r</w>
D ell'</w>
Cambo dia</w>
C re
C air
Braz il</w>
Bour langes</w>
Bon de</w>
AC P-
14 0
è s</w>
y al</w>
wat ching</w>
warm ing</w>
vari ed</w>
val ence</w>
v acu
ur ging</w>
ur ges</w>
up-to- date</w>
unequivoc ally</w>
u ous</w>
tr ace</w>
tou ches</w>
to tal
ten ds</w>
struc tive</w>
stre et</w>
stimul ating</w>
specific ations</w>
shipow ners</w>
semin ar</w>
scre ening</w>
scho ol
s lots</w>
reluc tant</w>
re placement</w>
re ac
ques tioned</w>
provi der</w>
protection ism</w>
post- Nice</w>
per ception</w>
pass age</w>
pa rently</w>
over s</w>
or dered</w>
om ed</w>
occasion ally</w>
o ts</w>
non sense</w>
ni gh
n ur
mil e</w>
m ale</w>
licen sing</w>
lic ted</w>
is -
influen ced</w>
in significant</w>
in quiries</w>
ign or
hre b</w>
hor se</w>
hear ts</w>
harmon y</w>
h m</w>
g ulf</w>
g ar
form at</w>
flo od</w>
five -year</w>
fi a</w>
expec tation</w>
ev olution</w>
enjo ys</w>
emer gence</w>
embry o</w>
ele ph
ed ;</w>
e ties</w>
e e
e do</w>
dol lars</w>
dist ances</w>
der -
deep -
daugh ter</w>
cred its</w>
counter productive</w>
consci ous</w>
compe ten
collab or
cir cles</w>
cen ts</w>
cas e-
calcul ations</w>
broad cast</w>
biome tric</w>
ber t</w>
attr acted</w>
assum ing</w>
ass ass
arre sts</w>
ar a</w>
appro ached</w>
ap prais
ap point</w>
analy sed</w>
allow ances</w>
U AL</w>
Trans pa
Sy stem</w>
Soci ety</w>
Rus sians</w>
Res pon
Q UAL</w>
Po si
Morg an</w>
Maurit ania</w>
Mag hreb</w>
Mac a
Ma j
H I
Garcí a-
GB P</w>
G ros
G ener
E QUAL</w>
Ch er
Bull mann</w>
Be tween</w>
Be ing</w>
B DE</w>
Armen ia</w>
Ap parently</w>
An der
Agre ements</w>
Acc ession</w>
A C</w>
7 2</w>
5 4</w>
198 0s</w>
wi fe</w>
well- balanced</w>
virtu e</w>
vern ight</w>
ve in</w>
unilater ally</w>
under took</w>
under go</w>
und uly</w>
un sustainable</w>
un limited</w>
un expected</w>
un aware</w>
trage dies</w>
tion -
ter med</w>
ten able</w>
tan ta
tanta mount</w>
sol vency</w>
scrup ulous</w>
ro ed
ri c</w>
res ale</w>
representa tions</w>
red ress</w>
re fin
rati o</w>
r o</w>
qu o</w>
prosper ous</w>
pro claimed</w>
preven tative</w>
practi se</w>
politici an</w>
perpetr ated</w>
pe red</w>
pan el</w>
p ar</w>
overri ding</w>
o vernight</w>
my ster
mil len
mat ched</w>
m el
lea p</w>
le xi
is hable</w>
institu te</w>
infec tious</w>
imperi alist</w>
ide als</w>
ho t
hin der</w>
he ated</w>
ha uli
gu er</w>
g am
for a</w>
feder alist</w>
fast -
evalu ating</w>
enfor cing</w>
en comp
el abor
ed ge</w>
ec ho
ec edo</w>
e ting</w>
dynam ism</w>
dr ought</w>
dis posed</w>
dis pen
dis cover</w>
dir ty</w>
dead lock</w>
cru el</w>
cros sing</w>
coun ted</w>
cont empt</w>
construc t</w>
collec ting</w>
coast s</w>
clas h</w>
ce -
cam p</w>
c s</w>
bom b
bankrup t
as signed</w>
ar ose</w>
aggres sive</w>
abo t
Vi ol
Tw en
Thr oughout</w>
Spec ific
Som alia</w>
Ser bs</w>
Sch roed
Sau di</w>
Rü big</w>
Qu ecedo</w>
P over
Mü ller</w>
Mé ndez</w>
Ma at</w>
Luc as</w>
La an</w>
In te
G il-
Fri days</w>
Four th</w>
Com b
Beren guer</w>
6 8</w>
än en</w>
y- based</w>
y ours</w>
whe el</w>
vo id</w>
vig our</w>
ver dic
v ain</w>
up gra
under pin</w>
under going</w>
un willing</w>
un safe</w>
ty res</w>
ty re</w>
trans pose</w>
tough er</w>
tigh ter</w>
tigh tening</w>
there of</w>
t es
t arily</w>
sub mission</w>
stu ff</w>
spe eded</w>
si ck</w>
shop ping</w>
ship yards</w>
shame ful</w>
ser ving</w>
senti ments</w>
selec t</w>
scenari os</w>
roo ted</w>
roll- call</w>
rob ust</w>
ri d
rewar ded</w>
renew ables</w>
referr al</w>
re- use</w>
ra in</w>
r ö
quali ties</w>
propor tions</w>
princip ally</w>
preci ous</w>
pre mis
pre domin
pl un
pl astic</w>
per tinent</w>
pec uli
p änen</w>
or an
occup y</w>
negoti ators</w>
n om
n ine
mo de</w>
marri age</w>
mar ried</w>
mar ck</w>
lo aded</w>
lin king</w>
la k</w>
isol ate</w>
inv alu
invalu able</w>
interpre ting</w>
intermod al</w>
inter ception</w>
infec tion</w>
indic ating</w>
in i</w>
ill ness</w>
ign oring</w>
he res</w>
h us
g ames</w>
g -
forwar ded</w>
forec ast</w>
fisher y</w>
f est</w>
ex pul
ess ed</w>
entreprene urship</w>
enem ies</w>
en do
en a</w>
dis missed</w>
direc tions</w>
dee pening</w>
decisi vely</w>
de structive</w>
cor respond</w>
conce ived</w>
com plac
collec tively</w>
ce able</w>
budge ting</w>
broad en</w>
beli efs</w>
auc tion</w>
at tain</w>
appro ves</w>
anti- S
analy sing</w>
an n</w>
all er
ag grav
accel erate</w>
a us
a ;</w>
Sten marck</w>
Specific ally</w>
Sou th-
Some thing</w>
Sep pänen</w>
Sch rö
S ky</w>
S il
S IS</w>
Re gre
Pover ty</w>
N F
Minis terial</w>
McCar tin</w>
Initi ative</w>
E rit
Davi es</w>
Cher no
Cat al
B lak</w>
A ar
9 8</w>
20 20</w>
/ or</w>
ö ld</w>
é ch
z ar
w ate
vacu um</w>
vacc inated</w>
v a
u be</w>
to col
tem por
te ach</w>
tac tics</w>
t ab
subsidi ary</w>
sub marine</w>
stri ving</w>
stop ping</w>
ster ing</w>
speedi ly</w>
spe ll</w>
senti ment</w>
schi öld</w>
sacrific e</w>
ros s-
ro ll</w>
rich est</w>
repatri ation</w>
reg ain</w>
reconc iled</w>
rec ession</w>
read s</w>
ra pe</w>
r an</w>
pro- active</w>
prefer ably</w>
po is
pho to
pa ve</w>
opt- in</w>
opoulo s</w>
om ission</w>
occur rence</w>
nit ro
na tive</w>
n amed</w>
municip al</w>
mo tivation</w>
mea suring</w>
massac res</w>
mar ker</w>
ma ils</w>
lu de</w>
loc ked</w>
loc ally</w>
less er</w>
le ;</w>
law ed</w>
la h</w>
ju ven
inno vations</w>
infr ing
indic ator</w>
incur red</w>
inc umb
in ser
im pressed</w>
im partial</w>
il es</w>
i o</w>
homo sexu
health care</w>
h ang
gener osity</w>
gener ic</w>
friend ship</w>
fi res</w>
exten sively</w>
exer ted</w>
er ce</w>
ep tive</w>
eng aging</w>
eder schiöld</w>
e- mails</w>
doub tful</w>
doc tor</w>
disman tle</w>
discrimin ated</w>
dis trust</w>
dis coura
dis closure</w>
dis armament</w>
dis ability</w>
di ties</w>
deal ings</w>
d é
concen trations</w>
con formity</w>
cli ents</w>
cap ability</w>
bus tion</w>
b ounds</w>
author ise</w>
au di
ate -
ann um</w>
and /or</w>
adop ts</w>
acqu es</w>
Vi go</w>
Tra k
Su per
Sou thern</w>
S ab
Ro jo</w>
Rel ations</w>
Regre ttably</w>
R em
P AR</w>
OS PAR</w>
O fficial</w>
Mon ey</w>
Martí nez</w>
Maced onian</w>
Le in
L ev
L e</w>
Ku hne</w>
K ir
K han
J acques</w>
IP S</w>
I A</w>
HI V
Du ff</w>
Dec is
Dan ube</w>
C ederschiöld</w>
Bas le</w>
Ban otti</w>
Aar hus</w>
8 2</w>
3 50</w>
with drawing</w>
we i
vo ca
voca tional</w>
ush k
uni or</w>
twenty- first</w>
tur ally</w>
tocol s</w>
te l</w>
tan cy</w>
ta il
strength ens</w>
stoc k
st en
spe eding</w>
sion al</w>
sing le-
sal ary</w>
s abot
ric e</w>
renation alisation</w>
rein forcing</w>
ref uses</w>
reduc es</w>
re vi
re tail</w>
quali fy</w>
qu a</w>
public ity</w>
prescri be</w>
pre ferences</w>
pollu ted</w>
poc kets</w>
pers ist</w>
per missible</w>
pe de
pede stri
p ine</w>
out look</w>
om er
non- discrimination</w>
non- EU</w>
mor t
mo thers</w>
mit t</w>
millen nium</w>
mi x
met als</w>
mean while</w>
manufac tured</w>
liber alise</w>
li ti
legislat ure</w>
lef t-wing</w>
k id
intimid ation</w>
intel li
imag ined</w>
il licit</w>
honest ly</w>
head ings</w>
guide line</w>
gu e
for cement</w>
fo ods</w>
fas hi
f ever</w>
f ab
explo sive</w>
ex changing</w>
est s</w>
equ ity</w>
enfor ceable</w>
endeav ouring</w>
en counter</w>
ear ned</w>
doub tless</w>
doub led</w>
don ations</w>
divi ding</w>
differenti ated</w>
develop s</w>
deter rent</w>
descri bes</w>
deep est</w>
d al</w>
cy c
cum ber
cumber some</w>
cri tically</w>
correspon ds</w>
consum ing</w>
commer ci
com bustion</w>
clo sures</w>
classi c</w>
ci ve</w>
character istic</w>
chann elled</w>
centr alisation</w>
bo y
ber cul
balan cing</w>
aw ful</w>
aw ard</w>
aud its</w>
atell is</w>
asylum- seekers</w>
ast ing</w>
ast -
ari anism</w>
apprais al</w>
am a</w>
ace a</w>
ac ity</w>
a king</w>
U CI
Transpa rency</w>
Tibe tan</w>
TR IPS</w>
T ri
T en</w>
Schrö der</w>
Sch mitt</w>
S ter
S k
S atur
Rom anian</w>
NF L</w>
Mar co</w>
Lan ka</w>
Kur ds</w>
K ing</w>
Joh n</w>
H am
Gal ic
F our</w>
F ac
Ex per
E specially</w>
C row
C S
Bos ni
Bel der</w>
Bal i</w>
B NFL</w>
Armen ian</w>
An ti-
ACP- EU</w>
A la
9 2</w>
5 /
éch ard</w>
y ourselves</w>
work ings</w>
volun te
un wanted</w>
un equal</w>
un changed</w>
tri bunal</w>
tion ers</w>
ta res</w>
suspic ions</w>
sur pl
surpl uses</w>
subsid ise</w>
st at</w>
sign ature</w>
sh ell
secon ds</w>
scienti fic
sanc tion</w>
ro lling</w>
ri vers</w>
ri al</w>
rever sed</w>
reve als</w>
remun erated</w>
remedi es</w>
reaffir m</w>
re z</w>
re turns</w>
re taining</w>
pun ishable</w>
pu p
pro tocols</w>
pri ze</w>
premis es</w>
prec arious</w>
polic em
plas ma</w>
part- time</w>
paren tal</w>
p it
p h</w>
ou l</w>
open -
om et
omet res</w>
ol es
off set</w>
obli ge</w>
objec tively</w>
nar row
n in
mur ders</w>
mon ies</w>
mon e
missi le</w>
militar isation</w>
me l</w>
m iti
miti g
low ering</w>
loc ations</w>
lin na</w>
kil ometres</w>
k hope</w>
jeopardis ed</w>
j unior</w>
ist ant</w>
inter view</w>
insul a</w>
im it
i had</w>
i ally</w>
hu ber</w>
hor ror</w>
hec tares</w>
har bour</w>
h ull</w>
gri p</w>
glob alised</w>
gi vings</w>
frequ ency</w>
frag mentation</w>
fe e</w>
expi red</w>
ex t
es pion
es el</w>
err a</w>
en su
emo tional</w>
ell i</w>
econom ics</w>
e red</w>
duplic ation</w>
do zens</w>
distribu te</w>
dis co
dis charges</w>
diox ins</w>
di esel</w>
den ying</w>
dele tion</w>
d ity</w>
custom ary</w>
cry st
cri tics</w>
correc tions</w>
contraven e</w>
contr actual</w>
construc ted</w>
comple mentarity</w>
clin ical</w>
ce ments</w>
by l</w>
bus y</w>
bra ve</w>
bound ary</w>
bo xes</w>
bit ter</w>
bercul osis</w>
ation ;</w>
asi linna</w>
arri val</w>
are la</w>
approxim ation</w>
an onym
al a
ag o
ad oles
accel erated</w>
ac ulture</w>
abil isation</w>
Wat ts</w>
W ho
W H
WH O</w>
Trak atellis</w>
Sen ate</w>
Schroed ter</w>
Satur day</w>
Roc ard</w>
Per u</w>
Pa asilinna</w>
P rec
NA F
ME D
MAG P</w>
Lan ge</w>
Kir khope</w>
Im ple
Gaz a</w>
Fl échard</w>
F ail
E i
Comb ating</w>
Cherno byl</w>
Cair o</w>
CA R
Ar ms</w>
Am nesty</w>
9 0/
8 7</w>
7 3</w>
6 9</w>
3 -
200 8</w>
1 10</w>
1 -
ys san
yssan dra
yssandra kis</w>
yn n</w>
who ever</w>
wate red</w>
w ay
w are</w>
viol ate</w>
veri fy</w>
verdic t</w>
vege tables</w>
us eless</w>
up set</w>
uc tu
tur n
tun a</w>
tu ondo</w>
tor ate</w>
tle ment</w>
ti red</w>
ti ble</w>
tempor arily</w>
ta ilo
tailo red</w>
symptom s</w>
sym bol
sun di</w>
suff ers</w>
stra in</w>
str and</w>
stor ms</w>
stay ing</w>
stand point</w>
sp heres</w>
so ya</w>
sex es</w>
scientific ally</w>
sacrific ed</w>
s op
sop his
sophis tic
s log
res emb
regul ates</w>
recipi ents</w>
re new</w>
re do</w>
re bels</w>
re alisation</w>
ran dom</w>
quic ker</w>
qualific ation</w>
pu ty</w>
pre tend</w>
pr ing</w>
poll s</w>
plain ly</w>
pen sion
pas sion</w>
over seas</w>
on- Har
on-Har ris</w>
observ ance</w>
o ted</w>
o res</w>
o be
no vation</w>
n '
n' t</w>
mo s</w>
mis trust</w>
mis givings</w>
lo g</w>
lo an</w>
ll s</w>
lis ting</w>
li vely</w>
li p</w>
ler sundi</w>
la ud
is ;</w>
ir relevant</w>
interven ing</w>
interpre tations</w>
in dign
in difference</w>
illu sion</w>
i red</w>
ho ods</w>
high- speed</w>
ha i</w>
gen ital</w>
g ram
fulf ils</w>
formul ating</w>
foreign ers</w>
fai rer</w>
experi ment</w>
execu tions</w>
espion age</w>
entr usted</w>
embar ked</w>
el and</w>
ed itorial</w>
ec u
earthqua ke</w>
dossi ers</w>
discrepan cy</w>
dis bur
differenti ation</w>
deterior ating</w>
design ation</w>
design ated</w>
depend ency</w>
d ry</w>
critic ising</w>
correspon dence</w>
corner stones</w>
contin ents</w>
conf ess</w>
compar ative</w>
comm ission
com prises</w>
clos est</w>
cli matic</w>
cle arance</w>
ck x</w>
cham p
chair men</w>
celebr ate</w>
cat ching</w>
cat alogue</w>
can cel
by- case</w>
bre ast</w>
bio -
bab y</w>
b ones</w>
b le
b lat
att acking</w>
at on-Harris</w>
aston ished</w>
as m
appe aring</w>
am mon
am i
alo gues</w>
ai red</w>
accompan ying</w>
ab str
W all</w>
Valle lersundi</w>
V ir
V arela</w>
Un employment</w>
UN M
Th ors</w>
Ster ckx</w>
St abilisation</w>
Si erra</w>
SE s</w>
S pring</w>
Peters berg</w>
Or tuondo</w>
O t
Loc al</w>
Legis lation</w>
Isl am
He aton-Harris</w>
H IP
Gr ou
FO R</w>
F A
Ei ther</w>
ES DP</w>
D ary</w>
Ca str
C ap
B end
Ann ual</w>
Ander sson</w>
Al yssandrakis</w>
A long</w>
A le
8 1</w>
7 7</w>
ör ling</w>
ê te</w>
z -
yard stick</w>
wrec k</w>
world- wide</w>
warran ts</w>
volun tarily</w>
vic ious</w>
vacc ines</w>
v ate</w>
ush ill-
use fulness</w>
un stable</w>
un conditional</w>
un certainties</w>
umb ling</w>
tu berculosis</w>
travel led</w>
trans mitted</w>
tra m
tn ess</w>
tion ist</w>
time frame</w>
tim es
tim ber</w>
the ws</w>
ter -
tan ker</w>
take over</w>
syner gy</w>
sympa thetic</w>
sympa th
swit ch</w>
surroun ded</w>
subordin ate</w>
st ops</w>
slaugh ter
sh ir
sem ination</w>
scep tics</w>
ron k</w>
res istant</w>
ren z</w>
remin ds</w>
reluc tance</w>
recom mending</w>
reco vered</w>
rea tional</w>
re al
rap pro
rappro ch
rapproch ement</w>
ran ca</w>
ques tioning</w>
protec ts</w>
prote ins</w>
proportion ality</w>
progres sed</w>
pro tests</w>
predomin antly</w>
precau tions</w>
practi sed</w>
pi pe
peace fully</w>
parado x</w>
pa ed
out dated</w>
ous ands</w>
ou tw
ou ts</w>
one- off</w>
objec ts</w>
non- compliance</w>
nois y</w>
nigh t
neglec t</w>
multi- annual</w>
moun tains</w>
max im
mat ches</w>
loo i
long- standing</w>
long side</w>
le e
laud able</w>
l ending</w>
know -
journe ys</w>
j ar
intr in
inten sity</w>
incumb ent</w>
incl ined</w>
in sur
ignor ance</w>
hosti le</w>
ho stage</w>
hesit ate</w>
her d</w>
he at</w>
hauli ers</w>
ha ste</w>
ha bit</w>
gue ira</w>
gre y</w>
gentle man</w>
gener ates</w>
force ful</w>
fl uctu
ff ol
explo iting</w>
expe lled</w>
exhaus tion</w>
ex ts</w>
evol ving</w>
end er</w>
ec k</w>
draf ts</w>
down ward</w>
dist ressing</w>
dist ress</w>
dis semination</w>
dis regarded</w>
diff ers</w>
dict ate</w>
def erred</w>
d der</w>
cros s
cor ner</w>
contradic ts</w>
comp iled</w>
communic ated</w>
commit ting</w>
co o
cha ired</w>
catastrop hic</w>
case- by-case</w>
cancel lation</w>
cal end
bri ef
bra tions</w>
bord ering</w>
bomb ings</w>
bom bs</w>
bo ys</w>
bloc k
b arely</w>
ati vity</w>
ass oni</w>
appe arance</w>
ant a</w>
an g</w>
an ding</w>
af ranca</w>
accur ately</w>
accompl ished</w>
acce ding</w>
aband oning</w>
a x
a tively</w>
W u
Viol ence</w>
Vietn am
Th ousands</w>
T SE</w>
Sch örling</w>
Sal afranca</w>
S t</w>
Rob les</w>
Rob ert</w>
Ro o</w>
P ronk</w>
P looi
No gueira</w>
N um
N ally</w>
My ller</w>
M ilit
Lein en</w>
Le one</w>
Lan gen
L D
K ou
J ihad</w>
G all
Fr assoni</w>
Flo renz</w>
Fi gu
Euro stat</w>
Di ffe
D ru
Cur rent</w>
Crow ley</w>
Co h
Castr o</w>
Car t
C hap
Bo we</w>
Ber ès</w>
Bend it</w>
Be tter</w>
B ushill-
B ir
B ased</w>
Ara bia</w>
Adminis tra
A longside</w>
wor sen
weak est</w>
viol ates</w>
vic inity</w>
vel l
van os</w>
under gone</w>
two fold</w>
tw i
tre al</w>
transl ations</w>
total itarian</w>
ten -year</w>
stres sing</w>
streng ths</w>
stabil ise</w>
st ored</w>
speci alists</w>
sp in</w>
sou l</w>
sole m
sk ill</w>
shif ting</w>
set ête</w>
second- class</w>
respec tively</w>
re structure</w>
re pro
public -
prov in
profit ability</w>
prevail s</w>
presen tly</w>
predic ted</w>
predic t</w>
pollut ants</w>
ple mentary</w>
pha sed</w>
peri o
patter n</w>
passion ate</w>
pass es</w>
p es</w>
ow ned</w>
over sight</w>
ou tra
or n</w>
obstruc t</w>
ne ts</w>
n- Bendit</w>
n is
lor ry</w>
lit ano</w>
lee way</w>
know- how</w>
ke wise</w>
is ons</w>
inten sively</w>
inde red</w>
inde finitely</w>
in solvency</w>
in humane</w>
in efficient</w>
impro per</w>
imprison ment</w>
im porting</w>
hope ful</w>
her o
hec t
happ ily</w>
hab its</w>
h indered</w>
grou p
ge dly</w>
g ically</w>
frigh tening</w>
free zing</w>
focus sed</w>
fle eing</w>
fin ger</w>
fil es</w>
fac tories</w>
f ro
f led</w>
f itted</w>
f ile</w>
exis tent</w>
exc esses</w>
establish ments</w>
entrepre neu
enjo ying</w>
ener ge
end -of-
en quiry</w>
emer ges</w>
embarr assing</w>
ei redo</w>
draw backs</w>
domin ate</w>
doc tr
distor ting</w>
dispu ted</w>
detec t</w>
desi res</w>
den omin
dela ying</w>
de us</w>
d d
custom er</w>
cru el
corpor ations</w>
constitu ent</w>
compli es</w>
complain ed</w>
commo dities</w>
comm ission</w>
comfor t</w>
comb ining</w>
cl am
cin o
car cino
bur ning</w>
br and</w>
be er</w>
b reaches</w>
b lan
avi er</w>
av ail</w>
author isations</w>
at ar</w>
at a</w>
ass isted</w>
aqu aculture</w>
an cho
amoun ting</w>
align ed</w>
alcoho lic</w>
al ;</w>
agen a</w>
adoles cents</w>
accor ds</w>
a- Herzegovina</w>
W as</w>
V o
UNM I
UE /
UE/ NG
UE/NG L</w>
State ment</w>
So li
S TO
Represen ta
Regi ons</w>
Recon struction</w>
Q atar</w>
Pol ish</w>
Par t</w>
P O
Or den</w>
O f
Nor th-
Napo litano</w>
Mul der</w>
Mon treal</w>
Mo der
Mexic an</w>
Mc Nally</w>
Mat thews</w>
Mar ques</w>
M en</w>
Li kewise</w>
L P</w>
Jap anese</w>
J avier</w>
H igh
Gros setête</w>
Ger m
Figu eiredo</w>
Exper ts</w>
Ex ecu
Erit rea</w>
EP LP</w>
Do yle</w>
D am</w>
Cur rently</w>
Con tr
Coh n-Bendit</w>
Co ordination</w>
Chan nel</w>
Cart agena</w>
Bushill- Matthews</w>
Bosni a-Herzegovina</w>
Am bassador</w>
Ala vanos</w>
Al ps</w>
Al pine</w>
Addi tionally</w>
6 1</w>
30 8</w>
15 2</w>
1 30</w>
y o</w>
wholehear ted</w>
wa ited</w>
w isely</w>
vic e-
uni formity</w>
underpin ned</w>
un scrupulous</w>
un avoidable</w>
ul ously</w>
u de</w>
twi th
twith standing</w>
tur no
turno ver</w>
tri gg
tri g
trig gered</w>
tre es</w>
tra ders</w>
ton gue</w>
tin y</w>
ti ge</w>
ther ap
sur render</w>
super power</w>
stud ent</w>
stret ch</w>
stor m</w>
slow down</w>
sl o</w>
simpl istic</w>
sign atures</w>
short- sighted</w>
sec ute</w>
scep ticism</w>
s wee
s cra
rout ine</w>
ro se</w>
remun eration</w>
remin ding</w>
rela tives</w>
regre ttably</w>
recipi ent</w>
rec reational</w>
read iness</w>
re- establish</w>
re sum
re sts</w>
re processing</w>
ran ks</w>
protection ist</w>
prec ision</w>
pre conditions</w>
parti te</w>
paramilit aries</w>
parado x
pan ies</w>
ow ner</w>
over shad
out put</w>
opport une</w>
oper ator</w>
oper ated</w>
op poses</w>
op hi
o x
o ce
nor m</w>
non- existent</w>
no ble</w>
n ail</w>
monit ors</w>
mirac le</w>
mir ation</w>
ment ;</w>
main land</w>
ma tive</w>
m ess</w>
m ese</w>
lu x
lu gg
log is
land fill</w>
l oud</w>
l in</w>
jur y</w>
jud gements</w>
it ement</w>
is ance</w>
interf ering</w>
inter cep
in sufficiently</w>
imit rak
im position</w>
hoolig anism</w>
hear ings</w>
he re
he i
he ed</w>
he ating</w>
har d-
h es</w>
gu err
guerr ill
gl omer
g on</w>
frustr ated</w>
free ze</w>
for ty</w>
for tress</w>
for getting</w>
for ge</w>
fin es</w>
fe eds</w>
fant astic</w>
endo cr
en ters</w>
employ s</w>
east ward</w>
du cive</w>
dra gged</w>
diver gent</w>
de tract</w>
de tained</w>
d ging</w>
cy cl
cr y</w>
coordin ator</w>
conver t</w>
conten tious</w>
cont exts</w>
con ducive</w>
co c
clean ing</w>
certific ates</w>
cent red</w>
carri er</w>
capit alism</w>
cal m
ca su
bri dges</w>
bo gged</w>
be tra
back log</w>
b o</w>
b ag
author ising</w>
appl ause</w>
annex es</w>
al ties</w>
al a</w>
admi re</w>
ad miration</w>
abund antly</w>
Z e
W ynn</w>
Vietnam ese</w>
UNMI K</w>
UCI TS</w>
Tur co</w>
Si x
Representa tives</w>
Poli ce</w>
Particul ar</w>
Par agu
Of ten</w>
O slo</w>
N az
Milit ary</w>
Ma king</w>
MED IA</w>
L ad
L A</w>
Jour nal</w>
J u
HIP C</w>
H ad</w>
Gall ag
G UE/NGL</w>
FI FA</w>
En ter
EU- wide</w>
Decis ions</w>
D imitrak
Com panies</w>
Chil d</w>
CAR DS</w>
Bur mese</w>
B en
B e</w>
At two
Any thing</w>
Anim al</w>
8 8</w>
2 -
á ndez</w>
ye arly</w>
wi den</w>
wei gh</w>
web sites</w>
w man</w>
w alls</w>
w a</w>
ver tical</w>
ur y</w>
un tenable</w>
un controlled</w>
trage ous</w>
tor tured</w>
tici des</w>
the at
ten ding</w>
syn thesis</w>
sw ine</w>
suffici ency</w>
st ories</w>
speci fies</w>
sp her
spher ic</w>
south- east</w>
sophistic ated</w>
sin king</w>
scen es</w>
scar ce</w>
s ine</w>
s al</w>
ré deus</w>
rigor ously</w>
ric ane</w>
respec table</w>
repe tition</w>
rein forcement</w>
regul ator</w>
recycl ed</w>
recor ding</w>
realis ing</w>
re versal</w>
prevail ed</w>
prerequis ites</w>
pos session</w>
poli tic
poli cy
persu aded</w>
pers is
pe l
pas se</w>
p ices</w>
ow adays</w>
ound ation</w>
ou trageous</w>
ot ine</w>
orien t
obser ving</w>
nu t</w>
nor ms</w>
no- one</w>
no tor
n ández</w>
n omin
mod us</w>
mo od</w>
ment ality</w>
marke ted</w>
m ud
logis tical</w>
lin s</w>
ligh tly</w>
lic t</w>
li ties</w>
li qui
leag ues</w>
le tting</w>
lar i
l v
invo ked</w>
inspi re</w>
ind h</w>
incorpor ates</w>
in transi
im passe</w>
ic a</w>
hun gry</w>
hi ding</w>
hand ful</w>
h r</w>
h i</w>
grow s</w>
gram mes</w>
g ang
ful l-
frequ encies</w>
figh ters</w>
expi re</w>
exha ust</w>
ess ly</w>
equ itable</w>
enem ann</w>
en rich
eme al</w>
e ars</w>
distribu ting</w>
dictator ships</w>
devast ated</w>
descri bing</w>
depri ve</w>
dea f</w>
d les</w>
d ation</w>
cyc lical</w>
crimin ality</w>
cre ativity</w>
contr ac
conten d</w>
contempl ate</w>
consolid ating</w>
conc ise</w>
compens ated</w>
compar isons</w>
commen sur
com mented</w>
clari fications</w>
chic k
ch ell</w>
categor ically</w>
c y-
boy cot
bi ased</w>
ben i</w>
b lu
b ic
b hai</w>
author itarian</w>
aus pices</w>
as certain</w>
ar able</w>
apo logies</w>
ap por
ap ar
anc ell
al ty</w>
adequ acy</w>
acknowled gement</w>
ac a</w>
abe tes</w>
ab sten
Zimbab we
W ise</w>
Tech no
T ele
T SEs</w>
Sup plementary</w>
St anding</w>
Ser vices</w>
Sac rédeus</w>
Sab ena</w>
Rom ano</w>
Regul ations</w>
Pol o</w>
Plooi j-
PH AR
P as
N owadays</w>
N av
Mit chell</w>
Me dia</w>
Li enemann</w>
Le ague</w>
Langen hagen</w>
L indh</w>
Khan bhai</w>
Im beni</w>
H IV</w>
Gor sel</w>
Gallag her</w>
Fu ster</w>
F oundation</w>
Europe an-
Coun tries</w>
Commun ity-
Col lins</w>
Chap ter</w>
Ch ic
C ultural</w>
C ross</w>
C lin
C D
B ren
Attwo oll</w>
Administra tive</w>
A th
9 7</w>
8 9</w>
- on</w>
Á lv
z y</w>
win ner</w>
will ingly</w>
weal thy</w>
warran ted</w>
ushk its</w>
un wise</w>
un ich</w>
un ha</w>
tri vi
trans pi
trans formed</w>
trac ing</w>
tour ists</w>
th ro
temp tation</w>
tec h</w>
tan de
tande m</w>
superi or</w>
su es</w>
su dden</w>
specul ative</w>
short coming</w>
seven th</w>
seas on</w>
se -
scrutin ise</w>
scra p</w>
rumin ants</w>
ro ga
roga tives</w>
rev it
rel s</w>
rel ess</w>
refu te</w>
referen dum
recti fied</w>
re open</w>
re build</w>
ra ge</w>
prud ential</w>
proxim ity</w>
prohib iting</w>
pre rogatives</w>
physi cally</w>
pe trol</w>
paten ting</w>
part- sessions</w>
ous es</w>
oran dum</w>
or ph
or a</w>
on au
ol d-
observ atory</w>
nic otine</w>
mo tive</w>
mis used</w>
mech an
me tre</w>
margin alisation</w>
main stream</w>
m ou
lux ury</w>
lo ose</w>
lic ited</w>
liber als</w>
le ast-
lari ou</w>
lam t</w>
lad y</w>
kid n
ke -up</w>
k ill
justi fi
j i
j e</w>
inv iting</w>
inv asion</w>
inter parliamentary</w>
in et</w>
in efficiency</w>
hur dles</w>
hosp itals</w>
hormon es</w>
ho ly</w>
head lines</w>
har dest</w>
ha mel</w>
h all
gn a</w>
glomer ates</w>
gau ge</w>
gall o</w>
g st</w>
g ro
g ation</w>
for bi
foc al</w>
flag rant</w>
fi re
fab ric</w>
f lawed</w>
expul sion</w>
exha usted</w>
entrepreneu rial</w>
enlar ging</w>
eng agement</w>
ener g
endor sing</w>
endocr ine</w>
en ess</w>
en com
emo tions</w>
el lariou</w>
dre ams</w>
down right</w>
docu mented</w>
dimin ished</w>
di am
cy- in-Office</w>
cy ber
curren ces</w>
cred ited</w>
cr ack</w>
countr y-
cost- effective</w>
cost- benefit</w>
cor rid
convers ation</w>
contraven es</w>
consum ed</w>
commun ist</w>
commit ology</w>
commensur ate</w>
comm and</w>
cha otic</w>
certific ate</w>
calm ly</w>
bot tom
bo y</w>
beau ty</w>
bankrupt cy</w>
b les</w>
au g
at able</w>
ass isting</w>
are z</w>
ar do</w>
appreci ates</w>
appli ances</w>
appa to</w>
ap ped</w>
an tic</w>
an o
amp ed</w>
am ple</w>
adminis tered</w>
ad or</w>
ad dic
ac es</w>
a e</w>
Tem el
St u
Ser vice</w>
Sak ellariou</w>
S hi
S O
Roth ley</w>
Res pect</w>
Ra mos</w>
Pur su
Presiden cy-in-Office</w>
Prec isely</w>
Pe res</w>
PHAR E</w>
Num erous</w>
Non -
McCar thy</w>
Marin ho</w>
Mar gallo</w>
M unich</w>
Liber alisation</w>
Lev el</w>
L aw
L ar
K lamt</w>
Jo s
His tory</w>
HIV /
Go od
Gil- Robles</w>
Germ ans</w>
Gener ally</w>
Galic ia</w>
E ven
E s
Du hamel</w>
Direc tives</w>
D aul</w>
Cu ban</w>
Con duc
Col leagues</w>
Clin ton</w>
C unha</w>
C appato</w>
Bren ner</w>
Bou wman</w>
B ay</w>
B av
Amon gst</w>
A ri
8 6</w>
5 9</w>
198 6</w>
- made</w>
Álv arez</w>
youn ger</w>
y l</w>
vol umes</w>
ve al</w>
v ise</w>
un lawful</w>
un fairly</w>
un answered</w>
tw enti
trans porting</w>
trac ed</w>
tra p</w>
tra de
ton ne</w>
the irs</w>
the id</w>
tabo o</w>
t agon
substan ti
subsid ising</w>
su its</w>
st uck</w>
spon sorship</w>
sle ep</w>
six- month</w>
simil arly</w>
shel ter</w>
shar ply</w>
sh ell</w>
sei zed</w>
se ated</w>
scre en</w>
rul ings</w>
ro -
ris es</w>
ri ver</w>
ren sen</w>
referendum s</w>
reas sured</w>
re building</w>
radi ation</w>
ra tive</w>
r ounds</w>
r on</w>
quo ting</w>
pul ling</w>
provoc ation</w>
pli ght</w>
pir acy</w>
perpe tu
per mitting</w>
per formed</w>
pan acea</w>
om budsman</w>
om b
off enders</w>
oc currences</w>
necess it
n ing-
mone y-
modi fy</w>
mis management</w>
m are</w>
m ad
lin qu
labor atories</w>
la ugh
l un
l sson</w>
l est</w>
ko hr</w>
kin ner</w>
k ills</w>
k ably</w>
is- J
invest or</w>
introduc tory</w>
interven ed</w>
intermedi aries</w>
inter rup
install ation</w>
inf er
illiter acy</w>
ic h
hon ey</w>
ho stages</w>
her ds</w>
group ings</w>
grass roots</w>
gen sen</w>
fur n
fundament alists</w>
free- trade</w>
fre ed</w>
form ulation</w>
forese e</w>
feder ations</w>
fana ticism</w>
f itting</w>
expe di
exp iry</w>
exagger ated</w>
er s;</w>
emplo ying</w>
e ted</w>
drin ks</w>
distur bed</w>
di abetes</w>
deterior ated</w>
decreas ed</w>
decision- makers</w>
dec ei
de pressing</w>
de em</w>
d arity</w>
cu t-
cou ples</w>
cosme tic</w>
convers ations</w>
construc ting</w>
conser vative</w>
conf erred</w>
con form</w>
comprehen sively</w>
commen ting</w>
co- operation</w>
co in</w>
ce forth</w>
ce ased</w>
calend ar</w>
bu ried</w>
brea the</w>
br illi
be iro</w>
be at</w>
bar ome
b and
awa ited</w>
aw n</w>
aw k
atmo spheric</w>
as pir
appe aling</w>
ant agon
ang en</w>
ancell or</w>
an gered</w>
am al
advan cing</w>
acqu ain
aci ous</w>
accus ation</w>
accumul ated</w>
U r
U p
TAC s</w>
T B</w>
Sö rensen</w>
Su preme</w>
Spe aking</w>
Soli darity</w>
SM E</w>
S till</w>
S kinner</w>
Ro ss
Ri is-J
Ri beiro</w>
Respon sibility</w>
Rem ember</w>
Produc ers</w>
Pro van</w>
Paragu ay</w>
N assa
Lin kohr</w>
L angen</w>
K r
K FOR</w>
J ord
Fu ture</w>
FA O</w>
EU /
Dev a</w>
Ch ange</w>
Ch ancellor</w>
Cas aca</w>
Can ary</w>
C limate</w>
Bus k</w>
Bon ino</w>
Ath ens</w>
And alu
A y
A mending</w>
A P
ø r
ør gensen</w>
é lez</w>
zar re</w>
z a</w>
yi el
win ning</w>
wi dest</w>
well- founded</w>
weak ens</w>
wai ver</w>
wai ger</w>
wa ves</w>
vell ous</w>
v est</w>
util ised</w>
undeni able</w>
un willingness</w>
un pleasant</w>
un happy</w>
un foreseen</w>
un a</w>
twenti eth</w>
trans form</w>
tr acted</w>
ti e</w>
ti de</w>
throw ing</w>
te eth</w>
t /
sup plying</w>
st oning</w>
st ems</w>
soci alists</w>
self- interest</w>
scrap ping</w>
sco res</w>
sacrific es</w>
s ke
ru th
ris k-
revolu tionary</w>
remar ked</w>
religi ons</w>
recipro city</w>
re jo
re im
reim bur
re distribution</w>
re deployment</w>
ration alisation</w>
rati fying</w>
pun ishing</w>
prov ince</w>
pronoun ced</w>
pro tagon
pro claim</w>
priori tised</w>
presum ably</w>
prehen sible</w>
power less</w>
port fo
portfo li
persu asion</w>
perce ive</w>
patter ns</w>
parti ality</w>
par cel</w>
p oul
origin ating</w>
orient ated</w>
op lan
om itted</w>
offic er</w>
n il
mul ticul
min eral</w>
min ated</w>
mater nity</w>
marke t-
margin al</w>
lo ses</w>
lic k</w>
li er</w>
li bri
levi es</w>
legitim ately</w>
l ou
l ity</w>
jud ging</w>
ju ice</w>
jeop ar
jeopar dy</w>
interpre ters</w>
insis tence</w>
inf licted</w>
inf lexi
indign ation</w>
incin er
in tra-
in jec
import ation</w>
imp acts</w>
imagin ative</w>
im partiality</w>
im balances</w>
ill es</w>
il ar
ide o
horiz on</w>
gra in</w>
gi bility</w>
gener ating</w>
fru its</w>
fron t
fo dder</w>
fin ger
fi bre</w>
fel low-
fasc ist</w>
facilit ated</w>
f ty</w>
f ts</w>
extra -
excus es</w>
ev o</w>
eradic ating</w>
equi p</w>
equi libri
enti als</w>
endor sement</w>
end-of- life</w>
encom pass</w>
doub le-
do se</w>
disappe aring</w>
disappe arance</w>
dis satisfaction</w>
dis ruption</w>
dis mis
dis cer
di alogues</w>
der ive</w>
den ial</w>
defec ts</w>
deep en</w>
declar ing</w>
dec ou
d econ
d ding</w>
cu t
cow ar
contribu tors</w>
confin es</w>
con glomerates</w>
compli ments</w>
commen ce</w>
com prising</w>
com posed</w>
ch est
car ro
cancell ing</w>
br ink</w>
bloo dy</w>
bl ank</w>
bi zarre</w>
aw arding</w>
at o
at em
asser tion</w>
artific ially</w>
applau ded</w>
apar theid</w>
ap prehen
anti- terrorist</w>
ammon ia</w>
am ble</w>
ak as</w>
ag as
admi um</w>
addi tions</w>
activis ts</w>
acti vit
accoun ted</w>
a rest</w>
a h</w>
Wor kers</w>
W ar
Uni versal</w>
Trans atlantic</w>
Tit le</w>
Tele vision</w>
Ta j
Sta ff</w>
Si x</w>
Sh aria</w>
Sch waiger</w>
S ha
S ar
S A</w>
Riis-J ørgensen</w>
Refuge es</w>
Pé rez</w>
Pl us</w>
P hi
P R
Ne w
N N</w>
Migu élez</w>
Me dic
Mar k
Li felong</w>
Lam bert</w>
L earning</w>
Kor akas</w>
Jos é</w>
J ud
J on
Incre ased</w>
In dividu
Hel mer</w>
Gu atem
García- Margallo</w>
Fran k
Execu tive</w>
De leg
Contr ary</w>
Conduc t</w>
CO P
Bö ge</w>
Bi ble</w>
Ber ger</w>
As surance</w>
9 1</w>
7 4</w>
6 0s</w>
á n</w>
Å U</w>
yt s-
yts- U
wi el
weigh ting</w>
weak ening</w>
wast ing</w>
wal k</w>
volunte ers</w>
vitam in</w>
vi brations</w>
v or
v ar
ur a</w>
uni tive</w>
uni qu
un thin
un t</w>
un s</w>
un paid</w>
ul ts</w>
two- thirds</w>
tri partite</w>
ti vities</w>
ti er</w>
thir dly</w>
thi er</w>
theat re</w>
tele phones</w>
te bro
tebro eck</w>
targe ting</w>
tan ks</w>
ta wa</w>
swe eping</w>
super vis
sup pression</w>
stead ily</w>
ste er</w>
stabil isers</w>
spo t
spir it
speci fying</w>
slaughter houses</w>
six teen</w>
short ages</w>
ship ments</w>
sever ance</w>
s pared</w>
ris ky</w>
ric her</w>
regret ted</w>
reg ener
reconc iling</w>
rec eptive</w>
reat h</w>
reas suring</w>
reas surance</w>
reaffir med</w>
re prehensible</w>
r as</w>
r a</w>
qui e
pro secuted</w>
pro secute</w>
pro pri
pro jec
preced ents</w>
pre- emp
poul try</w>
policem en</w>
polic y-
pol y
pi vo
pes ticides</w>
pension er</w>
p unitive</w>
over taken</w>
our a</w>
oper and
operand i</w>
op je</w>
occup ying</w>
night mare</w>
ni b
municip alities</w>
multi functional</w>
motor cycles</w>
mis understood</w>
min d
margin alised</w>
mar vellous</w>
luc rative</w>
le is
la yer</w>
k ara</w>
justifi ably</w>
jeopardis ing</w>
j an</w>
iti vely</w>
ir rational</w>
insul t</w>
institu tion
institu ted</w>
inf la
in y</w>
in tim
in discriminate</w>
in different</w>
in consistency</w>
in consisten
inconsisten cies</w>
imp son</w>
ide ally</w>
ic her</w>
hi j
hesit ant</w>
hect are</w>
head line</w>
harm less</w>
ham pered</w>
ha m</w>
graph s</w>
gr and</w>
gol den</w>
gener alised</w>
gen der-
fraud ul
force fully</w>
f lat
es ch</w>
ero sion</w>
equilibri um</w>
equ ation</w>
energ y-
end less</w>
end angered</w>
en nium</w>
em in
el o
diplom ats</w>
des cen
deplo res</w>
decre es</w>
dec ree</w>
cur ricul
cor rupt</w>
cor p
coordin ators</w>
cooper ated</w>
convic ted</w>
continu ously</w>
compe lled</w>
comp ounds</w>
commend ed</w>
co- financing</w>
clo ck</w>
cle ver</w>
cle aring</w>
clam ation</w>
civil isations</w>
circul ated</w>
cheap est</w>
char ity</w>
ch urch</w>
carcino genic</w>
can nib
cal ves</w>
bro minated</w>
be g</w>
barome ter</w>
b reath</w>
b read
awk ward</w>
attribu ted</w>
at to
aston ishing</w>
ap pen
ap par
ama zing</w>
ama zed</w>
alle gedly</w>
ali en
air y</w>
ag e-
aer oplan
adver sely</w>
ad mission</w>
activit y-based</w>
acquis ition</w>
ac id</w>
abstr act</w>
abstain ing</w>
a sive</w>
W il
Uni versity</w>
Tun nel</w>
Tra ffic
Th ys
Tan z
T s
Stu dies</w>
Sk opje</w>
Secre tariat</w>
Se g
Sci ence</w>
Sch um
S impson</w>
S cand
S LI
SLI M</w>
R w
Qu ality</w>
Pro vi
Pre vention</w>
Pow ell</w>
Per sson</w>
P ra
P S</w>
Ot tawa</w>
O il</w>
O N</w>
No bel</w>
Ne yts-U
Mill er</w>
Mil lions</w>
Maca o</w>
M oura</w>
Lad en</w>
LD Cs</w>
L yn
K in
In spec
I l
Hung arian</w>
H al
Geor ge</w>
Fl esch</w>
Econ om
Ear th</w>
E quality</w>
E ffec
E R
Dis cussions</w>
Director -General</w>
C lear</w>
B B
An kara</w>
A k
8/ 71</w>
7 -
6 4</w>
198 8</w>
140 8/71</w>
1 40</w>
ç a</w>
yi elds</w>
w ounded</w>
vol ati
viol ating</w>
vi de
vest ed</w>
ver b
ven son</w>
ven s</w>
var ying</w>
ush na
ushna han</w>
unthin kable</w>
un loading</w>
un le
ty- five</w>
ty ran
ture rs</w>
tre e</w>
tre ad</w>
transl ates</w>
tle -
ti tious</w>
th war
ter y</w>
ten dering</w>
te m</w>
t ched</w>
t ants</w>
super vise</w>
stream lining</w>
stimul us</w>
stic ks</w>
ste red</w>
stand still</w>
st umbling</w>
st em
squ are</w>
spokes man</w>
slog an</w>
sli p</w>
sla ves</w>
sk ies</w>
sit u
side lined</w>
si vity</w>
self- sufficiency</w>
sear ching</w>
se t-
se am
sal ute</w>
sa v
sa iling</w>
reven ge</w>
retro grade</w>
remar kably</w>
rein forces</w>
reg res
refu ge</w>
referen da</w>
recipro cal</w>
realis es</w>
rea p</w>
re sign</w>
ra bility</w>
r oughly</w>
question nai
pur chas
proportion ately</w>
progres sively</w>
privati sed</w>
pre amble</w>
popul ist</w>
plat forms</w>
philosoph ical</w>
pessimis tic</w>
percent ages</w>
peculi ar</w>
pat ently</w>
paradox ical</w>
pack ages</w>
p raised</w>
p ause</w>
p -
ou tle
on- the-
on ically</w>
oll nis
ollnis ch</w>
ob ile</w>
o il
nutri tional</w>
num er
non- military</w>
nom inal</w>
neo- liberal</w>
n uc
moun ting</w>
mort ality</w>
mid st</w>
micro -
mem orandum</w>
me ag
meag re</w>
ma fia</w>
loop hole</w>
liber alism</w>
legi timis
la sted</w>
k o</w>
k ins</w>
k ering</w>
jo ke</w>
ir on</w>
intermedi ary</w>
indi visible</w>
in secure</w>
in her
in for
in accurate</w>
ilar do
ilardo tti</w>
identi fies</w>
hun ting</w>
house holds</w>
homo sexual</w>
hel l</w>
he igh
har vest</w>
h ul
h emis
gra vity</w>
geo political</w>
gen cies</w>
for ums</w>
flour ish</w>
fast- track</w>
fai th
f it
exerc ises</w>
ever- increasing</w>
et z</w>
er- friendly</w>
en sible</w>
en large
emb assi
embassi es</w>
eigh teen</w>
e ste
doctr ine</w>
divi des</w>
dis pe
dis courage</w>
dict ators</w>
dict ates</w>
den sity</w>
def ensive</w>
dedic ation</w>
decreas ing</w>
de vising</w>
dd ling</w>
d airy</w>
cyn ical</w>
counter ing</w>
conve yed</w>
controll ers</w>
cont ing
conclu sive</w>
competi tions</w>
commission ed</w>
com promising</w>
collap sed</w>
coinci de</w>
cle ar-
cir cu
cham pion
c admium</w>
bran ch</w>
boo m</w>
bo arding</w>
benefici ary</w>
be having</w>
b in</w>
ati m</w>
at te
aspir ation</w>
ash ing</w>
arre a</w>
appar at
anti- discrimination</w>
ant ini</w>
am o</w>
advis ers</w>
adv ent</w>
acknowled ging</w>
abduc ted</w>
ab atto
Wu ori</w>
Whe re
V ol
V ene
Tro ika</w>
Thys sen</w>
TE S</w>
Ste venson</w>
St and
Re action</w>
Rap porte
RE S</w>
Pursu ant</w>
P r
North- South</w>
Nic o
NAF O</w>
N ever</w>
Mo vement</w>
Mill ennium</w>
M ess
M O
Lyn ne</w>
La os</w>
L arrea</w>
Kosov ar</w>
K ash
Is sues</w>
Im port
Guatem ala</w>
Gra ça</w>
Glob alisation</w>
Gh ilardotti</w>
G ollnisch</w>
Fra hm</w>
Fo ster</w>
Fi ve</w>
Fail ure</w>
Elec tr
EU RES</w>
ES A</w>
ECH EL
E th
Deleg ation</w>
Del ors</w>
D i</w>
D ata</w>
Croati an</w>
Corbe y</w>
Con tro
Con federal</w>
Con f
Comm it
Cha ir</w>
Canad ian</w>
C ushnahan</w>
Bir dal</w>
Az ores</w>
Austri ans</w>
Any way</w>
Afric ans</w>
Afgh ans</w>
A h
9 3</w>
8 -
4 -
200 9</w>
200 1/
20 2</w>
1 3
í ez</w>
z u
zu el
yt tebroeck</w>
wil d</w>
wel l
wa ste
vo y
ver ies</w>
ver b</w>
ve he
v ated</w>
ur ant</w>
under- represented</w>
un worthy</w>
un successful</w>
un iting</w>
un comfortable</w>
un ambigu
unambigu ously</w>
trans cen
tot alling</w>
tor n</w>
toler ant</w>
tic es</w>
ti lis
th is;</w>
th in</w>
termin als</w>
teach er</w>
take overs</w>
tain ment</w>
tain able</w>
ta BDE</w>
t oll</w>
super -
stri p</w>
sti aga</w>
spo ts</w>
small est</w>
si li
short fall</w>
shir k</w>
shap ed</w>
sha ke</w>
se a
scrap ped</w>
sc ure</w>
sac ros
sacros anc
sacrosanc t</w>
s will</w>
ru in</w>
ro c
ren tin</w>
ren dered</w>
remain der</w>
rel ying</w>
read ings</w>
reac tor</w>
re acting</w>
r ors</w>
qu e
provo ke</w>
propor tional</w>
promo tions</w>
produc tions</w>
prin ting</w>
pregn ancy</w>
pre fers</w>
pione ering</w>
per severance</w>
pene tr
p a</w>
over lap
or in</w>
op pressed</w>
op a
ob scure</w>
o stiaga</w>
o di
nu isance</w>
non- discriminatory</w>
net working</w>
nee ding</w>
ne y</w>
nation alist</w>
n our
mur de
multicul tural</w>
modern ised</w>
mod ulation</w>
mobil ising</w>
measu rable</w>
massac re</w>
man dates</w>
mag ic</w>
macro- economic</w>
ma tical</w>
ma the
ma m
m ir</w>
los ers</w>
liveli hoods</w>
less er-
lesser- used</w>
le icher</w>
lap se</w>
labor atory</w>
la kes</w>
la g</w>
l unch</w>
ke ys</w>
k ay</w>
it arianism</w>
is sions</w>
is se</w>
invo ke</w>
inv ent</w>
inten tional</w>
influ x</w>
in j
imm une</w>
im pover
im plants</w>
ign ant</w>
i tions</w>
i fied</w>
hun t</w>
homosexu als</w>
holi days</w>
hol low</w>
hen ceforth</w>
hal ted</w>
ha ul
h ler</w>
ground water</w>
gr ate</w>
go at</w>
glo be</w>
geograph ically</w>
gene tics</w>
fram es</w>
five -
fin ite</w>
fer tilis
fav ouring</w>
far ce</w>
fac tual</w>
fa it</w>
f way</w>
ext inc
expi res</w>
exemp ted</w>
exce eds</w>
ex changed</w>
equi valence</w>
enthusias tically</w>
embry onic</w>
eman ating</w>
elo qu
ell ing</w>
educ ated</w>
e rec
duc ing</w>
do omed</w>
do gs</w>
distribu tors</w>
dis satisfied</w>
dimin ish</w>
di ff</w>
di ans</w>
detec tion</w>
der mann</w>
denomin ator</w>
degre es</w>
defin itively</w>
def er</w>
cust ody</w>
cra zy</w>
cou pled</w>
cor ps</w>
cor d</w>
contro ller</w>
confir ming</w>
con spic
complic ate</w>
complac ency</w>
compens ating</w>
commerci alisation</w>
comm only</w>
colon i
cli ent</w>
cle ans
clas hes</w>
cha ins</w>
c il
c ation</w>
broadcast ers</w>
brilli ant</w>
bra ke</w>
boycot t</w>
boo sting</w>
bir th
bi om
bench mark</w>
believ ing</w>
bel t</w>
back drop</w>
b i</w>
b hardt</w>
b es
aven ues</w>
aud iting</w>
at tered</w>
aspi re</w>
ar ticul
ap pointing</w>
alli ances</w>
al d</w>
ak er</w>
affir m</w>
adju sting</w>
ad ven
Y ass
W ere</w>
W IP
WIP O</w>
Vene zuel
Un der
UN ICE
UNICE F</w>
Trans -European</w>
Traffic king</w>
Tim es</w>
The orin</w>
T rentin</w>
T elec
Swe des</w>
Sud an</w>
Ste el</w>
Some one</w>
Sil va</w>
Seg uro</w>
Sch leicher</w>
Scand in
San ter</w>
Sahar an</w>
S ign
Ross a</w>
Refuge e</w>
Pro te
Parlia ments</w>
P en</w>
P aul</w>
No ise</w>
Neyts-U yttebroeck</w>
Me eting</w>
Mar fil</w>
Mad agas
Le on
Kash mir</w>
K LA</w>
Jo spin</w>
Jen in</w>
Isra eli
I bra
Hu hne</w>
H ec
Gor ostiaga</w>
Ge bhardt</w>
F ull</w>
Ex cep
Every body</w>
ECHEL ON</w>
Dis crimin
Del hi</w>
De par
D íez</w>
D oping</w>
Colo m</w>
Car lo
Car diff</w>
C up</w>
C had</w>
C P</w>
B lan
B ene</w>
Al ter
Ac tually</w>
9 6/
9 00</w>
2 20</w>
198 7</w>
1 33</w>
ï ve</w>
y ard</w>
with drew</w>
whole -
whis tle-
we aring</w>
w aged</w>
vari eties</w>
vacc ine</w>
ush ing</w>
upgra ding</w>
unilater alism</w>
underpin ning</w>
und ue</w>
un ted</w>
un restricted</w>
un rest</w>
un healthy</w>
un d</w>
ul tra-
u er</w>
twenty- five</w>
turn out</w>
travel lers</w>
trans posing</w>
top -
tis emitism</w>
ti ously</w>
thor ny</w>
tes y</w>
ten th</w>
techni que</w>
tabo os</w>
succ ession</w>
substitu tion</w>
stri des</w>
star t-up</w>
spon tane
spirit ual</w>
spir its</w>
spectac ular</w>
so licited</w>
sk il
siz es</w>
sidi um</w>
side -
si ghts</w>
she er</w>
scr at
scrat ch</w>
sc rapi
san itation</w>
sabot age</w>
rhetor ical</w>
reven ues</w>
resum ption</w>
restric ts</w>
ren oun
rela xed</w>
rela x</w>
rel en
reiter ates</w>
recur ring</w>
reci pe</w>
re tic
re tention</w>
re plying</w>
re minis
reminis cent</w>
public ise</w>
provo ked</w>
protagon ists</w>
prohib its</w>
pro verb</w>
pro clamation</w>
privile ges</w>
prin ted</w>
pre valent</w>
po wered</w>
pivo tal</w>
pic ked</w>
phas es</w>
per cep
p ts</w>
out lining</w>
ori ous</w>
opport un
ol f</w>
notor ious</w>
no table</w>
no ck</w>
nation ally</w>
na ïve</w>
multi ple</w>
motor way</w>
mobil ised</w>
mil li
mil es</w>
ment -
lo dged</w>
lic op
li kes</w>
legitim ise</w>
legisl ating</w>
lea k</w>
lan d-
la p</w>
k g</w>
it ;</w>
inven tory</w>
intrin sic</w>
inter active</w>
intensi fication</w>
inten tioned</w>
ing e</w>
indul ge</w>
inde x</w>
in vention</w>
in sid
in jury</w>
in ject</w>
in human</w>
in coming</w>
implic ation</w>
illu sions</w>
identi ties</w>
hoolig ans</w>
he ster</w>
han ding</w>
hal fway</w>
ha vens</w>
gu ise</w>
gr ated</w>
gg s</w>
geo graphic</w>
ge ar</w>
g rid</w>
g le
frigh tened</w>
form idable</w>
for -
fo stering</w>
flexi bly</w>
fle e</w>
fi xing</w>
fashi oned</w>
fas cin
fail ings</w>
f illing</w>
exter n
explo red</w>
euro -
ess ors</w>
escap ed</w>
eradic ated</w>
er ;</w>
enti ties</w>
end ure</w>
en rich</w>
em elli</w>
eli gibility</w>
e ggs</w>
e ffic
e Europe</w>
dra in</w>
diversi fication</w>
distric ts</w>
dissemin ated</w>
direc tors</w>
din bur
dinbur gh</w>
di vor
dem ago
deleg ate</w>
dec lining</w>
dec im
de mar
da via</w>
cul turally</w>
cre atures</w>
cour tesy</w>
counter- productive</w>
conver ted</w>
conven ed</w>
contr actors</w>
confisc ation</w>
competen cies</w>
comp ound</w>
col lege</w>
co- incineration</w>
co sting</w>
cl ou
ch al
cep hal
cataly st</w>
car pet</w>
car c
candi d
c lim
bloo d
b und
atten tive</w>
asser t</w>
assa ult</w>
arre ars</w>
argu es</w>
ar chi
approxim ate</w>
apparat us</w>
ancho red</w>
an om
an ch
amoun ted</w>
al er
al and</w>
aggres sion</w>
ag eous</w>
ag ent</w>
after -
advis able</w>
adminis ter</w>
acqu iring</w>
aci dification</w>
acc essions</w>
absten tion</w>
Ze aland</w>
Un ion
Tur mes</w>
Tor res</w>
Tan nock</w>
Sou chet</w>
S ir</w>
S P
Rw anda</w>
Ro the</w>
Ro ad</w>
Re ference</w>
Pre par
Pra gue</w>
Posi tion</w>
Pe ter</w>
Paci fic</w>
P h
P AR
O P
Nassa uer</w>
More ira</w>
Mon t
Mon net</w>
Mol davia</w>
Mo ving</w>
Mat ters</w>
Mar se
Madagas car</w>
L ess</w>
Kin dermann</w>
Kar l</w>
K n
Jord an</w>
J ames</w>
Imple mentation</w>
I R
I A
Hon ourable</w>
Hec ke</w>
He ading</w>
Guar an
Grou ps</w>
Green land</w>
Gr ö
Govern ing</w>
G emelli</w>
G as
Flo rence</w>
Fac ed</w>
F ron
F lem
Ear lier</w>
EU- Russia</w>
E dinburgh</w>
Dimitrak opoulos</w>
D un
Con clu
Com p
Chic hester</w>
Cam p</w>
CI TES</w>
C op
C ity</w>
Bo s</w>
Be y
At kins</w>
Ass istance</w>
Ari el</w>
Angol an</w>
Al ready</w>
7 6</w>
198 5</w>
198 0</w>
197 9</w>
19 70</w>
0 1</w>
- back</w>
zo on
work load</w>
won dered</w>
witn esses</w>
widen ed</w>
vo y</w>
vit ality</w>
veri fied</w>
verb atim</w>
vehe men
us o</w>
up wards</w>
under ground</w>
undeni ably</w>
und reds</w>
und i</w>
un wiel
un solicited</w>
un related</w>
u pro
tt a</w>
trium ph</w>
treat ments</w>
transpa rently</w>
trans forming</w>
tor ates</w>
three- year</w>
though t-
the- board</w>
the tical</w>
testi mony</w>
testi fy</w>
terri bly</w>
ten tly</w>
ten den
tenden cies</w>
temper ature</w>
te dness</w>
t/ Nordic</w>
t s-
t at</w>
sustain ing</w>
suspic ious</w>
suspec ts</w>
success or</w>
substanti ated</w>
stret ched</w>
stic king</w>
sti r
sti f
star ving</w>
star k</w>
st ays</w>
st an</w>
st al
squ ee
sign atories</w>
si e
shor test</w>
se u
scrapi e</w>
sca ffol
satis fying</w>
sa fest</w>
s ors</w>
s cor
s at</w>
ruth less</w>
ross- the-board</w>
ri ft</w>
restra ints</w>
requis ite</w>
repu di
rele asing</w>
region alisation</w>
reas s
re wards</w>
re ward</w>
re l</w>
re introduced</w>
re form
pro testing</w>
prescri p
precau tion</w>
pic king</w>
per verse</w>
pe tty</w>
pass ports</w>
pac kets</w>
overshad owed</w>
ot age</w>
origin ate</w>
onym i</w>
om issions</w>
off shore</w>
of- origin</w>
noti fy</w>
no ting</w>
nil let</w>
ne edless</w>
ne ed
n est</w>
n ell
nell hardt</w>
myster y</w>
motor ways</w>
mis guided</w>
mil ls</w>
mid night</w>
mer cy</w>
medi ator</w>
manag es</w>
mal nutrition</w>
m uni
lu dic
ludic r
loy alty</w>
los er</w>
lo dge</w>
liveli hood</w>
liti gation</w>
lia ison</w>
li br
len i
leis ure</w>
least- developed</w>
l ing
ke en
k it
jo y</w>
j ac
is s
inv ites</w>
intransi gence</w>
interrup ted</w>
inspec ted</w>
initi ating</w>
inher ited</w>
in viol
in tru
in king</w>
in admissible</w>
i e</w>
hu n</w>
hr ton</w>
harmon ious</w>
hard ship</w>
hand -
h ushkits</w>
h its</w>
grou ping</w>
grand children</w>
gr e</w>
gi ft</w>
g lim
ful lest</w>
ful fil
fulfil ment</w>
fram ing</w>
four -
form erly</w>
forbi dden</w>
foo d-
first- class</w>
feder alists</w>
f us
f laws</w>
f en</w>
ey hun</w>
expl oring</w>
exclu des</w>
evol ve</w>
even ly</w>
er re</w>
er onymi</w>
equ als</w>
ep ers</w>
enjo y
enhan ces</w>
encomp asses</w>
en demic</w>
embrac ing</w>
embar king</w>
el ite</w>
east wards</w>
e fire</w>
du ty-
dre am
down wards</w>
doub ling</w>
do zen</w>
disrup ters</w>
dis sid
dis car
direc ting</w>
differenti ate</w>
di x</w>
dest ined</w>
dele ting</w>
de vi
de part</w>
de ems</w>
cryst al</w>
cruel ty</w>
cru x</w>
cru de</w>
cra tic</w>
cop ies</w>
contin ual</w>
conten tion</w>
conspic uous</w>
condi tionality</w>
comple ments</w>
complain ing</w>
compens atory</w>
com prise</w>
coast line</w>
co er
chick ens</w>
ceas efire</w>
catastro ph
casu alties</w>
cab inet</w>
ca ke</w>
brut ality</w>
broad ened</w>
bro kers</w>
bri dled</w>
bread th</w>
bo ards</w>
bl ue</w>
bl amed</w>
biom ass</w>
barbar ism</w>
ba g</w>
b att
b ar</w>
assum ptions</w>
asm us</w>
arrog ance</w>
ar ts</w>
ar sen
anti-S emitism</w>
anonym ous</w>
annex ed</w>
ali enable</w>
al armed</w>
ad diction</w>
accum ulation</w>
accel eration</w>
acc use</w>
acc essing</w>
ac ross-the-board</w>
abo ve-
Zimbabwe an</w>
Yass er</w>
Wh enever</w>
Wall is</w>
U M
Temel in</w>
TE N</w>
T al
Str ic
Sim ply</w>
Ser b</w>
Sch nellhardt</w>
S uc
S he
Rui z</w>
Re ports</w>
Re ad</w>
R ot
R ev
R C</w>
Presiden cies</w>
Por to</w>
Phi li
Particul arly</w>
Par ish</w>
P op
P om
O per
No where</w>
Napo le
N orm
Mon go
Marse illes</w>
Mar tin
Li ese</w>
Li b
Lef t/Nordic</w>
Lam a</w>
L ong</w>
Israeli -
Incre asing</w>
In novation</w>
Import ant</w>
Hum an
Hi eronymi</w>
He ad</w>
Har mon
H undreds</w>
H ADE
HADE P</w>
Good will</w>
Ga hrton</w>
Fra isse</w>
Er asmus</w>
Dru gs</w>
Do cu
Direc tor</w>
Diffe rent</w>
D om
Cor nillet</w>
Commit tees</w>
Co al</w>
Ch ris</w>
C eyhun</w>
Bur undi</w>
B il
Ay uso</w>
Ar ound</w>
Ann an</w>
Ale gre</w>
A sy
2 80</w>
197 0s</w>
0 3
- turn</w>
- raising</w>
we ar</w>
warm est</w>
w ary</w>
virtu es</w>
vide o</w>
vers a</w>
ver sus</w>
val uation</w>
v ador</w>
ut op
up heav
under development</w>
under developed</w>
un spent</w>
un punished</w>
un justifiable</w>
un just</w>
un ease</w>
un balanced</w>
u tter</w>
u no
tr uck</w>
tn ight</w>
tici ans</w>
tic her</w>
ti us</w>
therap y</w>
th es</w>
tex t
termin ation</w>
ter o
temp ted</w>
telec oms</w>
tan o</w>
tal i
syn chron
sympath ise</w>
sy non
suspen ding</w>
survi ved</w>
super vised</w>
super fic
su e</w>
stu b
stay ed</w>
state -
stabil ising</w>
sta kes</w>
st ro
st ar</w>
spen ds</w>
spectac le</w>
south- eastern</w>
sin cer
sincer ity</w>
shoul ders</w>
sho ot</w>
shif ted</w>
shi eld</w>
sha ken</w>
set- aside</w>
scrutin ised</w>
satis fies</w>
s ounding</w>
s lick</w>
row ing</w>
ro of</w>
restruc tured</w>
resid ues</w>
res isted</w>
ren ders</w>
rein state</w>
real m</w>
re visit</w>
re tali
re state</w>
re production</w>
re now
renow ned</w>
re ments</w>
re linqu
re introduce</w>
rac onian</w>
ra b
r ushed</w>
r ough</w>
question ably</w>
prosecu tors</w>
proce eded</w>
pro min
presid ents</w>
pres tige</w>
pre y</w>
por tion</w>
po ll</w>
pil otage</w>
photo graphs</w>
phas ing-
paramilit ary</w>
paraly sed</w>
pa res</w>
p seu
p ap
over lap</w>
outra ge</w>
origin ates</w>
oppon ent</w>
omb au
olu tions</w>
ol ing</w>
occup ies</w>
obe y</w>
nour ished</w>
non- proliferation</w>
nin th</w>
nation -
n ut
much- needed</w>
mor ally</w>
missi les</w>
men sion</w>
measu rement</w>
me -
materi alise</w>
manag eable</w>
man power</w>
man ge</w>
mal administration</w>
ma ster</w>
lobb ies</w>
lob by
lo cu
liter ature</w>
licop ters</w>
law making</w>
lan ding</w>
l um
k ness</w>
judic ious</w>
j um
intermedi ate</w>
inter rupt</w>
insur moun
infla tionary</w>
infer ior</w>
in su
in conceivable</w>
in aug
in alienable</w>
im pending</w>
ill ar</w>
ide dly</w>
ic ably</w>
i er
hypo thetical</w>
hy ster
hor rors</w>
hei ghts</w>
haz el
har assed</w>
hang ing</w>
habit at</w>
ha sty</w>
h le</w>
gu ess</w>
gre w</w>
gol ese</w>
go ats</w>
gener ously</w>
gen s</w>
gang s</w>
g ma
ful ly-
fram ed</w>
formul ae</w>
for tnight</w>
fluctu ations</w>
fi erce</w>
fast est</w>
facilit ates</w>
exam inations</w>
ex pose</w>
ex ile</w>
et ticher</w>
es -General</w>
end uring</w>
em porary</w>
electr onically</w>
elec t</w>
elabor ate</w>
effic acy</w>
ed -
eco logically</w>
echo ed</w>
eag erly</w>
e- fire</w>
e go
e gal</w>
e es</w>
e bl
e ben
eben ga</w>
duplic ate</w>
dispen se</w>
discus ses</w>
disap point</w>
dis playing</w>
dic e</w>
determin es</w>
destabil ising</w>
deser t</w>
descri ptions</w>
den sely</w>
deleg ated</w>
degra dation</w>
dec idedly</w>
deb atable</w>
de lu
de light</w>
d row
cultiv ated</w>
country- of-origin</w>
correc ting</w>
contribu tor</w>
cont emporary</w>
constitu ted</w>
constitu encies</w>
compe l</w>
commen ced</w>
comm on
cleans ing</w>
cle ar
child hood</w>
child care</w>
champ ion</w>
ch i</w>
ch er
cen sorship</w>
celebr ation</w>
catastroph es</w>
cannib alism</w>
calcul ate</w>
c ence</w>
bra in</w>
blo c</w>
bl essing</w>
b read</w>
b lowing</w>
author itative</w>
au to
at -
as simil
arbitr ation</w>
anticip ation</w>
announ cements</w>
an tisemitism</w>
am nesty</w>
al as</w>
agu a</w>
ag ri
add ers</w>
ad mitting</w>
accompl i</w>
accommod ated</w>
Wi ebenga</w>
Who ever</w>
UM TS</w>
UE N</w>
Tr ue</w>
Th i
T emp
Sen egal</w>
Se tting</w>
Sal vador</w>
S pace</w>
S even
Rü hle</w>
Rom an</w>
Rel ating</w>
R od</w>
Pro pos
Pom és</w>
Poli ticians</w>
Peter sen</w>
Paci otti</w>
P illar</w>
O ut</w>
O ut
O C
Nav al</w>
Napole tano</w>
Mol lar</w>
Mess rs</w>
Men rad</w>
Maj or</w>
M ombau
M ira</w>
M ain
Lib ya</w>
Li fe</w>
Leon ardo</w>
L D</w>
Ibra him</w>
ICA NN</w>
I gn
I P</w>
H ed
F ishing</w>
Euro barometer</w>
Enter prises</w>
E ver</w>
E R</w>
E A
Discrimin ation</w>
Di mension</w>
Develop ing</w>
Dan es</w>
D A
Cypri ots</w>
Cor rie</w>
Comp any</w>
Co el
Chech ens</w>
Catal onia</w>
Bu il
Bo etticher</w>
Blan c</w>
Bey sen</w>
Be li
BB C</w>
B or
Asy l
Ap proxim
An dre
A tt
A T
8 4</w>
20 th</w>
15 -
- regional</w>
ò li
òli ba</w>
é tr
étr as
étras anta</w>
é n</w>
y en</w>
wi ped</w>
wai ve</w>
vulner ability</w>
voy age</w>
vi an</w>
ver itable</w>
ven tions</w>
vari ations</w>
us tices</w>
us age</w>
up ward</w>
unwiel dy</w>
un usually</w>
un condi
uncondi tionally</w>
typ ically</w>
tw in</w>
tri angle</w>
trans action</w>
tou ching</w>
to oth
tic ally-
ti ly</w>
than k
ter dam</w>
ten acity</w>
t- day</w>
super state</w>
sup pressed</w>
sub ver
str ands</w>
star vation</w>
st ol
stol en</w>
spot light</w>
so red</w>
situ ated</w>
simpl est</w>
si r</w>
sequ ence</w>
sel dom</w>
scaffol ding</w>
s nu
s its</w>
rog ative</w>
ro oms</w>
ris tina</w>
resid e</w>
ren ts</w>
reli eve</w>
reli ev
rel la</w>
rejo ice</w>
rein vigor
recru it</w>
rec ess</w>
re sta
re considered</w>
ration alise</w>
ra ison</w>
r ating</w>
quanti fied</w>
predec essors</w>
prec eding</w>
pre rogative</w>
pow der</w>
portfoli o</w>
port ;</w>
popul ism</w>
poll ute</w>
po tism</w>
po ol</w>
po lar</w>
pl u
pipe line</w>
persis tence</w>
perio dic</w>
per me
pat ented</w>
pain t</w>
p able</w>
out comes</w>
ou sed</w>
optim al</w>
ophi lia</w>
off -
of i</w>
obli ges</w>
nut shell</w>
north- west</w>
nitro fen</w>
new com
n ly</w>
mo ck
mix ture</w>
min gly</w>
marke t
man ship</w>
m on</w>
long er-
log ists</w>
leag ue</w>
lau rels</w>
lan ders</w>
l es
k i
k a
juven ile</w>
jar gon</w>
j a</w>
ir rit
ir r
inven ted</w>
inter vals</w>
inter locu
inter connection</w>
insurmoun table</w>
instru mental</w>
inst inc
inj ustices</w>
in hab
in dispu
imple ments</w>
im pul
im po
il itation</w>
ier huber</w>
ide lines</w>
id ity</w>
hom eland</w>
hi bi
hel pl
he tero
h ate</w>
ground work</w>
gi ant</w>
fu tile</w>
fru ition</w>
front loading</w>
fro zen</w>
fortun e</w>
form alities</w>
foot b
fool ish</w>
foo l</w>
fl ou
fish meal</w>
fish ed</w>
fin ishing</w>
fin alise</w>
fer re
feed back</w>
fac ilitation</w>
fa una</w>
f ting</w>
f lim
f for
expec tancy</w>
exer ting</w>
exacerb ate</w>
ex pon
es sional</w>
err i</w>
er ron
er ial</w>
enti tlement</w>
end anger</w>
en vel
en e-
ene- Thi
ene-Thi ery</w>
eleph ants</w>
eleph ant</w>
ele mentary</w>
ed ondo</w>
econom ical</w>
dé mar
dum ped</w>
down turn</w>
do or
distric t</w>
distinc tive</w>
dispar ity</w>
disco very</w>
discipl ined</w>
dis soci
diplom as</w>
dign ified</w>
dict ator</w>
diagno sis</w>
deterior ate</w>
destabil ise</w>
dest iny</w>
desper ation</w>
desi rability</w>
deri ves</w>
den ce-
defe ated</w>
def end
dec ency</w>
de vol
de ter</w>
d in</w>
d g
counterfe it</w>
counter part</w>
corrid ors</w>
correc tive</w>
conveni ent</w>
controll able</w>
cont acted</w>
confron ting</w>
conce de</w>
conce aled</w>
conc ession</w>
con sume</w>
con scienti
complic ations</w>
compar ing</w>
col umn</w>
co ff
cle arest</w>
ch er</w>
ch ant</w>
centr ation</w>
celebr ating</w>
ceas e-fire</w>
cast ing</w>
campaign ing</w>
budge ted</w>
bro ker</w>
bol ster</w>
bo vine</w>
bo ast</w>
black mail</w>
bassad ors</w>
bas in</w>
bank rupt</w>
bab ies</w>
b other</w>
b is
avoi ds</w>
autom obile</w>
at tained</w>
architec ture</w>
appe ti
anti- fraud</w>
anti- European</w>
anom al
am bassador</w>
alis es</w>
ali gn</w>
ala i</w>
al cul
ag ine</w>
affor ds</w>
admi rable</w>
acu tely</w>
accur acy</w>
absor ption</w>
abduc tion</w>
Z ana</w>
W el
W a
W EU</w>
V id
V O</w>
Un it</w>
Tri bunal</w>
Taj ani</w>
T am
Su n</w>
Speci fic</w>
Span i
South- East</w>
Slov ak</w>
Ser ious</w>
Sch ierhuber</w>
SA PAR
S ul
S mo
Rot terdam</w>
Rapporte ur</w>
R edondo</w>
Plooij- van</w>
Pi étrasanta</w>
Pen insula</w>
P y
Organis ed</w>
Ol sson</w>
Norm ally</w>
New ton</w>
Net works</w>
Net work</w>
Ne arly</w>
N ami
N O
Mombau r</w>
May er</w>
Mark ov</w>
Marin os</w>
Man de
Mal ay
M ust</w>
M ir
M ight</w>
Lu k
Lis i</w>
K on
K ofi</w>
Jen sen</w>
Israeli- Palestinian</w>
Individu al</w>
Hol te</w>
Hol land</w>
Her nández</w>
Her mange</w>
Hal f</w>
H y
Gu idelines</w>
Gen e
Gas òliba</w>
G O</w>
Fe w</w>
F as
F VO</w>
Euro group</w>
E ss
E F
E AG
EAG G
Democr acies</w>
Cu st
Com ing</w>
Coel ho</w>
Christi an-
Chan ges</w>
Ber th
And reas
AL E</w>
A -
9 2/
8 3</w>
19 1</w>
10 8</w>
- minded</w>
- making</w>
é r
ym ous</w>
ym me
y cle</w>
x ation</w>
with stand</w>
with holding</w>
wis er</w>
weigh ed</w>
way side</w>
war lor
view points</w>
vic a</w>
ver bal</w>
vehemen tly</w>
v o</w>
up holding</w>
up dates</w>
univers ality</w>
uni fy</w>
un used</w>
un fol
un bridled</w>
un accep
um a</w>
u ti
ty pi
tur dy</w>
trium ph
trigg er</w>
trans porters</w>
time- consuming</w>
tic kets</w>
tic ket</w>
thri ve</w>
th én</w>
th odo
ter res</w>
t- finding</w>
t to</w>
t s/
t land</w>
t ine</w>
t ch</w>
synon ymous</w>
sym b
symb ols</w>
sur pris
suppli er</w>
succe eds</w>
substitu tes</w>
sub- Saharan</w>
sub mar
su preme</w>
stream line</w>
stimul ated</w>
stag n
spontane ous</w>
spokes person</w>
shell s</w>
sensi tivities</w>
semin ars</w>
sem i-
seg ment</w>
sec ular</w>
se af
scrup ulously</w>
sci ences</w>
satell ites</w>
sac red</w>
s orrow</w>
s mile</w>
road -
ro vica</w>
righ tful</w>
ri an</w>
reti re</w>
res our
repro ach</w>
remedi ed</w>
reli es</w>
recy cle</w>
rec alling</w>
rec alled</w>
reaffir ms</w>
re- established</w>
re united</w>
re signed</w>
re places</w>
questionnai re</w>
purchas es</w>
pup ils</w>
pu zz
provin ces</w>
proper ties</w>
profession alism</w>
process ors</w>
prob ability</w>
pro long
pri z
presum ption</w>
prejudic es</w>
pre judge</w>
practi tioners</w>
poss esses</w>
po lar
ple asing</w>
periph ery</w>
peace- keeping</w>
pe ts</w>
pe ak</w>
par ity</w>
pac ket</w>
pa w
pa rent</w>
p urity</w>
p ins</w>
over turn</w>
out -of-
oun d-
orph an
ord erly</w>
or ally</w>
one- way</w>
on-the- spot</w>
on- line</w>
on ds</w>
on ;</w>
o b</w>
non- vaccination</w>
nit ude</w>
negoti ator</w>
neglec ting</w>
need lessly</w>
ne es</w>
multi- ethnic</w>
multi lat
mono xide</w>
mon ster</w>
mod alities</w>
mock ery</w>
mo tto</w>
mis lead</w>
medi ene-Thiery</w>
may or</w>
market place</w>
manipul ated</w>
manipul ate</w>
manag erial</w>
mag nitude</w>
ludicr ous</w>
luc ky</w>
lobby ists</w>
lin ess</w>
like li
likeli hood</w>
libr aries</w>
li king</w>
levi ed</w>
le ver</w>
la x</w>
l adders</w>
kill ings</w>
ke epers</w>
ji do</w>
jeopardis es</w>
j er
j ail</w>
it a</w>
is tr
inven tions</w>
inv al
inciner ators</w>
in os</w>
in deb
ill o</w>
il and</w>
identi fiable</w>
ic ism</w>
hus band
husband ry</w>
humili ation</w>
humili ating</w>
hol a</w>
ho p</w>
high- risk</w>
he licopters</w>
hazel nuts</w>
haul age</w>
har ms</w>
h l</w>
h ind
gui ties</w>
gu est</w>
gre ed</w>
gg ling</w>
gg le</w>
geograph y</w>
g le</w>
frustr ating</w>
fraudul ent</w>
flour ishing</w>
fla v
first- hand</w>
fin e-
ffor ts</w>
fem in
fascin ating</w>
f ence</w>
f ans</w>
extinc tion</w>
exter nally</w>
exce ed
exacerb ating</w>
ex or
ev o
ev asion</w>
ess -raising</w>
es el
enligh tened</w>
enhan cement</w>
en quiries</w>
employ ability</w>
elec tors</w>
ele ven
el in
el en</w>
ed a</w>
eco system</w>
ebl er</w>
e u</w>
du ous</w>
distingu ishing</w>
dis pose</w>
dis honest</w>
dil ution</w>
diam onds</w>
di ame
des pic
dence- building</w>
demar cation</w>
dedic ate</w>
decou pling</w>
dec lined</w>
dec eption</w>
dead ly</w>
de vil</w>
d raconian</w>
d bour
dbour n</w>
cu b
cross roads</w>
cros sed</w>
critic ises</w>
cre ws</w>
cor relation</w>
contrac eption</w>
connec t</w>
concentr ates</w>
con tested</w>
con serve</w>
compe lling</w>
comp ile</w>
coloni alism</w>
col our</w>
classi cal</w>
clari fies</w>
cheap ly</w>
character ise</w>
ce ases</w>
car t
candid acy</w>
c king</w>
c end</w>
bus h</w>
burden ed</w>
bur n</w>
bu t
broad -based</w>
bro ach</w>
bottom -up</w>
blow n</w>
ble ms</w>
blat antly</w>
bi -regional</w>
bel ts</w>
be aches</w>
b ling</w>
b ind</w>
b ills</w>
b ann
audi ence</w>
au x</w>
attr acting</w>
att ach
ath le
at es-General</w>
asser tions</w>
asser ted</w>
assemb lies</w>
ask ar</w>
arrog ant</w>
ar ray</w>
appe aled</w>
app alled</w>
apo logy</w>
anti- democratic</w>
analy tical</w>
an no
an alo
alu n</w>
alle viation</w>
alco hol
agre b</w>
aer onau
addi tive</w>
acquis itions</w>
accompl ish</w>
accommod ation</w>
accel er
ac compli
ac company</w>
ab it
a ust</w>
Z agreb</w>
Vic ti
Venezuel a</w>
V a
UN I
U g
Tra ining</w>
To x
Th or
Tem porary</w>
Tanz ania</w>
T A
Sw iss</w>
Sum mits</w>
Sub sequently</w>
Simil ar</w>
Sim pli
SAPAR D</w>
S turdy</w>
S hor
S AD
Rom án</w>
Ro yal</w>
Rap kay</w>
Rad wan</w>
Pé ry</w>
Pro blems</w>
Pi erre</w>
O pin
O ne
Ni gerian</w>
Ni ebler</w>
N LD</w>
Mus har
Mul ti
Mongo lia</w>
Mon t</w>
Mit rovica</w>
Mir anda</w>
MO X</w>
M ur
M is
M aria</w>
M ade
M Ps</w>
L und</w>
L askar</w>
Ku wait</w>
Kor hola</w>
Kar lsson</w>
K now
Ju dic
Initi ally</w>
Im agine</w>
Human itarian</w>
Hul thén</w>
Hon dur
Her zo
H off</w>
H AC
HAC CP</w>
Gu terres</w>
G ong</w>
G is
G PS</w>
G 7</w>
For tress</w>
F ront</w>
F erri</w>
F alun</w>
En ron</w>
ECH R</w>
E jido</w>
E fforts</w>
Dun n</w>
Director ates-General</w>
Depar tment</w>
D alai</w>
D a
Cri me</w>
Conclu sions</w>
Co -
C ab
Bus iness</w>
Bud d
Bra dbourn</w>
Bou mediene-Thiery</w>
Berth u</w>
Be yond</w>
Andalu sia</w>
Ad visory</w>
AR GO</w>
A si
197 5</w>
19 60s</w>
ê tre</w>
än der</w>
ã o</w>
z el</w>
z ation</w>
yl a</w>
wor dings</w>
wi d
whol es
well- intentioned</w>
water ways</w>
wat ched</w>
wai ved</w>
w rap
w ounds</w>
w olf</w>
w aging</w>
vis t</w>
ver te
v ac
ut sch
us able</w>
upro oted</w>
uni fying</w>
un regulated</w>
un itary</w>
un bund
un authorised</w>
umb rella</w>
ul ate</w>
uc k
tur bul
tun n
ts/ ALE</w>
tric ky</w>
trans pon
trac es</w>
tra u
tr ically</w>
tic an</w>
tic -
there in</w>
terri fying</w>
tax ed</w>
tain ees</w>
t our</w>
surve ys</w>
surpris ingly</w>
sur prises</w>
summ ed</w>
succe eding</w>
su itably</w>
stu res</w>
struc turing</w>
stat s</w>
sta ing</w>
st in
st ars</w>
st agg
stagg ering</w>
spar sely</w>
sp an</w>
snu ff</w>
sho res</w>
sha m</w>
sh u
separ ating</w>
scre ens</w>
sca pe
s pl
s ounded</w>
s mar
s lugg
s ali
sali ent</w>
rum ours</w>
rul ers</w>
revol ves</w>
res sed</w>
rele ases</w>
refin ed</w>
red ouble</w>
realis tically</w>
read mission</w>
re- examined</w>
re- examine</w>
re opening</w>
re leg
re in</w>
re ign</w>
ra f</w>
provision ally</w>
prote sted</w>
prosecu ting</w>
privati se</w>
presen t-day</w>
prescrip tive</w>
prescri ption</w>
prescri bes</w>
prec lude</w>
porte dly</w>
port ra
policy ;</w>
po lit
plur alist</w>
plic ity</w>
plan es</w>
pig meat</w>
pi pe</w>
pers ists</w>
per ing</w>
par able</w>
paed ophilia</w>
pa ved</w>
p acked</w>
our -
ough s</w>
origin ated</w>
organis ers</w>
org ans</w>
oper ative</w>
op tional</w>
on esel
onesel f</w>
old- fashioned</w>
notic eable</w>
no twithstanding</w>
nine teenth</w>
ner v
murde rers</w>
multilat er
mou ths</w>
motiv ate</w>
money- laundering</w>
mon u
milit ant</w>
measu rements</w>
man -made</w>
maj orities</w>
mag istr
mad ness</w>
ma ps</w>
ma ke-up</w>
longer- term</w>
li gible</w>
le th
la v</w>
l acked</w>
k est</w>
justi fying</w>
it y;</w>
it ar
is o
irre voc
intra- Community</w>
inter connected</w>
institu tes</w>
inspir ing</w>
inspec t</w>
inde f
indef ensible</w>
in ous</w>
in extr
impo tence</w>
ific ations</w>
id a</w>
ich ever</w>
ic e
hyster ia</w>
hum ble</w>
hol istic</w>
hin ders</w>
hemis p
hear tily</w>
heal thier</w>
har bour
handic apped</w>
guil t</w>
guerrill as</w>
gu ards</w>
gi g
gi ants</w>
flu id</w>
fle dged</w>
fac t-finding</w>
f mann</w>
exagger ation</w>
ex porters</w>
ev ils</w>
escap ing</w>
ero ded</w>
er up
er ring</w>
entr ants</w>
enshr ine</w>
end ang
encomp assing</w>
en c
en acted</w>
en -
emo tion</w>
em be
ei gh</w>
eg g</w>
e sidium</w>
dream t</w>
dra gging</w>
dra g</w>
do ses</w>
do gmatic</w>
do g</w>
do -
dissemin ate</w>
dispe l</w>
disgu ised</w>
discrimin ating</w>
discre tionary</w>
discoura ged</w>
discar ded</w>
dis covering</w>
dis agreements</w>
dict ated</w>
despic able</w>
deser ved</w>
der s-
def use</w>
deci bels</w>
de puty</w>
de pos
de pic
de an</w>
d- up</w>
d ys
d ust</w>
d ite</w>
cyn icism</w>
cust om</w>
cur ta
cred itors</w>
cr ats</w>
counter act</w>
corp us</w>
cop ying</w>
conver ting</w>
contra sts</w>
conting ency</w>
consis ting</w>
consci ences</w>
confisc ated</w>
confi dence-building</w>
comp ounded</w>
col ours</w>
col lateral</w>
clou ds</w>
civi c</w>
chron ic</w>
chequ e</w>
ch ner</w>
ce ;</w>
cart els</w>
carc asses</w>
car te</w>
car ing</w>
capit als</w>
cab in</w>
c ks</w>
burea u</w>
bun als</w>
buil ds</w>
bud smen</w>
bro ther</w>
brief ing</w>
bran ches</w>
bon us</w>
bon emeal</w>
bo s
blu e
birth day</w>
bi as</w>
be lls</w>
be aten</w>
be ans</w>
awaren ess-raising</w>
aw i</w>
ater nity</w>
at tainable</w>
assass ination</w>
ash es</w>
as sign
as hen
arti stic</w>
are rs</w>
architec ts</w>
ar duous</w>
ar ances</w>
appeti te</w>
ap hne</w>
anticip ating</w>
an u
an gely</w>
ambi guities</w>
ambi ent</w>
am i</w>
am bassadors</w>
alloc ations</w>
all u
all ay</w>
al- Qu
al-Qu ad
al-Quad ras</w>
al ese</w>
ain t</w>
ai re</w>
aggrav ated</w>
adven titious</w>
advant ageous</w>
adop tions</w>
adap tability</w>
ad mits</w>
acqu itted</w>
Vid al-Quadras</w>
Ver ts/ALE</w>
Va tican</w>
Twen ty</w>
Tur chi</w>
Tor ture</w>
To go</w>
Temp us</w>
Syri an</w>
Sub sidi
Sta r</w>
Sec tion</w>
Schum an</w>
San ders-
S ound</w>
S een</w>
S cho
S and
R ound</w>
R ic
Program mes</w>
Produc t</w>
P an
P AT</w>
O T
No -
No- one</w>
Nami bia</w>
NO x</w>
N A</w>
Mushar raf</w>
Mad ame</w>
Lithu anian</w>
Legis lative</w>
Le yla</w>
Kou chner</w>
Kosov ars</w>
Kau fmann</w>
Ital ians</w>
Ir on</w>
In stance</w>
Im proved</w>
Im pro
ICE S</w>
I v
Hondur as</w>
Herzo g</w>
Guaran tee</w>
Govern ance</w>
Gis card</w>
Gi ving</w>
Frank fur
For d</w>
Flem ming</w>
Effec tive</w>
EU RO
EAGG F</w>
E staing</w>
E ight</w>
D é
D aphne</w>
Consid er</w>
Con golese</w>
Com pared</w>
Col um
Catal an</w>
Car r
CS R</w>
COP 6</w>
C en
C ES
Bulg arian</w>
Bi g</w>
Be hind</w>
B in</w>
At tention</w>
Asyl um</w>
Approxim ately</w>
Andreas en</w>
Ah ern</w>
9 3/
7 8</w>
5 0
4 0
200 1-
19 51</w>
é tat</w>
zer b
zerb ai
z oph
zoph ren
yiel ded</w>
ye ar
y k</w>
y b
wron g
worsen ing</w>
won ders</w>
well being</w>
w ound</w>
vo c</w>
verte br
vertebr al</w>
veri fiable</w>
vari ation</w>
vari able</w>
van guard</w>
val ley</w>
v é</w>
util ise</w>
under takes</w>
un suitable</w>
un solved</w>
un married</w>
un favourable</w>
ud ge</w>
u sive</w>
tru st
troub led</w>
trivi al</w>
trans cend</w>
trans boundary</w>
tram pled</w>
tle ments</w>
tis sue</w>
thought- out</w>
th ick</w>
ter- pays</w>
ten or</w>
te e
tax -
take -
tack les</w>
t arian</w>
t any</w>
supran ation
suff rage</w>
stream lined</w>
str ang
ste ve</w>
ste ering</w>
st amped</w>
squ ab
spr ings</w>
spe lled</w>
spe eds</w>
solem n</w>
sli p
si ties</w>
si fication</w>
si ck
shor tened</w>
sett ling</w>
set back</w>
sen sibly</w>
seas onal</w>
scienti st</w>
schi zophren
sal mon</w>
s n
ro tation</w>
ro aming</w>
resid ue</w>
resemb les</w>
repe aled</w>
refra ined</w>
rec over
re- tabled</w>
re public</w>
re portedly</w>
re location</w>
re bel</w>
ra v
r í
quanti fiable</w>
qu asi
quasi -
provoc ative</w>
promo ters</w>
pro vis
pro position</w>
pro pon
pro long</w>
priv ation</w>
pre-emp tive</w>
pre h
preh end</w>
pra esidium</w>
pollu ter-pays</w>
po s</w>
po ison</w>
plan tations</w>
phr ases</w>
pha n</w>
peti tioners</w>
pessimis m</w>
per tains</w>
pay er</w>
pat er
pap er
pa ving</w>
pa ths</w>
op es</w>
on wealth</w>
ol dest</w>
non- binding</w>
no tions</w>
nitro gen</w>
ning- Schmidt</w>
newcom ers</w>
negoti able</w>
ne potism</w>
nation alists</w>
n- out</w>
moun ted</w>
mor ality</w>
mobil isation</w>
mitig ate</w>
mis led</w>
mis conception</w>
min i-
min de
mil dly</w>
mil d</w>
mi grant</w>
mem ories</w>
medic ation</w>
me ;</w>
may ors</w>
mat ing</w>
mat h</w>
ma ster
m us
loc ks</w>
loc aust</w>
loc ate</w>
licen sed</w>
liber ation</w>
less -
lag s</w>
lab orious</w>
l ung</w>
k m</w>
k ily</w>
k haz
jun ta</w>
it tle</w>
irr itation</w>
ir onic</w>
inv itations</w>
inv ari
inter n
int act</w>
instruc ted</w>
insid er</w>
inno cence</w>
inju ries</w>
inflexi ble</w>
inf ancy</w>
inextr icably</w>
inc ur</w>
inc alcul
in- house</w>
in take</w>
in o
in coherent</w>
in ate</w>
imagin able</w>
il logical</w>
hus band</w>
ho tel</w>
ho l</w>
histor ically</w>
hi d</w>
heav en</w>
he er</w>
ha voc</w>
h at</w>
go -
gi ous</w>
ge stures</w>
fu n</w>
fran ch
fra gr
fin alising</w>
fil ed</w>
fer vent</w>
fe ar
fac eted</w>
f es
extre mes</w>
exce eding</w>
even -
ev al</w>
eth ically</w>
este emed</w>
est y</w>
escal ating</w>
er ously</w>
equ ates</w>
ep iso
environ ments</w>
entr ust</w>
enter tainment</w>
enrich ed</w>
enlarge ments</w>
energe tic</w>
end -
en cephal
emin ently</w>
emer gencies</w>
embrac es</w>
elin ka</w>
elec tric</w>
eco systems</w>
ec yk</w>
e- business</w>
e k</w>
dynam ics</w>
dur able</w>
down s</w>
dom ination</w>
diver gence</w>
dismis sal</w>
disman tled</w>
dis service</w>
dis rupt</w>
dis regarding</w>
dis proportionately</w>
dis miss</w>
diame trically</w>
des k</w>
der ous</w>
deple tion</w>
denoun ced</w>
den ies</w>
democr at</w>
defici ent</w>
def ends</w>
decisi veness</w>
de- mining</w>
de voting</w>
de tainees</w>
de privation</w>
dang erously</w>
d t-
cut backs</w>
cultiv ate</w>
crow ded</w>
cre am</w>
conven ing</w>
constitu tion
consequ ent</w>
conce ded</w>
comple mented</w>
common place</w>
commer cially</w>
com patri
col l
coc ci
ck heer</w>
choo ses</w>
chest er</w>
che ating</w>
chas m</w>
character ises</w>
centr ally</w>
cataly tic</w>
care ers</w>
call -back</w>
calcul ating</w>
c ill
bureaucr ats</w>
bur st</w>
bur ned</w>
bu d</w>
broad ening</w>
bra kes</w>
bottlenec k</w>
bir d</w>
ber ing</w>
ber ian</w>
beha ved</w>
be ating</w>
batt les</w>
bas ing</w>
bar gaining</w>
bar b
b ish</w>
b ble</w>
aw ak
avi an</w>
au ri
ask o</w>
ashen ko</w>
as th
arsen al</w>
arran ging</w>
arbitr arily</w>
ar oused</w>
ar o</w>
ar agua</w>
apprehen sion</w>
anxi eties</w>
antibio tic</w>
an mar</w>
an cing</w>
amal lah</w>
alis ations</w>
al ina</w>
air ing</w>
after math</w>
aeroplan es</w>
adver ti
ad venture</w>
ad a</w>
acquain ted</w>
accommod ating</w>
above- mentioned</w>
abor tions</w>
a- half</w>
Wor ks</w>
Where as</w>
Victi ms</w>
Vice- Presidents</w>
V ander</w>
V I</w>
U sing</w>
U C
Tur ks</w>
Thor ning-Schmidt</w>
Ta x</w>
Ta elen</w>
T s</w>
Sud re</w>
Subsidi arity</w>
Sten zel</w>
Stand ards</w>
St re
Som al
Se oul</w>
Sanders- ten</w>
Sa x
STO A</w>
SA B</w>
S ur
S it
S co
S PA</w>
Re stric
R ene
R en
R EP
Provi ding</w>
Prote stant</w>
Pres evo</w>
Po st
Po ignant</w>
Pi ecyk</w>
PH N
PHN E</w>
P ino
P elinka</w>
P asko</w>
P K
PK K</w>
Nico le</w>
Nic aragua</w>
Nat ura</w>
N et</w>
N U
My anmar</w>
Mit ch</w>
Mic hel
Men tion</w>
Mande la</w>
Malay sia</w>
M auri
M ast
M ass
M B
K e
Judic ial</w>
Jon ckheer</w>
Initi atives</w>
In f
Il legal</w>
Ign alina</w>
IS O</w>
I berian</w>
Hed k
HIV/ AIDS</w>
H it
H P</w>
Grö ner</w>
G l
G ab
Fran kly</w>
Fra ud</w>
Fer rer</w>
F landers</w>
Ex c
Ess entially</w>
Es sen</w>
EM CD
EMCD DA</w>
EE A</w>
E steve</w>
Direc t</w>
De puty</w>
DA PHNE</w>
D ay
D NA</w>
Conf lict</w>
Con ventions</w>
Con tin
Comm onwealth</w>
Can aries</w>
C E
Brit tany</w>
Ber n
Bav aria</w>
Bas el</w>
B é
B ill</w>
B eth
B SE
An dean</w>
Alter na
Ak in</w>
Addi tional</w>
Ab khaz
A zerbai
90/ 220</w>
9 1/
4 50</w>
2 99</w>
2 40</w>
1 80</w>
1 22</w>
1 15</w>
y pical</w>
wi ves</w>
well- informed</w>
wee kly</w>
we gi
watch word</w>
war ring</w>
w re
w anese</w>
volati le</w>
vo res</w>
visi bly</w>
vice- president</w>
vi br
ver sely</w>
v able</w>
ut on
uton ium</w>
ur ricane</w>
understand ably</w>
un workable</w>
un questionably</w>
un ites</w>
un controllable</w>
un believ
ul ing</w>
u rities</w>
ty ;</w>
tunn els</w>
tri bunals</w>
transpi red</w>
transcen ds</w>
trans mit</w>
tran che</w>
tra gically</w>
tra des</w>
tr i</w>
tim ed</w>
tic- resistant</w>
tic ity</w>
tic als</w>
there after</w>
ten ded</w>
tele phon
technic ians</w>
te ous</w>
te aches</w>
tal ent</w>
take -up</w>
ta tively</w>
ta g</w>
t ons</w>
t les</w>
t el
t ack</w>
sw allow</w>
superfic ial</w>
sun k</w>
submar ines</w>
subjec tive</w>
stir red</w>
stipul ating</w>
stat ure</w>
stat es
spe ar
solem nly</w>
so rely</w>
smugg lers</w>
sla ve</w>
sin ks</w>
sin k</w>
sign i
sign atory</w>
si dies</w>
ship ment</w>
shell fish</w>
shel f</w>
selec ting</w>
sector -
sch ol
sanc ti
sadd ened</w>
sa il
s or</w>
s ail</w>
rub bish</w>
ru ined</w>
ri min
resid ual</w>
repe ats</w>
rep ai
reiter ating</w>
rec l
rec ap
re views</w>
re tains</w>
re pris
re payment</w>
re par
ran ko
ranko ski</w>
ra tionally</w>
ra ging</w>
r ally</w>
quie ter</w>
quar rel</w>
prob able</w>
pro tracted</w>
pro sp
pro -European</w>
priv ate-
prison er</w>
pri est</w>
pre sume</w>
pra ises</w>
popul arity</w>
poll ing</w>
po t</w>
po sting</w>
po sted</w>
plas tics</w>
pl utonium</w>
pl anted</w>
per secu
pen insula</w>
pedestri ans</w>
pedestri an</w>
pe t
pat ch</w>
parad ig
paed oph
pa thetic</w>
p ill</w>
outw eigh</w>
or phan</w>
on us</w>
on line</w>
om ing</w>
off s</w>
non- remunerated</w>
non- member</w>
mon str
mode sty</w>
mod al</w>
mo ting</w>
mind ful</w>
mid day</w>
mer cil
ment s;</w>
mat u
manife stations</w>
mani fest</w>
mag az
m esh</w>
m ;</w>
lun ch
long- distance</w>
long- awaited</w>
log istics</w>
lo wered</w>
lo ved</w>
lo gna</w>
ll a</w>
lingu alism</w>
life time</w>
life style</w>
lif ts</w>
leth al</w>
leg g</w>
lab our-
la y
la ment
l y;</w>
l ent</w>
ko v
ki ad
kiad is</w>
k j
k ic
k age</w>
j ump</w>
itis ation</w>
ir responsibly</w>
invo ices</w>
invari ably</w>
intim ate</w>
intermod ality</w>
inter- institutional</w>
insul ting</w>
inser ted</w>
inf il
indispu table</w>
indeb ted</w>
incalcul able</w>
inaug ur
in er
in correctly</w>
in competence</w>
impul se</w>
implic ated</w>
impe di
impe ded</w>
im plied</w>
im patient</w>
il able</w>
i ously</w>
humili ated</w>
horri ble</w>
hori a</w>
hope less</w>
here ;</w>
hem ism</w>
hear ted</w>
happ iness</w>
ham mer</w>
hall mark</w>
ha el</w>
h itting</w>
h ing</w>
h ill</w>
h are</w>
gu ests</w>
glo -
gir l</w>
gi form</w>
ge l</w>
gall eries</w>
g ros
g lar
g ado</w>
furn iture</w>
fr action</w>
for t</w>
for ged</w>
fo reg
fl at</w>
firm er</w>
fif ty-
fi x</w>
ffe e</w>
ferre ts</w>
fasc ism</w>
far- sighted</w>
fana tical</w>
f li
extern alisation</w>
experi mentation</w>
exc itement</w>
even tual</w>
eup horia</w>
eup hemism</w>
entreprene ur</w>
energe tically</w>
endor p</w>
en um
emi tic</w>
emi gration</w>
eleven th</w>
elec ting</w>
el so</w>
educ ate</w>
ear nings</w>
down gra
dog ma</w>
distur b</w>
dissemin ating</w>
discoura ging</w>
disbur sed</w>
direc tor
dio stats</w>
dimen sional</w>
differenti als</w>
di um</w>
di re</w>
determin ants</w>
def enders</w>
decon centration</w>
dec e
de votes</w>
datab ases</w>
cycl ists</w>
curricul a</w>
cru cially</w>
cra f
cr ash</w>
cr acy</w>
cowar dice</w>
coun cill
contra vention</w>
complic ity</w>
commun itisation</w>
commun iti
comm em
comb ines</w>
com prehend</w>
co- legislator</w>
co ffee</w>
clear- cut</w>
cl oud</w>
circum c
chequ es</w>
chal k</w>
chair s</w>
celebr ated</w>
ce real</w>
carro t</w>
car t</w>
cap ture</w>
can s</w>
campaign ers</w>
c ale</w>
c able</w>
bur y</w>
bul l
bu ck</w>
broad est</w>
bre ed
blat ant</w>
bi ds</w>
ben z
be ware</w>
back bone</w>
b ond</w>
b ars</w>
b ac
ay a</w>
ax is</w>
aud itor</w>
atte station</w>
athle tes</w>
astr ana</w>
asth ma</w>
assass inated</w>
ar ching</w>
antibio tic-resistant</w>
anti-S emitic</w>
anti- terrorism</w>
ant an
antan amo</w>
announ cing</w>
an ity</w>
an ing</w>
an ic</w>
amb ia</w>
am ate
alter n
allow ance</w>
aller gies</w>
align ment</w>
ali bi</w>
agri -
affir med</w>
adhe rence</w>
addic tive</w>
acceler ating</w>
a- Europe</w>
a ks</w>
Z ambia</w>
West endorp</w>
War saw</w>
Vir rankoski</w>
Valle y</w>
Ug anda</w>
U -turn</w>
To k
Techno logy</w>
Tai wanese</w>
TE R</w>
Sub sidies</w>
St ra
Sec urities</w>
Scot t</w>
STO P</w>
SO S</w>
SAD C</w>
Rad ical</w>
R amallah</w>
Pro moting</w>
Pino chet</w>
Parlia ment
Pap u
P astrana</w>
Out side</w>
O A
OA U</w>
Nor wegi
Mu tual</w>
Mar tens</w>
Ma o
M ary</w>
Luk ashenko</w>
L änder</w>
L ong
Kou kiadis</w>
K la
J ean</w>
IS PA</w>
IS A</w>
I cel
I TER</w>
Hit ler</w>
H urricane</w>
Gu antanamo</w>
Gree ks</w>
Gra din</w>
G bag
G ama</w>
Fron ti
Fo x</w>
FI F
F it
Ex am
Even ts</w>
Est abl
ES C
D on
D AC</w>
Consid eration</w>
Con sul
Community- wide</w>
Com pens
Co ld</w>
Carlo tti</w>
CO N
C ross-
C legg</w>
Bö hm</w>
Br un
Bo logna</w>
Bar ak</w>
B hu
Azerbai jan</w>
Asi a-Europe</w>
Ap plic
Anti- Doping</w>
Anim als</w>
An glo-
AC T</w>
A vil
9/ 2001</w>
9 -
5 0s</w>
200 2-
20 13</w>
198 4</w>
198 1</w>
197 6</w>
12 -
1 70</w>
1 25</w>
-of- the-
- sharing</w>
- P
ü s
yard sticks</w>
y o
wre tched</w>
worsen ed</w>
wholes ale</w>
whis ky</w>
well- functioning</w>
well- defined</w>
well- considered</w>
warlor ds</w>
war fare</w>
wal king</w>
vi d
vid sson</w>
ven ge
ve to
ve il</w>
uro i</w>
upgra ded</w>
up stream</w>
up coming</w>
und ated</w>
un warranted</w>
un reliable</w>
un important</w>
un even</w>
um p
ump teenth</w>
uck el
u ted</w>
u st
ust omed</w>
u ously</w>
tyran ny</w>
two- year</w>
turbul ent</w>
transpon ders</w>
tr ick</w>
too th</w>
to ward</w>
times hare</w>
times cale</w>
ti stic</w>
[...]
